{"version":"1.0","truncation":null,"padding":null,"added_tokens":[{"id":0,"content":"[PAD]","single_word":false,"lstrip":false,"rstrip":false,"normalized":false,"special":true},{"id":1,"content":"[BOS]","single_word":false,"lstrip":false,"rstrip":false,"normalized":false,"special":true},{"id":2,"content":"[EOS]","single_word":false,"lstrip":false,"rstrip":false,"normalized":false,"special":true}],"normalizer":null,"pre_tokenizer":{"type":"ByteLevel","add_prefix_space":false,"trim_offsets":true,"use_regex":true},"post_processor":null,"decoder":null,"model":{"type":"BPE","dropout":null,"unk_token":null,"continuing_subword_prefix":null,"end_of_word_suffix":null,"fuse_unk":false,"vocab":{"[PAD]":0,"[BOS]":1,"[EOS]":2,"!":3,"\"":4,"%":5,"&":6,"'":7,"(":8,")":9,"*":10,"+":11,",":12,"-":13,".":14,"/":15,"0":16,"1":17,"2":18,"3":19,"4":20,"5":21,"6":22,"7":23,"8":24,"9":25,":":26,";":27,"<":28,"=":29,">":30,"?":31,"A":32,"B":33,"C":34,"D":35,"E":36,"F":37,"G":38,"H":39,"I":40,"J":41,"K":42,"L":43,"M":44,"N":45,"O":46,"P":47,"Q":48,"R":49,"S":50,"T":51,"U":52,"V":53,"W":54,"X":55,"Y":56,"Z":57,"[":58,"\\":59,"]":60,"^":61,"_":62,"`":63,"a":64,"b":65,"c":66,"d":67,"e":68,"f":69,"g":70,"h":71,"i":72,"j":73,"k":74,"l":75,"m":76,"n":77,"o":78,"p":79,"q":80,"r":81,"s":82,"t":83,"u":84,"v":85,"w":86,"x":87,"y":88,"z":89,"{":90,"|":91,"}":92,"~":93,"¡":94,"¢":95,"£":96,"¥":97,"§":98,"©":99,"ª":100,"¬":101,"°":102,"³":103,"´":104,"¹":105,"º":106,"»":107,"¿":108,"Â":109,"Ã":110,"Ä":111,"á":112,"â":113,"ĉ":114,"Ċ":115,"Ġ":116,"Ģ":117,"ģ":118,"Ĥ":119,"ĥ":120,"Ħ":121,"ħ":122,"Ĩ":123,"Ĳ":124,"ĳ":125,"ĵ":126,"ĺ":127,"Ļ":128,"ľ":129,"ł":130,"Ń":131,"ra":132,"}{":133,"rac":134,"frac":135,"dfrac":136,"Ġ\\":137,"le":138,"ig":139,"=\\":140,"ht":141,"ight":142,"right":143,"ft":144,"in":145,"rt":146,"sq":147,"sqrt":148,"left":149,"{\\":150,"ma":151,"ĠĊ":152,"mat":153,"math":154,"Ġ=":155,"lo":156,"rm":157,"}\\":158,"mathrm":159,"^{":160,"Ġx":161,"log":162,"Ġ-":163,"Ġ+":164,"pi":165,"-\\":166,"+\\":167,"Ġ2":168,"_{":169,"la":170,"sp":171,"st":172,"di":173,"yle":174,"yst":175,"layst":176,"splayst":177,"displayst":178,"displaystyle":179,"ve":180,"im":181,")\\":182,"}}":183,"lim":184,"int":185,"}}{":186,")^":187,"ts":188,"}=\\":189,";-":190,"co":191,"its":192,"limits":193,"ove":194,"over":195,"Ġ1":196,"ar":197,"{\\,":198,"ln":199,"ro":200,"20":201,"row":202,"arrow":203,"rightarrow":204,"}=":205,"(\\":206,")=":207,"Ġ3":208,"overrightarrow":209,"(-":210,"fty":211,"infty":212,"Ġa":213,"Ġ(":214,"10":215,"}+":216,"}^{":217,"=-":218,"se":219,"ca":220,"Ġ0":221,"}^":222,"al":223,"ses":224,"cases":225,"Ġf":226,"\\\\":227,"Ġy":228,"cos":229,"201":230,"}{\\":231,"be":232,"lon":233,"colon":234,"sin":235,"12":236,"do":237,"nd":238,"AB":239,")=\\":240,"+(":241,"cdo":242,"ne":243,"end":244,"gin":245,"begin":246,"ha":247,"cdot":248,"}{-":249,"};":250,"}-":251,"Ġz":252,"}+\\":253,"Ġb":254,"^{\\":255,"00":256,"Ġ4":257,"Ġm":258,"pha":259,"):":260,"ta":261,"_{\\":262,"16":263,"bb":264,"Ġ{":265,"'(":266,",\\":267,"15":268,"igne":269,"mathbb":270,"aligne":271,"aligned":272,"(-\\":273,"big":274,"13":275,"alpha":276,"),":277,"\\}":278,"11":279,"25":280,"Ġ5":281,"min":282,"Ġd":283,";+\\":284,"mx":285,"ab":286,")+":287,"2018":288,")^{":289,";\\":290,"=-\\":291,"ge":292,"]{":293,"leq":294,"Ġ<":295,"}_{":296,"14":297,"}=(":298,"lin":299,"overlin":300,"overline":301,"}}\\":302,"{,":303,"}(":304,"BC":305,"'=\\":306,"tfrac":307,"up":308,"|=":309,"=(":310,"Ġ6":311,"cup":312,"to":313,"Ġ\\\\":314,"ral":315,"2017":316,"18":317,"}.":318,"{,}":319,"AC":320,"|\\":321,"{-":322,"[\\":323,"}-\\":324,"17":325,"27":326,"el":327,"[-":328,"ABC":329,"Del":330,"Delta":331,")-":332,"max":333,"24":334,"Ġc":335,"Ġ-\\":336,"30":337,"ĠC":338,"'=":339,"21":340,"ci":341,"rc":342,"circ":343,"\\{":344,"]}":345,"SA":346,"vec":347,"^\\":348,"ex":349,"{{":350,"})":351,"};\\":352,")}":353,"Ġ+\\":354,"ĠR":355,"32":356,"19":357,"MN":358,"id":359,"eha":360,"wid":361,"ehat":362,"widehat":363,").":364,"Ġ>":365,"Ġ=\\":366,"set":367,"},":368,"ax":369,"}^{\\":370,"ĠB":371,"er":372,"tan":373,"36":374,":\\":375,"fo":376,"rall":377,"forall":378,"AD":379,"}&":380,"Ġ;":381,".\\":382,"|+":383,"SB":384,"Ġ&":385,"Ġ|":386,"Ġ7":387,"vert":388,"100":389,"000":390,"{(":391,"|=\\":392,"Ġ9":393,"SC":394,"}_":395,"60":396,"ac":397,"40":398,"2019":399,")(":400,"<\\":401,"cm":402,"Ġ)":403,"26":404,"geq":405,"xy":406,"\\{\\":407,"em":408,"ĠĠĊ":409,"23":410,"nto":411,"ru":412,"phanto":413,"rule":414,"phantom":415,"Ġu":416,"Ġ{\\":417,"}{(":418,"Ġ20":419,"per":420,"perp":421,"beta":422,"]\\":423,"neq":424,"..":425,")}{":426,")=-":427,"xq":428,"50":429,"08":430,"aral":431,"paral":432,"lel":433,"parallel":434,"pm":435,")>":436,"},\\":437,"Ġt":438,"29":439,"Ġ(\\":440,"ĠS":441,"_{-":442,",\\,":443,"35":444,"Ġ10":445,"Ġn":446,"Ġ[":447,"Ġ}":448,"}=(-":449,"28":450,"Ġ8":451,"45":452,"us":453,"minus":454,"setminus":455,"34":456,"'\\":457,"ABCD":458,"\\\\&":459,"Ġ(-":460,")^{\\":461,"^{-":462,"}=-":463,"22":464,"48":465,"_{[":466,"Ġg":467,"Ġ}{":468,"Ġ_":469,"}}+":470,"81":471,"64":472,"MB":473,"bx":474,"33":475,"}}{\\":476,"2020":477,"brac":478,"brace":479,")}^{":480,")=-\\":481,"ime":482,"}<":483,"cot":484,")<":485,"Big":486,"Ġ12":487,"MA":488,"Ġe":489,"Ġi":490,"2016":491,"-(":492,"};+\\":493,">\\":494,"tex":495,"ĠA":496,"text":497,"}^{-":498,"hi":499,"Ġr":500,"49":501,"ga":502,"CD":503,"bar":504,"Le":505,"¬â":506,"Ã¢":507,"âĤ":508,"ftrightarrow":509,"Leftrightarrow":510,"âĤ¬â":511,"Ġk":512,"\\,":513,"pr":514,"prime":515,"Ħ¢":516,")=(":517,"âĤ¬âĦ¢":518,"=|":519,"75":520,"90":521,"phi":522,")+\\":523,"Ġ\\,":524,";-\\":525,"|^":526,"cap":527,"\\%":528,"tp":529,"}}(":530,"var":531,"varphi":532,"}.\\":533,"''":534,")}^":535,"}}=":536,"Ġ&=":537,"125":538,"AA":539,"ray":540,"array":541,"&=":542,"Ġ\\{":543,"65":544,"\\!":545,"39":546,"37":547,"Ġh":548,"Ġ{\\,":549,"_{[-":550,"{{\\":551,"OA":552,"}}}":553,"bigg":554,"...":555,"({":556,"31":557,"<-":558,"54":559,"Ġ}_{":560,"MC":561,"120":562,"BD":563,"ĠBC":564,"80":565,"dx":566,"\\{-":567,"};-\\":568,")^{-":569,"]^":570,"op":571,"=\\{":572,"mathop":573,"72":574,"}}=\\":575,"}+(":576,"bo":577,"ĠO":578,"}}-":579,"=(-\\":580,"ega":581,"mega":582,",~":583,"bc":584,"ĠN":585,"Ġ16":586,"Ġ^":587,"Ġ(-\\":588,"Ġ_{":589,"bac":590,"ks":591,"sh":592,"lash":593,"backs":594,"backslash":595,"cdots":596,"Ġcm":597,"|+|":598,"und":599,"erset":600,"underset":601,"lbrace":602,"')":603,"ad":604,"41":605,"AM":606,"',":607,"Ġ}\\":608,"Ġ{{":609,"38":610,"ĠM":611,"]{\\":612,"âĢ":613,"96":614,"=(-":615,"MNP":616,"qu":617,"abc":618,"\\!\\!":619,"''(":620,"OM":621,"'}":622,"Ġ2018":623,"|-":624,"ĠD":625,"2021":626,"ap":627,"mbo":628,"pro":629,"appro":630,"approx":631,"42":632,"ĠAC":633,"mathca":634,"Ġ=-":635,"200":636,"mathcal":637,");":638,"Ġ\\\\&":639,"mbox":640,"56":641,"bi":642,"cx":643,"textrm":644,"EF":645,"ĠP":646,"rbrace":647,"OB":648,"Ġ;-":649,"Ġ15":650,"|=|":651,"44":652,"61":653,"iz":654,")-\\":655,"quad":656,"52":657,"53":658,"ri":659,"}}}{":660,",(":661,"43":662,"47":663,"68":664,"spac":665,";\\,":666,"space":667,")}\\":668,",\\\\":669,"99":670,"SAB":671,"SD":672,"ng":673,"omega":674,"}(\\":675,"|+\\":676,")}{\\":677,"ĠAB":678,"Ġmx":679,"):\\":680,"âĢĻ":681,"51":682,"),\\":683,"={":684,"+...":685,"dots":686,"500":687,"ĠAD":688,"1009":689,"Ġ2017":690,"'(-":691,"))":692,"Ġ.":693,"Ġax":694,"'}{":695,"63":696,"^{-\\":697,"_{(":698,"57":699,"Ġ[-":700,"67":701,"BB":702,"OC":703,"[-\\":704,"|_":705,"85":706,"ĠV":707,")|":708,"SBC":709,"ĠI":710,"55":711,"SN":712,"ldots":713,"ĠĠ":714,"),(":715,"'.":716,"ang":717,"}>":718,"angle":719,")}=":720,"62":721,"^{(":722,"108":723,"'+":724,"'=-\\":725,"73":726,"=[":727,"_\\":728,"xf":729,"ĠSB":730,"Ġ\\}":731,"1000":732,"Ġ000":733,"Ġ+(":734,"}=-\\":735,"66":736,"77":737,"}+{":738,"={\\":739,"].":740,"tri":741,"};-":742,"triangle":743,"]}{\\":744,"})^":745,"Ġ\\;":746,"}\\\\":747,"&=-":748,")]^":749,"ĠF":750,"}}.":751,"):(":752,"BCD":753,"}|":754,"(|":755,"74":756,"CT":757,"}'":758,"Ġv":759,"Ġ^{":760,"SAC":761,"Ġ,":762,">-":763,"Ox":764,"\\,\\":765,"^+":766,"su":767,"Ġ\\{-":768,"128":769,"{{{":770,"gam":771,"97":772,"CC":773,"})\\":774,"}}+\\":775,"}};\\":776,")]":777,"98":778,"BAC":779,"CA":780,"IJ":781,"NN":782,"SM":783,"Ġ13":784,"ĠCD":785,"360":786,"gamma":787,"){\\":788,"95":789,"MD":790,"}{{":791,"}}{{":792,"144":793,"+...+":794,"'}=\\":795,"70":796,"SO":797,"ay":798,"ĠSC":799,"Ġ\\%":800,"Ġ=-\\":801,"!}":802,"Oy":803,"Omega":804,"ĠSA":805,"'=-":806,"58":807,"600":808,"by":809,"bset":810,"|}":811,"Ġ25":812,"150":813,")^{-\\":814,"subset":815,"'-":816,"46":817,"76":818,"82":819,"Ġ11":820,"250":821,"SCD":822,"216":823,"400":824,"DC":825,"ba":826,"Ġ)\\":827,"}}^":828,"'=(":829,"01":830,"91":831,"Bh":832,"\\;":833,"=\\{-":834,"Ġ14":835,"78":836,"^-":837,"{)}^{":838,"Ġ]":839,"}}-\\":840,"SAD":841,"),\\,":842,"Oxy":843,"|.":844,"}(-":845,"{\\;":846,"}\\}":847,"))=":848,"AH":849,"ast":850,"Ġ:":851,"}\\,":852,"Ġab":853,")+(":854,"NC":855,"{|":856,"Ġ;+\\":857,"88":858,"BA":859,"II":860,"no":861,",\\,\\":862,"ĠBD":863,"Ġ2019":864,"not":865,".}":866,"300":867,"59":868,"AN":869,"ASB":870,"}<\\":871,"ĠT":872,"Ġ}}":873,")\\,":874,"256":875,"{,}\\":876,"SBD":877,"={{":878,"}>\\":879,"Ġ_{\\":880,"}{{\\":881,"Ġ24":882,"Ġ100":883,"}^*":884,"Ġ45":885,"ACD":886,")>\\":887,"^+}":888,")<\\":889,"625":890,"OO":891,"{-\\":892,"Ġ|\\":893,"Ġ18":894,"2000":895,"}-(":896,"Ġbx":897,"Ġ60":898,"'\\\\":899,")}=\\":900,"+{(":901,"SH":902,"cz":903,"Ã¡":904,"Ġw":905,"Ġ)^":906,"ĠABC":907,"}{|":908,"105":909,"bigl":910,"bigr":911,"180":912,"ACB":913,"bot":914,"BM":915,"BAD":916,"Ġl":917,"Ġxf":918,"Ġ27":919,"MNPQ":920,"!}{":921,"'}=":922,";+":923,"<-\\":924,"CB":925,"ON":926,"SS":927,"mz":928,"yi":929,"|(":930,"2015":931,"ell":932,")|\\":933,"+{\\":934,"69":935,"84":936,"87":937,"BN":938,"Bbb":939,"NM":940,"|{":941,"}}^{\\":942,"ABD":943,"0000":944,"160":945,"ĠSD":946,"\\!\\!\\!\\!":947,"))=\\":948,"AÃ¢":949,"^*":950,"my":951,"|-\\":952,"ĠK":953,"Ġ=(":954,"101":955,")}(":956,"+|":957,"83":958,"86":959,"800":960,"93":961,"CÃ¢":962,"DA":963,"nx":964,"{.}":965,"~(":966,"~\\":967,"ĠQ":968,"Ġq":969,"Ġ}=\\":970,"matri":971,")=+\\":972,"Ġ40":973,").\\":974,"matrix":975,")'=":976,"71":977,"IA":978,"az":979,"time":980,"|<":981,"|_{\\":982,"_{}":983,")=|":984,"Ġdx":985,"}}+{{":986,"}'{":987,"times":988,"&\\!\\!\\!\\!":989,"({\\":990,")]\\":991,",-":992,"225":993,"94":994,"HK":995,")\\\\":996,"}}}\\":997,"}+{\\":998,"\\\\\\":999,"119":1000,"ĠRh":1001,"Ġrl":1002,")(\\":1003,">-\\":1004,"AMN":1005,"SI":1006,"Sh":1007,"dm":1008,"{[":1009,"|}{":1010,"Ġ)=":1011,"Ġ\\\\\\":1012,"Ġ\\,\\":1013,"Ġ32":1014,"Ġ36":1015,"4036":1016,"ĠAA":1017,"=(\\":1018,"ND":1019,"[(":1020,"dy":1021,"uv":1022,"overset":1023,"Ġ{-":1024,",\\;":1025,"BCC":1026,"\\%/":1027,"^-}":1028,")?":1029,".{":1030,"512":1031,"89":1032,"92":1033,"AG":1034,"CN":1035,"Oz":1036,"PQ":1037,"}},":1038,")^\\":1039,")-(":1040,"240":1041,"âĤ¬âĦ¢(":1042,"'''":1043,")}+":1044,"112":1045,"AE":1046,"AK":1047,"BÃ¢":1048,"CM":1049,"NB":1050,"NS":1051,"bz":1052,"mn":1053,"}/":1054,"})^{":1055,"Â»":1056,"}}>":1057,"}}}{\\":1058,"}+...":1059,"135":1060,"Ġ64":1061,"1008":1062,"Ġ90":1063,"Ġ2020":1064,"';":1065,"))^":1066,"05":1067,"110":1068,"115":1069,"79":1070,"=[-":1071,"BSC":1072,"KD":1073,"],":1074,"]=":1075,"Ġ...":1076,"Ġ35":1077,"):\\,":1078,"140":1079,"})}{":1080,"biggr":1081,"ĠOB":1082,"ĠOy":1083,"}\\\\&":1084,")}}":1085,")'=\\":1086,")!}":1087,"AI":1088,"AP":1089,"CP":1090,"OAB":1091,"pt":1092,"|>":1093,"})=":1094,"}_{\\":1095,"Ãĥ":1096,"Ġ}^":1097,"Ġ}{\\":1098,"Ġ)^{":1099,"Ġ;\\":1100,"ĠABCD":1101,"_{_":1102,"arc":1103,"104":1104,"243":1105,"xyz":1106,"Ġ\\,(":1107,"DB":1108,"Right":1109,"fÃ¢":1110,"}|=":1111,"Ġ\\{\\":1112,"Ġ21":1113,")={\\":1114,"Ġ30":1115,"103":1116,"169":1117,"130":1118,"]{(":1119,"Ġ}_{\\":1120,"Rightarrow":1121,"':\\":1122,")|=":1123,"CSA":1124,"MP":1125,"OI":1126,"]^{":1127,"af":1128,"at":1129,"cb":1130,"khi":1131,"ll":1132,"|^{":1133,"}]":1134,"ĠE":1135,"ĠG":1136,"ĠJ":1137,"Ġ}}\\":1138,"=\\{(":1139,"^{|":1140,"Ġ+{(":1141,"vee":1142,")\\,\\":1143,"}}<":1144,"}}{(":1145,"102":1146,"107":1147,"109":1148,"121":1149,"}-{":1150,"Ġbi":1151,",\\!":1152,"|=|\\":1153,"192":1154,"343":1155,"480":1156,"biggl":1157,"âĢĺ":1158,"Oxz":1159,"IJK":1160,"}/\\":1161,"!}{(":1162,")}^{\\":1163,",+\\":1164,",(\\":1165,"-{":1166,".(":1167,"07":1168,"220":1169,"324":1170,"={{\\":1171,"DÃ¢":1172,"IC":1173,"bd":1174,"equ":1175,"iv":1176,"km":1177,"ĠMN":1178,"Ġ:\\":1179,"^{^{\\":1180,"}}^{":1181,"Ġ17":1182,"208":1183,"1010":1184,"1024":1185,"124":1186,"):-":1187,"Ġ{-\\":1188,"136":1189,"\\}.":1190,"Ġ54":1191,"Ġdm":1192,"Ġ<-":1193,"145":1194,"\\{-\\":1195,"Ġ>\\":1196,"Oyz":1197,"equiv":1198,"'>":1199,"'}\\":1200,"''=":1201,"){":1202,"06":1203,"SABC":1204,"\\;\\":1205,"``":1206,"bf":1207,"lg":1208,"|}{\\":1209,"}[":1210,"Âº":1211,"ÃĦ":1212,"_{-\\":1213,"2022":1214,"106":1215,"}^\\":1216,"123":1217,"147":1218,"2400":1219,"304":1220,"}&(":1221,"4034":1222,"265":1223,"289":1224,"}}+{{\\":1225,"Bigg":1226,"'''(":1227,"âĢĻ(":1228,"Ġ\\;{\\":1229,"Oxyz":1230,"^*}":1231,"'<":1232,"'}}{":1233,"'(\\":1234,"02":1235,"4000":1236,"5000":1237,"ASC":1238,"BH":1239,"DD":1240,"GG":1241,"IB":1242,"dge":1243,"edge":1244,"mp":1245,"wedge":1246,"yÃ¢":1247,"|}^":1248,"|<\\":1249,"Ġo":1250,"Ġ\\,\\,":1251,"}}}}":1252,"Ġ120":1253,"}^{{":1254,"126":1255,"127":1256,"162":1257,"153":1258,"133":1259,"),~":1260,"ĠRl":1261,"190":1262,"SCA":1263,"},\\,":1264,"ĠSAB":1265,"280":1266,"288":1267,"Ġrh":1268,"\\,(":1269,"|-|":1270,")]=":1271,"}+...+\\":1272,"''\\":1273,");\\,":1274,"-|":1275,"215":1276,"320":1277,"350":1278,"375":1279,"725":1280,"=&":1281,"=&\\!\\!\\!\\!":1282,"AOB":1283,"HB":1284,"IM":1285,"MK":1286,"OMN":1287,"SP":1288,"mt":1289,"{[-":1290,"|)":1291,"Ġ~":1292,"ĠMC":1293,"207":1294,"Ġad":1295,"2014":1296,"164":1297,"165":1298,"168":1299,"156":1300,"117":1301,"Ġ50":1302,"Ġcx":1303,"\\{{":1304,"SBA":1305,"Ġ2016":1306,"âĤ¬âĦ¢)":1307,"ĠOC":1308,"ĠOx":1309,"+...+\\":1310,"&\\!\\!\\!\\!=&\\!\\!\\!\\!":1311,"'}+\\":1312,")}}{":1313,")}-":1314,"+}":1315,"210":1316,"211":1317,"315":1318,"449":1319,"545":1320,"900":1321,"AMB":1322,"AEF":1323,"DN":1324,"HA":1325,"IH":1326,"MI":1327,"aa":1328,"{(\\":1329,"||":1330,"|_{":1331,"})=\\":1332,"}:\\":1333,"}|=\\":1334,"Ġ}^{":1335,"Ġ):":1336,"Ġ^\\":1337,"=\\{\\":1338,"Ġ26":1339,"_{_{":1340,"ABB":1341,";\\;":1342,"ACC":1343,"170":1344,"176":1345,"270":1346,"272":1347,"242":1348,"245":1349,"Ġ=\\{":1350,"4035":1351,"238":1352,"290":1353,"354":1354,"Ġkf":1355,"''+":1356,"'))":1357,"+...+(":1358,"Ã¡Âº":1359,"&=\\":1360,")}+\\":1361,")}{(":1362,"-{\\":1363,"325":1364,"450":1365,"624":1366,"840":1367,"AO":1368,"CEF":1369,"HD":1370,"IV":1371,"MG":1372,"MQ":1373,"NP":1374,"PN":1375,"\\}\\":1376,"cd":1377,"}'=\\":1378,"Ãł":1379,"Ġj":1380,"Ġp":1381,"Ġ)=\\":1382,"ĠĠĠĊ":1383,"ĠMB":1384,"}{{{":1385,"}\\,\\":1386,"_{(-":1387,"}={":1388,")={":1389,"=-{":1390,"1600":1391,"Ġ{{\\":1392,"137":1393,"114":1394,"252":1395,"253":1396,"278":1397,"}).":1398,"};\\,":1399,"199":1400,"ADC":1401,"Ġ|^":1402,"4038":1403,"\\\\&(":1404,"({-\\":1405,"ĠON":1406,"ĠOz":1407,"),\\;":1408,"576":1409,"III":1410,"\"(":1411,"({-":1412,")}.":1413,"+{":1414,"03":1415,"04":1416,"212":1417,"412":1418,"729":1419,"70000":1420,"960":1421,"=+\\":1422,"=|\\":1423,"GH":1424,"GM":1425,"HC":1426,"MH":1427,"Max":1428,"YZ":1429,"bt":1430,"xe":1431,"{}^\\":1432,"|)=":1433,"ĠZ":1434,"Ġ)}":1435,"Ġ.\\":1436,"}{(\\":1437,"}\\!":1438,"}\\,(":1439,"Ġxy":1440,")\\;":1441,"}};":1442,"}}>\\":1443,"Ġ19":1444,"205":1445,"2010":1446,"122":1447,"ABM":1448,"161":1449,"),(\\":1450,"118":1451,"Ġ<\\":1452,"143":1453,"185":1454,"ĠCA":1455,"MNC":1456,"SBN":1457,"Ġ&-":1458,"Ġ&\\":1459,"234":1460,"ĠSBC":1461,"486":1462,"}<|":1463,")<{":1464,"CDD":1465,"2009":1466,");(":1467,";\\,-":1468,")}\\,":1469,"})\\\\":1470,"notin":1471,")\\\\&":1472,"arcsin":1473,"Ġ}}\\,":1474,"!\\":1475,"'^":1476,"')^":1477,")'":1478,")}}\\":1479,"*)":1480,",}\\":1481,"113":1482,"217":1483,"521":1484,"620":1485,"645":1486,"648":1487,"672":1488,"750":1489,";(":1490,"={(":1491,"AMNP":1492,"BF":1493,"BEF":1494,"CE":1495,"DE":1496,"FE":1497,"FG":1498,"IK":1499,"KL":1500,"MM":1501,"NA":1502,"OD":1503,"OP":1504,"PA":1505,"SE":1506,"SK":1507,"ah":1508,"mi":1509,"yset":1510,"|}+":1511,"}?":1512,"})-":1513,"Ġ~\\":1514,"Ġ={\\":1515,"Ġ28":1516,"}}}+":1517,"}}=-":1518,"}}{-":1519,"2025":1520,"}=(-\\":1521,")=(-":1522,"Ġ((":1523,"ABN":1524,"005":1525,"00000":1526,"Ġ400":1527,"Ġ{(":1528,"Ġ500":1529,"]{{":1530,"141":1531,"148":1532,"BCNM":1533,"184":1534,"187":1535,"188":1536,"171":1537,"175":1538,"177":1539,"275":1540,"ĠBh":1541,"405":1542,"empt":1543,"503":1544,"504":1545,"ĠSS":1546,",\\,(":1547,"Ġiz":1548,"textbf":1549,"Ġkm":1550,"''(\\":1551,"\\!,":1552,"1200":1553,"âĢĻ=":1554,"0115":1555,"AHK":1556,"Â»Â":1557,"Â»âĢ":1558,"emptyset":1559,"!.":1560,"':":1561,"'+\\":1562,"))\\":1563,")!}{":1564,"032":1565,"230":1566,"260":1567,"336":1568,"345":1569,"430":1570,"440":1571,"590":1572,"720":1573,"=~":1574,"BK":1575,"BMD":1576,"ED":1577,"Im":1578,"IAB":1579,"OF":1580,"OH":1581,"PD":1582,"[{":1583,"\\}}":1584,"]}=":1585,"ai":1586,"dB":1587,"mid":1588,"tin":1589,"xa":1590,"xOy":1591,"|,":1592,"|.\\":1593,"}'(":1594,"})+":1595,"Âł":1596,"ĠH":1597,"Ġ}}{":1598,"Ġ)+":1599,"Ġ|=":1600,"Ġ]\\":1601,"}\\;\\":1602,"Ġ-(":1603,"Ġ22":1604,"Ġ23":1605,"Ġ200":1606,"Ġ281":1607,"_{(-\\":1608,")\\}":1609,"}})":1610,"}}}=":1611,"}}<\\":1612,"2048":1613,"Ġ34":1614,"}^{-\\":1615,"129":1616,"004":1617,"Ġ48":1618,"163":1619,"152":1620,"154":1621,"155":1622,"132":1623,"111":1624,";\\,\\":1625,"}_{(":1626,"}_{(\\":1627,"}.{":1628,"ACM":1629,"246":1630,"Ġcz":1631,"{{{\\":1632,"196":1633,"MNQ":1634,"ĠBB":1635,"ĠBN":1636,"ADF":1637,"Ġ|_":1638,"Ġ72":1639,"Ġ2021":1640,"285":1641,"346":1642,"646":1643,"''-":1644,"542":1645,",~\\":1646,"ĠACD":1647,"ĠPQ":1648,"^+_":1649,"NNNN":1650,"^-_":1651,"tiny":1652,"!(":1653,"&>":1654,"'|":1655,"'}(":1656,")}=(":1657,")}-\\":1658,")|=\\":1659,")|-":1660,")~\\":1661,"+{{\\":1662,"116":1663,"232":1664,"313":1665,"330":1666,"332":1667,"420":1668,"432":1669,"529":1670,"675":1671,"667":1672,"700":1673,"726":1674,"768":1675,"815":1676,"928":1677,"<|":1678,"AF":1679,"AMC":1680,"BE":1681,"BG":1682,"BI":1683,"BP":1684,"BMC":1685,"CAB":1686,"CSB":1687,"DBC":1688,"HE":1689,"KB":1690,"MAB":1691,"MBC":1692,"OS":1693,"OBC":1694,"OABC":1695,"PC":1696,"PM":1697,"QC":1698,"TT":1699,"]=\\":1700,"]}\\":1701,"]=(":1702,"dt":1703,"hB":1704,"kx":1705,"yz":1706,"|{\\":1707,"|}\\":1708,"|=-":1709,"|>\\":1710,"}~(":1711,"~=~":1712,"Ġ'":1713,"Ġ[\\":1714,"Ġ).":1715,"Ġ)=-":1716,"ĠMA":1717,"lor":1718,"^{'}(":1719,"}}}=\\":1720,"}},\\":1721,"}}:\\":1722,"}}.\\":1723,"}}{{\\":1724,"}}{{(":1725,")^-":1726,"204":1727,"2024":1728,"2035":1729,"}=+\\":1730,"10000":1731,"}^{{{":1732,"=-{{":1733,"Ġbc":1734,"Ġby":1735,"Ġbz":1736,"0065":1737,"1500":1738,"134":1739,"139":1740,"1350":1741,"\\},":1742,"2500":1743,"146":1744,"149":1745,"BCA":1746,"BCE":1747,"BCMN":1748,"Ġ61":1749,"|\\,":1750,"1725":1751,"248":1752,"2450":1753,"309":1754,"195":1755,"Ġ>-":1756,"},...":1757,"369":1758,"Ġ|=\\":1759,"Ġ96":1760,"SCB":1761,"SCMN":1762,"4040":1763,"269":1764,"239":1765,"293":1766,"ĠSSN":1767,"Ġnx":1768,"Ġ81":1769,"455":1770,"ĠAN":1771,"CDM":1772,"Ġhr":1773,"ĠNSS":1774,"ĠDN":1775,"}}}{{":1776,";\\,+\\":1777,"ĠIAB":1778,"ĠĠĠĠ":1779,"ĠvÃł":1780,"sum":1781,"NNS":1782,"^-}\\":1783,")\\,|\\,":1784,"Ġ1009":1785,"SSS":1786,"^*}\\":1787,"}+...+":1788,"Â»Â©":1789,"'+(":1790,"(*":1791,"*}":1792,"+(\\":1793,",}":1794,",-\\":1795,",...":1796,"-{{":1797,".{\\":1798,"..\\":1799,"09":1800,"017":1801,"068":1802,"223":1803,"2278":1804,"311":1805,"3000":1806,"340":1807,"380":1808,"520":1809,"513":1810,"540":1811,"575":1812,"6000":1813,"680":1814,"7000":1815,"844":1816,"975":1817,"937":1818,";{":1819,"BMN":1820,"DI":1821,"DP":1822,"DQ":1823,"DAB":1824,"EC":1825,"FC":1826,"FH":1827,"GE":1828,"IF":1829,"IO":1830,"IBC":1831,"KI":1832,"MS":1833,"MON":1834,"Nr":1835,"NSN":1836,"OG":1837,"PB":1838,"QB":1839,"Sa":1840,"[{\\":1841,"[]{":1842,"[{-":1843,"]}{":1844,"]}^":1845,"]=(-":1846,"en":1847,"hÃ¡":1848,"mc":1849,"ny":1850,"xF":1851,"xb":1852,"yx":1853,"yy":1854,"zx":1855,"{(-":1856,"|)\\":1857,"}:":1858,"ĉĊ":1859,"Ġs":1860,"Ġ)^{\\":1861,"ĠÃĦ":1862,"Ģľ":1863,"}{{{\\":1864,"}}}}{":1865,"}}}^":1866,"}}=(":1867,")^+}":1868,"Ġ144":1869,"Ġ1250":1870,"2023":1871,"}=[-":1872,"Ġ380":1873,"Ġac":1874,"2012":1875,"2013":1876,"ABI":1877,"};+":1878,"Ġ49":1879,"):{(":1880,"167":1881,"1635":1882,"1512":1883,"bigtriangle":1884,"131":1885,"]{-":1886,"1440":1887,"}}\\\\":1888,"Ġ600":1889,"Ġ6840":1890,"189":1891,"ĠCC":1892,"{{(":1893,"})}^{":1894,"323":1895,"191":1896,")...\\":1897,":\\;":1898,"ADD":1899,"403":1900,"4039":1901,"233":1902,"235":1903,"}{({":1904,")}{{(":1905,"},\\,\\":1906,"ĠSN":1907,"ĠSh":1908,"ĠSSS":1909,"283":1910,"ABCDMNP":1911,"ABCDEF":1912,"333":1913,"âĤ¬âĢľ":1914,"7500":1915,"90725":1916,"'''\\":1917,"}}={{":1918,"AAÃ¢":1919,"370":1920,"BDA":1921,"BDC":1922,"ĠBCD":1923,"ĠOP":1924,"ĠOMM":1925,"ĠNP":1926,"'))=":1927,"'))=\\":1928,"384":1929,"ĠMP":1930,"ĠDC":1931,"ĠDM":1932,"2001":1933,"2007":1934,")}\\:\\":1935,"âĢĻ)":1936,"570":1937,"676":1938,"SNN":1939,"777":1940,"^+}{\\":1941,"Ġ\\%/":1942,"769":1943,"\\;(":1944,"Ġ].\\":1945,"AHB":1946,",\\,\\,\\":1947,"}^*\\":1948,"ĠKC":1949,"arccos":1950,"10640":1951,"54527":1952,"}\\!\\!\\!":1953,"Â»âĢº":1954,"SCMNKL":1955,"(*)\\":1956,"enspace":1957,"bigtriangleup":1958,"90725500":1959,"!}{\\":1960,"&<":1961,"&\\":1962,"')\\":1963,"'}^":1964,"')=\\":1965,"''=\\":1966,"'|=":1967,"'}}=":1968,"))=-\\":1969,")'''":1970,")!\\":1971,"-{{\\":1972,"-...":1973,".\\\\":1974,".;\\":1975,"023":1976,"1100":1977,"213":1978,"224":1979,"221":1980,"236":1981,"229":1982,"228":1983,"2200":1984,"327":1985,"334":1986,"390":1987,"416":1988,"425":1989,"423":1990,"448":1991,"462":1992,"4272":1993,"560":1994,"550":1995,"554":1996,"597":1997,"615":1998,"618":1999,"630":2000,"640":2001,"650":2002,"697":2003,"735":2004,"793":2005,"810":2006,"808":2007,"875":2008,"841":2009,"9000":2010,"926":2011,":+\\":2012,":(\\":2013,"<(":2014,"={-":2015,"Ax":2016,"CF":2017,"CH":2018,"CMN":2019,"DM":2020,"DMN":2021,"EG":2022,"EOF":2023,"GA":2024,"HM":2025,"HBC":2026,"ID":2027,"JC":2028,"KA":2029,"ME":2030,"MAC":2031,"MCD":2032,"SQ":2033,"SMN":2034,"SMC":2035,"XYZ":2036,"\\,\\,(":2037,"].\\":2038,"ae":2039,"aab":2040,"nN":2041,"ni":2042,"nm":2043,"qx":2044,"rin":2045,"sma":2046,"|}=":2047,"}),":2048,"}'\\":2049,"})^{\\":2050,"}|+|":2051,"}|=|":2052,"~(\\":2053,"ªn":2054,"Â³":2055,"á»":2056,"Ġ/":2057,"Ġ^{\\":2058,"Ġ]}":2059,"ĠÃ¢":2060,"Ġ^{-\\":2061,"}{{(":2062,"{\\{":2063,"mathrin":2064,"}\\:(\\":2065,"Ġxdx":2066,"Ġ+|":2067,"}}\"":2068,"}}(\\":2069,"}}+(":2070,"{\\,\\":2071,"203":2072,"2030":2073,"2008":2074,"}={\\":2075,"}={{":2076,"Ġ31":2077,"Ġ33":2078,"Ġ351":2079,"Ġal":2080,"Ġ(*)":2081,"1021":2082,"1023":2083,"1034":2084,"1037":2085,"1245":2086,"12304":2087,"ABO":2088,"ABS":2089,"ABMN":2090,"ABNM":2091,"ABKD":2092,"006":2093,"Ġ47":2094,"16000":2095,",\\:":2096,"1313":2097,"1372":2098,"1344":2099,"251":2100,"Ġ55":2101,"Ġ520":2102,")+(\\":2103,";\\;\\":2104,"1458":2105,"}}\\,":2106,"}((":2107,"BCM":2108,"181":2109,"172":2110,"179":2111,"1712304":2112,"273":2113,"ABCM":2114,"244":2115,"\\{(":2116,"]}[":2117,"SAI":2118,"SAM":2119,"})}":2120,"ĠRa":2121,"322":2122,"326":2123,"328":2124,"1968":2125,"MNE":2126,")...":2127,"},-":2128,"},~":2129,"361":2130,"363":2131,"365":2132,"368":2133,"3600":2134,"Ġ;-\\":2135,"|+|\\":2136,"Ġ75":2137,"1001":2138,"1006":2139,"Ġ900":2140,"6054":2141,"4033":2142,"4037":2143,"4096":2144,"Ġ)}}":2145,"261":2146,"262":2147,"Ġuv":2148,"505":2149,")>-":2150,"ĠSO":2151,"Ġ}:\\":2152,"281":2153,"4500":2154,"\\\\&\\":2155,"\\\\&-\\":2156,"481":2157,"642":2158,"MBKD":2159,")}^{{":2160,"Ġkh":2161,"\\,,":2162,"âĤ¬âĦ¢.":2163,"\\%.":2164,"'')^":2165,"'''=\\":2166,"'''=":2167,"'''=-\\":2168,"1258":2169,"6561":2170,"397":2171,"ĠhR":2172,"5436":2173,"Ġ}_{{{":2174,"12029":2175,"BDD":2176,"8090":2177,"=\\{-\\":2178,"bch":2179,"ĠMD":2180,"ĠDD":2181,"ĠDO":2182,");~":2183,"EFGH":2184,"|=|(":2185,"4300":2186,"999":2187,"SDA":2188,"SDC":2189,"ĠABD":2190,"),\\,\\":2191,"dotsc":2192,"578":2193,"ĠĠĠ":2194,"ĠĠĠĠĊ":2195,"}>{":2196,"666":2197,"Ġ\\;(":2198,"91125":2199,"\\;(\\":2200,"}\\,{\\":2201,"\\!\\!\\!\\!\\!,":2202,"}}+{{(":2203,"11951":2204,"AMND":2205,"Ġ...,":2206,"AIB":2207,"':\\;":2208,"lll":2209,"&\\!\\!\\!\\!=&\\!\\!\\!\\!-":2210,"41212029":2211,"}\\!\\!\\!\\!\\!\\!,":2212,"59049":2213,")^-}":2214,"},...,\\":2215,"}\\!\\!\\!\\!,":2216,"small":2217,"mathring":2218,"%)":2219,"'-\\":2220,"'}}":2221,"'},":2222,"((":2223,"((\\":2224,"({{":2225,")!":2226,")[":2227,")}=(-":2228,"*}}":2229,"+[":2230,",{":2231,".{{":2232,"016":2233,"025":2234,"1201":2235,"214":2236,"218":2237,"227":2238,"226":2239,"2250":2240,"2304":2241,"2187":2242,"312":2243,"314":2244,"318":2245,"321":2246,"319":2247,"3125":2248,"3200":2249,"415":2250,"413":2251,"424":2252,"421":2253,"460":2254,"435":2255,"445":2256,"464":2257,"463":2258,"467":2259,"525":2260,"518":2261,"527":2262,"524":2263,"530":2264,"526":2265,"528":2266,"533":2267,"565":2268,"580":2269,"553":2270,"599":2271,"5180":2272,"621":2273,"636":2274,"665":2275,"718":2276,"730":2277,"708":2278,"798":2279,"820":2280,"816":2281,"817":2282,"8000":2283,"868":2284,"862":2285,"81000":2286,"878":2287,"925":2288,"990":2289,"947":2290,"985":2291,";(\\":2292,";{{":2293,"BO":2294,"BQ":2295,"Bx":2296,"By":2297,"BAA":2298,"BMNP":2299,"BOC":2300,"CI":2301,"CAD":2302,"COA":2303,"CMNP":2304,"DF":2305,"DEF":2306,"EB":2307,"EM":2308,"EN":2309,"EHK":2310,"GT":2311,"HN":2312,"IN":2313,"IS":2314,"IOM":2315,"JA":2316,"JK":2317,"KM":2318,"KN":2319,"MF":2320,"MJ":2321,"MÃ¢":2322,"NF":2323,"NQ":2324,"SF":2325,"SG":2326,"XA":2327,"XB":2328,"]+":2329,"]>":2330,"]^{\\":2331,"an":2332,"av":2333,"bg":2334,"bxy":2335,"hz":2336,"hÃ¡Âº":2337,"iy":2338,"ist":2339,"mf":2340,"mu":2341,"nr":2342,"px":2343,"rh":2344,"vdt":2345,"xi":2346,"xz":2347,"zy":2348,"zz":2349,"|)-":2350,"|-(":2351,"|}{|":2352,"}|\\":2353,"Â£":2354,"Â°":2355,"Âªn":2356,"Äĳ":2357,"Ġ?":2358,"ĠL":2359,"Ġ}=":2360,"Ġ'(":2361,"Ġ,\\":2362,"Ġ},":2363,"Ġ|+":2364,"Ġ^{-":2365,"Ġ_{[":2366,"Ġ~(":2367,"Ġ}}={{":2368,"inh":2369,"{\\{-":2370,"Ġ=(-":2371,"}\\;":2372,"^{+":2373,"^{^{-\\":2374,"^{*}}":2375,"Ġ-{":2376,"Ġ-|":2377,"Ġ29":2378,"Ġ256":2379,"_{_{\\":2380,")\\!":2381,"}}:":2382,"}}}-":2383,"}};+\\":2384,"}}}}\\":2385,"}}},":2386,"}}},\\":2387,"}}-(":2388,"Ġ148":2389,"Ġ156":2390,"202":2391,"2032":2392,"20000":2393,"2040":2394,"2029":2395,"2028":2396,"2034":2397,"2039":2398,"2042":2399,"}=|":2400,")={{":2401,"Ġ39":2402,"ĠaR":2403,"Ġaz":2404,"1011":2405,"1018":2406,"1017":2407,"1080":2408,"}+|":2409,"}+..":2410,"}+({":2411,"}^{+}":2412,"=-|":2413,"1280":2414,"1272":2415,"ABF":2416,"ABH":2417,"ABEF":2418,"ABND":2419,"};{":2420,"Ġbd":2421,"Ġ43":2422,"Ġ4000":2423,"Ġmy":2424,"Ġminh":2425,"):{\\":2426,"166":2427,"1640":2428,"1680":2429,"1610640":2430,"'(-\\":2431,",\\;\\":2432,",\\,\\,":2433,"151":2434,"157":2435,"15625":2436,"1326":2437,"),~(":2438,"259":2439,"2520":2440,"2565":2441,"2593":2442,"2592":2443,"Ġ53":2444,"Ġ56":2445,"142":2446,"BCB":2447,"BCN":2448,"Ġ63":2449,"Ġ65":2450,"Ġ66":2451,"182":2452,"1800":2453,"173":2454,"1790":2455,"276":2456,"2761":2457,"2707":2458,"ABCA":2459,"ABCMNC":2460,")-(\\":2461,"241":2462,"247":2463,"24000":2464,"Ġcd":2465,"ĠchÃ¡":2466,"302":2467,"306":2468,"3069":2469,"ĠCH":2470,"ĠCI":2471,"ĠCP":2472,"'={":2473,"219":2474,"exist":2475,"})}^":2476,"})}{\\":2477,")}'=":2478,"3280":2479,"193":2480,"194":2481,"197":2482,"198":2483,"1945":2484,"1998":2485,"1987":2486,"MND":2487,"MNCD":2488,"Ġ>-\\":2489,"},(":2490,"},-\\":2491,"axy":2492,"ADM":2493,"}&\\":2494,"SBI":2495,"Ġ&=\\":2496,"Ġ77":2497,"Ġ79":2498,"1007":2499,"Ġ99":2500,"SCI":2501,"602":2502,"604":2503,"608":2504,"6053":2505,"6051":2506,"4032":2507,"4042":2508,"4068":2509,"264":2510,"266":2511,"267":2512,"231":2513,"237":2514,"Ġ2022":2515,"5040":2516,"5045":2517,"Ġtr":2518,"292":2519,"296":2520,"ĠSa":2521,"ĠSAC":2522,"353":2523,"355":2524,"356":2525,"357":2526,"359":2527,"287":2528,"2800":2529,"453":2530,"456":2531,"459":2532,"347":2533,"ABCDE":2534,"4800":2535,"643":2536,"MBND":2537,"331":2538,")}^{-":2539,")}^{-\\":2540,"ĠAE":2541,"496":2542,"4999":2543,"CDA":2544,"CDE":2545,"CDEF":2546,"\\,(\\":2547,"âĤ¬âĦ¢=":2548,"âĤ¬âĦ¢=\\":2549,"âĤ¬âĦ¢=(":2550,"}}={{\\":2551,"Ġ\\{-\\":2552,"656":2553,"\\!=\\":2554,"391":2555,"395":2556,"399":2557,"3999":2558,"...+":2559,"547":2560,"MCA":2561,"ĠOAB":2562,"ĠOBC":2563,"}}-{{":2564,"ĠNNN":2565,"AMD":2566,"',(":2567,"382":2568,"ĠMQ":2569,"966":2570,"abcd":2571,"|-|\\":2572,"ĠDB":2573,"Ġ=-{":2574,"2005":2575,");(-":2576,"567":2577,"EFG":2578,"443":2579,"446":2580,"}}}{{{":2581,"4324":2582,"470":2583,"477":2584,"472761":2585,"685":2586,"689":2587,"âĢĻ\\":2588,"={(\\":2589,"50000":2590,"571":2591,"574":2592,"5750":2593,"673":2594,"674":2595,"6720":2596,"6666":2597,"776":2598,"ĠvÃ¡":2599,"\\,\\%":2600,"\\,\\,\\,\\":2601,")]+\\":2602,"983":2603,"984":2604,"NNNS":2605,"584":2606,"),\\,(":2607,"3003":2608,"SIF":2609,"Ozx":2610,"1127":2611,"Â»âĢĺ":2612,"1152":2613,"ĠOyz":2614,"APR":2615,"ÃĥÂº":2616,"ÃĥÂªn":2617,"arctan":2618,"ĠGI":2619,"``\\":2620,"=&-":2621,"29064":2622,"|,|":2623,"ĠsÃ¡":2624,"270725":2625,"exists":2626,"ÃĥÂºng":2627,"!=":2628,"!}}":2629,"!}+\\":2630,"\"=\\":2631,"\"-\\":2632,"\"+\\":2633,"\"=-\\":2634,"&<-":2635,"'{":2636,"'):":2637,"',\\":2638,"'},\\":2639,"'}.\\":2640,"',~":2641,"'|=|":2642,"',\\;":2643,"(*)":2644,")(-":2645,");\\":2646,")]}":2647,"))}":2648,")|+":2649,"))=-":2650,")}.\\":2651,")}}{(":2652,")!}{(":2653,"+(-":2654,",+":2655,"-~":2656,"-{|":2657,".,":2658,"028":2659,"048":2660,"073":2661,"1125":2662,"2256":2663,"3360":2664,"32000":2665,"3240":2666,"3141":2667,"410":2668,"418":2669,"429":2670,"422":2671,"475":2672,"465":2673,"437":2674,"4120":2675,"472":2676,"510":2677,"511":2678,"514":2679,"535":2680,"572":2681,"552":2682,"5275":2683,"613":2684,"617":2685,"628":2686,"664":2687,"639":2688,"663":2689,"610000":2690,"715":2691,"711":2692,"717":2693,"736":2694,"760":2695,"790":2696,"765":2697,"737":2698,"780":2699,"738":2700,"761":2701,"797":2702,"813":2703,"818":2704,"832":2705,"860":2706,"864":2707,"872":2708,"856":2709,"861":2710,"899":2711,"895":2712,"882":2713,"8666":2714,"910":2715,"911":2716,"914":2717,"918":2718,"936":2719,"935":2720,"922":2721,"933":2722,"980":2723,"972":2724,"996":2725,"952":2726,";|":2727,"=~\\":2728,">{\\":2729,">(\\":2730,"AQ":2731,"AS":2732,"AX":2733,"AOC":2734,"AIJ":2735,"AOO":2736,"BY":2737,"BSA":2738,"BPQ":2739,"CG":2740,"CJ":2741,"CK":2742,"CS":2743,"Cy":2744,"CMA":2745,"CSD":2746,"DG":2747,"DH":2748,"Dz":2749,"DAC":2750,"DABC":2751,"DSA":2752,"DAA":2753,"DCA":2754,"EA":2755,"EH":2756,"EK":2757,"EBC":2758,"FA":2759,"FD":2760,"FKM":2761,"GI":2762,"GK":2763,"GBC":2764,"HI":2765,"HAB":2766,"IG":2767,"IP":2768,"IBD":2769,"IFE":2770,"KH":2771,"KQ":2772,"KMN":2773,"MO":2774,"Mm":2775,"Mz":2776,"MEF":2777,"MBCD":2778,"MOO":2779,"MBCC":2780,"NE":2781,"NH":2782,"NAB":2783,"NÃ¢":2784,"OK":2785,"OÃ¢":2786,"OEF":2787,"OIA":2788,"QA":2789,"QP":2790,"RP":2791,"RS":2792,"Sx":2793,"SABCD":2794,"SMA":2795,"SMNP":2796,"SEF":2797,"SSN":2798,"SIA":2799,"Ta":2800,"\\,\\,":2801,"]?":2802,"]}^{":2803,"]'\\":2804,"aS":2805,"am":2806,"aq":2807,"au":2808,"bn":2809,"cf":2810,"ct":2811,"cy":2812,"cÃĦ":2813,"cÄĳ":2814,"da":2815,"gt":2816,"hÃ":2817,"ib":2818,"kF":2819,"kg":2820,"kt":2821,"khÃ":2822,"ldo":2823,"lÃĥ":2824,"nS":2825,"nV":2826,"nb":2827,"nz":2828,"rl":2829,"sy":2830,"sup":2831,"sai":2832,"wi":2833,"xx":2834,"xln":2835,"xOz":2836,"|}=\\":2837,"|}^{":2838,"|}+\\":2839,"|)+":2840,"|{{":2841,"|}-(":2842,"}]}":2843,"})=-\\":2844,"}')":2845,"~-~":2846,"´ng":2847,"Â¡":2848,"Â¥":2849,"Â¿":2850,"ÂŃ":2851,"ÄĲ":2852,"áº":2853,"ĠY":2854,"Ġ}+":2855,"Ġcos":2856,"Ġsin":2857,"Ġta":2858,"Ġ)-":2859,"Ġ}=-":2860,"ĠOA":2861,"Ġ}}=\\":2862,"Ġ')":2863,"ĠMNP":2864,"Ġ}}+\\":2865,"Ġ}={":2866,"}{[":2867,"}{-\\":2868,"}{|\\":2869,"Ġ\\:":2870,"Ġ=|":2871,"Ġ=~":2872,"^{^":2873,"^{{":2874,"^{^{":2875,"Ġxe":2876,"Ġ216":2877,"Ġ225":2878,"Ġ230":2879,"Ġ234":2880,"Ġ233":2881,"Ġ288":2882,"}}[":2883,"}}=-\\":2884,"}}}.":2885,"}}}{(":2886,"}},\\,":2887,"}}}.\\":2888,"}}{[":2889,"}}{|":2890,"}}{(\\":2891,"}}{{{":2892,"Ġ108":2893,"Ġ135":2894,"Ġ1125":2895,"Ġ180":2896,"Ġ174":2897,"{\\,(":2898,"206":2899,"209":2900,"2036":2901,"2026":2902,"2031":2903,"2041":2904,"2047":2905,"2099":2906,"2097":2907,"2098":2908,"2046":2909,")=[":2910,"Ġ320":2911,"Ġ300":2912,"Ġ339":2913,"Ġ338":2914,"Ġay":2915,"ĠaÃ¢":2916,"Ġabc":2917,"Ġ({{":2918,"1020":2919,"1016":2920,"1025":2921,"}+{{":2922,"}^{*}":2923,"=-(":2924,"Ġ048":2925,"}^+":2926,"\\\\(":2927,"\\\\-":2928,"Ġyy":2929,"cosx":2930,"1236":2931,"1260":2932,"1250":2933,"1248":2934,"1233":2935,"1275":2936,"1296":2937,"1285":2938,"1271":2939,"ABE":2940,"ABJ":2941,"ABFE":2942,"};}\\":2943,"Ġ41":2944,"Ġ46":2945,"Ġ4400":2946,"Ġmi":2947,"):{":2948,"Ġ{[":2949,"159":2950,"1516":2951,"1513":2952,"15000":2953,"1560":2954,"1554":2955,"1595":2956,"1325":2957,"1360":2958,"1323":2959,"1301":2960,"),(-":2961,"\\})":2962,"1175":2963,"1180":2964,"1174":2965,"255":2966,"Ġ52":2967,"Ġ590":2968,"Ġ5400":2969,")+[":2970,")+{\\":2971,")+{{\\":2972,")+...+":2973,")^{^{\\":2974,")^{^{-\\":2975,";\\,\\,":2976,"]{{\\":2977,"]{{{":2978,"Ġ<-\\":2979,"}_{{":2980,"1400":2981,"1416":2982,"1417":2983,"1433":2984,"14542":2985,"{,}{":2986,"}({":2987,"}((\\":2988,"BCO":2989,"BCÃ¢":2990,"Ġ675":2991,"Ġ672":2992,"Ġ656":2993,"Ġ687":2994,"183":2995,"186":2996,"187500":2997,"}.{{":2998,"ACA":2999,"ACE":3000,"ACG":3001,"ACH":3002,"ACCÃ¢":3003,"178":3004,"1710":3005,"1700":3006,"1752":3007,"1753":3008,"274":3009,"279":3010,"ABCC":3011,"ABCE":3012,"ABCMN":3013,")-{":3014,")-(-":3015,"2425":3016,"ĠcÃĥ":3017,"301":3018,"308":3019,"3020":3020,"ĠCB":3021,"ĠCE":3022,"2197":3023,"\\{{\\":3024,"\\{{-":3025,"]}|":3026,"SAO":3027,"})(":3028,"});":3029,"})]":3030,"})+(":3031,"};\\;\\":3032,")},":3033,"3215":3034,"1920":3035,"1959":3036,"MNA":3037,"MNB":3038,"MNEF":3039,").}":3040,"},+\\":3041,"ĠBAC":3042,"ĠBAD":3043,"ĠBHC":3044,":\\!":3045,":\\,\\":3046,"ADB":3047,"ADE":3048,"ADDÃ¢":3049,"SBE":3050,"Ġ&=-":3051,"Ġ|-":3052,"Ġ|.":3053,"Ġ70":3054,"Ġ700":3055,"Ġ728":3056,"1003":3057,"1005":3058,"10086":3059,"0001":3060,"Ġ95":3061,"605":3062,"609":3063,"605000":3064,"401":3065,"407":3066,"408":3067,"4016":3068,"4015":3069,"4026":3070,"4062":3071,"Ġ)<":3072,"Ġ)}{":3073,"263":3074,"2614":3075,"2380":3076,"}{({{":3077,"Ġ2015":3078,"Ġ2048":3079,"]\\,":3080,"...\\":3081,"501":3082,"506":3083,"509":3084,"5050":3085,"5054":3086,"},\\:":3087,"Ġte":3088,"ĠtÃ¡":3089,"291":3090,"294":3091,"299":3092,"ĠSF":3093,"ĠSI":3094,"ĠSK":3095,"ĠSNN":3096,"ĠSNS":3097,",\\,{{\\":3098,"352":3099,"358":3100,"35000":3101,"Ġ1010":3102,"Ġng":3103,"Ġny":3104,"282":3105,"2880":3106,"Ġ86":3107,"Ġ800":3108,"Ġ850":3109,"451":3110,"45000":3111,"341":3112,"349":3113,"3450":3114,"3449":3115,"\\\\&-":3116,"^{-}}":3117,"^{-})=":3118,"2224":3119,"22100":3120,"483":3121,"487":3122,"_{[-\\":3123,"Ġ}{{":3124,"}}+{":3125,"}}+...":3126,"MBP":3127,"337":3128,"33000":3129,")}^{^{\\":3130,"MANC":3131,"ĠAI":3132,"ĠAK":3133,"ĠAM":3134,"ĠAHK":3135,"490":3136,"491":3137,"492":3138,"495":3139,"Ġka":3140,"\\,}":3141,"756":3142,"758":3143,"907":3144,"9067":3145,"''-\\":3146,"''+\\":3147,"1256":3148,"65000":3149,"\\!\\":3150,"\\!:\\!":3151,"394":3152,"396":3153,"398":3154,"39360":3155,"371":3156,"373":3157,"ĠhÃ":3158,"ĠhÃĥ":3159,"Ġ}_{_{":3160,"BDF":3161,"807":3162,"8072":3163,"8068":3164,"8076":3165,"\\{-{\\":3166,",~(":3167,"bcd":3168,"ĠND":3169,"ĠNS":3170,"ĠNÃ¢":3171,"Ġ1610640":3172,"383":3173,"ĠME":3174,"ĠMAB":3175,"ĠMhz":3176,"961":3177,"969":3178,"96000":3179,"ĠDA":3180,"ĠDE":3181,"mbol":3182,"ĠACC":3183,"2006":3184,"562":3185,"566":3186,"567000":3187,"EFB":3188,"ĠPC":3189,"447":3190,"4400":3191,"471":3192,"686":3193,"687":3194,"688":3195,"687500":3196,"9945":3197,"9999":3198,"âĢĻ=\\":3199,"âĢĻ)\\":3200,"={|":3201,"500000":3202,"))}=":3203,"Ġ.{{":3204,"'}{{":3205,"6320":3206,"579":3207,"OCA":3208,"858":3209,"859":3210,"5525":3211,"SNS":3212,"}>(":3213,"}>-\\":3214,")}=+\\":3215,"1088":3216,"7350":3217,"100000":3218,"669":3219,"BCDA":3220,"}|^{":3221,"^+}\\":3222,"970":3223,"979":3224,")]^{":3225,"988":3226,"98430":3227,"IJC":3228,"ĠSCD":3229,"ĠSAD":3230,"60000":3231,"600000":3232,"76000":3233,"2503":3234,"2160":3235,"^-}{\\":3236,"AHC":3237,"AHM":3238,"886":3239,"3006":3240,"Ġ1005":3241,"Ġ1008":3242,"Ġ187":3243,"Ġ189":3244,"200000":3245,"SHC":3246,"BMPN":3247,"ĠlÃ¡":3248,"ĠlÃĥ":3249,"694":3250,"8440":3251,"879":3252,"93000":3253,"Ġ4035":3254,"Ġ4034":3255,"Ġ4096":3256,"94000":3257,"SIC":3258,"SID":3259,"AGC":3260,"AEC":3261,"1156":3262,"}\\\\&(":3263,"APMN":3264,"}}<(":3265,"ĠbiÃ¡Âº":3266,"0796":3267,"0797":3268,"Ġ:\\,":3269,"147278":3270,"147347":3271,"16875":3272,"ĠOxz":3273,"3157":3274,"5456":3275,"Ãłm":3276,")\\;{\\":3277,"Â»âĢľ":3278,"33600":3279,"1551175":3280,"AFD":3281,"BID":3282,"HEQ":3283,"TTÃ¢":3284,")^-}\\":3285,"14950":3286,"FHN":3287,"5452733":3288,"5452771":3289,"41625":3290,"6972593":3291,"8082":3292,"XYZT":3293,"19683":3294,"Ġkho":3295,"ĠkhÃĥ":3296,"5436521":3297,"5436566":3298,"4138":3299,"8788":3300,"^{+}}":3301,")\\!\\!:\\!":3302,"Ġ395054":3303,"132600":3304,"ĠtrÃĥÂªn":3305,"\\!=\\!":3306,"41208":3307,"khÃ´ng":3308,"symbol":3309,"supset":3310,"Ġ33935":3311,"118096":3312,"1454226":3313,"!)^":3314,"!+(":3315,"!}}\\":3316,"!-(":3317,"\"=":3318,"\"\\":3319,"%}":3320,"'~":3321,"'}{\\":3322,"'),":3323,"'})":3324,"').":3325,"'.\\":3326,"'|=\\":3327,"',\\,":3328,"'\\\\&":3329,"'}=-":3330,"'-(":3331,"'),(":3332,"'~=~":3333,"(+\\":3334,"((-":3335,"(|\\":3336,"([-":3337,"({{\\":3338,")~":3339,")}{-":3340,")),":3341,");+\\":3342,"))+":3343,"))^{":3344,")[\\":3345,"))>":3346,"))}^":3347,"){{\\":3348,")}}}":3349,"));":3350,")|=|":3351,")].":3352,")}}{{":3353,")~(":3354,")}}}\\":3355,")âĢĻ=":3356,")!}{\\":3357,"*}\\":3358,"+^":3359,"+~":3360,"+}\\":3361,"+|\\":3362,"+{{":3363,"+^*":3364,",=":3365,",|":3366,",}-\\":3367,"-+":3368,"-[":3369,"-(\\":3370,"-{(":3371,".-\\":3372,".{{\\":3373,"/(":3374,"/{{":3375,"010":3376,"060":3377,"050":3378,"029":3379,"022":3380,"075":3381,"065":3382,"039":3383,"072":3384,"041":3385,"038":3386,"044":3387,"047":3388,"051":3389,"067":3390,"077":3391,"074":3392,"095":3393,"058":3394,"046":3395,"091":3396,"059":3397,"0625":3398,"0105":3399,"0188":3400,"11000":3401,"1128":3402,"1150":3403,"1105":3404,"1135":3405,"1165":3406,"1168":3407,"2108":3408,"2150":3409,"22000":3410,"2180":3411,"2106":3412,"2265":3413,"2280":3414,"2293":3415,"310":3416,"335":3417,"381":3418,"3150":3419,"3160":3420,"3135":3421,"3130":3422,"3136":3423,"3190":3424,"3164":3425,"414":3426,"417":3427,"427":3428,"436":3429,"428":3430,"433":3431,"441":3432,"438":3433,"442":3434,"4200":3435,"461":3436,"466":3437,"42000":3438,"41600":3439,"4137":3440,"4369":3441,"4293":3442,"4368":3443,"46666":3444,"515":3445,"517":3446,"532":3447,"534":3448,"522":3449,"539":3450,"5120":3451,"596":3452,"551":3453,"557":3454,"595":3455,"5240":3456,"5184":3457,"51512":3458,"5481":3459,"610":3460,"612":3461,"632":3462,"626":3463,"622":3464,"633":3465,"690":3466,"637":3467,"699":3468,"698":3469,"6150":3470,"6250":3471,"691":3472,"6160":3473,"6642":3474,"696000":3475,"710":3476,"716":3477,"724":3478,"719":3479,"740":3480,"723":3481,"728":3482,"734":3483,"722":3484,"748":3485,"781":3486,"764":3487,"749":3488,"7200":3489,"799":3490,"767":3491,"782":3492,"72000":3493,"794":3494,"792":3495,"7446":3496,"812":3497,"811":3498,"825":3499,"82018":3500,"827":3501,"824":3502,"830":3503,"821":3504,"8100":3505,"826":3506,"850":3507,"829":3508,"835":3509,"845":3510,"834":3511,"848":3512,"881":3513,"833":3514,"890":3515,"854":3516,"896":3517,"851":3518,"885":3519,"873":3520,"866":3521,"897":3522,"8600":3523,"846":3524,"8400":3525,"891":3526,"80000":3527,"920":3528,"915":3529,"924":3530,"932":3531,"9100":3532,"940":3533,"923":3534,"945":3535,"948":3536,"964":3537,"949":3538,"939":3539,"954":3540,"956":3541,"944":3542,"953":3543,"90000":3544,"9135":3545,"9269":3546,":-":3547,":{":3548,":}":3549,":}\\,":3550,":~\\":3551,";;":3552,";~":3553,";{\\":3554,";\\\\":3555,";...":3556,"<(\\":3557,"<...":3558,"==-":3559,">(":3560,"AJ":3561,"AT":3562,"Aa":3563,"Ae":3564,"Ay":3565,"AOM":3566,"ASD":3567,"ASO":3568,"AMNPQ":3569,"APQ":3570,"AYZ":3571,"BJ":3572,"BS":3573,"Bt":3574,"BSD":3575,"BSO":3576,"BNC":3577,"BHK":3578,"BIH":3579,"BYZ":3580,"BMNC":3581,"CL":3582,"CO":3583,"CQ":3584,"CZ":3585,"Cm":3586,"Cz":3587,"CMB":3588,"CBA":3589,"CIJK":3590,"CHA":3591,"CFG":3592,"COG":3593,"CÄĲ":3594,"DO":3595,"Ds":3596,"DSB":3597,"DMNP":3598,"DCC":3599,"DIJ":3600,"DBA":3601,"DDÃ¢":3602,"DIC":3603,"DHA":3604,"DGH":3605,"DJK":3606,"EI":3607,"EQ":3608,"ES":3609,"EABC":3610,"EAD":3611,"ECD":3612,"EÃ¢":3613,"EBD":3614,"EBCD":3615,"EIJ":3616,"FB":3617,"FM":3618,"FO":3619,"FAB":3620,"FAD":3621,"FCD":3622,"FÃ¢":3623,"FHK":3624,"FIO":3625,"GB":3626,"GC":3627,"GJ":3628,"GN":3629,"Gi":3630,"GAB":3631,"GAC":3632,"GABC":3633,"GMB":3634,"GCD":3635,"GSAC":3636,"GHK":3637,"HO":3638,"HP":3639,"HQ":3640,"Hz":3641,"HMN":3642,"HCA":3643,"HCEF":3644,"IR":3645,"IAC":3646,"IMN":3647,"ICD":3648,"IBCD":3649,"IBA":3650,"ICB":3651,"KC":3652,"KF":3653,"KG":3654,"KJ":3655,"KCD":3656,"LC":3657,"Me":3658,"Mn":3659,"Mx":3660,"My":3661,"MABC":3662,"MOA":3663,"MOB":3664,"MACD":3665,"MABD":3666,"MHK":3667,"MPQ":3668,"MIJK":3669,"MOP":3670,"MABN":3671,"MED":3672,"MOF":3673,"Mhz":3674,"NJ":3675,"NK":3676,"NMD":3677,"NACB":3678,"NPQ":3679,"NOD":3680,"NADM":3681,"OE":3682,"OV":3683,"OAC":3684,"OABCD":3685,"OMNP":3686,"OBCD":3687,"OACD":3688,"OHC":3689,"PE":3690,"PI":3691,"PS":3692,"Pu":3693,"PAB":3694,"PÃ¢":3695,"PBCD":3696,"PMNC":3697,"QD":3698,"QN":3699,"QR":3700,"QMN":3701,"QCD":3702,"QMNP":3703,"RB":3704,"RD":3705,"Rh":3706,"SJ":3707,"Sy":3708,"SOA":3709,"SÃ¡":3710,"SFC":3711,"SFH":3712,"SJC":3713,"SJA":3714,"TG":3715,"TÃ¢":3716,"TGG":3717,"TGT":3718,"ThÃ¡Âº":3719,"Vh":3720,"VOV":3721,"XT":3722,"XY":3723,"XZ":3724,"YT":3725,"[|":3726,"\\:":3727,"\\|":3728,"\\-\\":3729,"\\}=":3730,"\\}^":3731,"\\:\\":3732,"]}}":3733,"]'=\\":3734,"]|=":3735,"]'=":3736,"],\\,":3737,"]}=-":3738,"],~":3739,"]^{-\\":3740,"]+{\\":3741,"^(":3742,"^+\\":3743,"^/(":3744,"_=\\":3745,"aF":3746,"aR":3747,"ao":3748,"ale":3749,"aSA":3750,"bm":3751,"bSB":3752,"ch":3753,"cÃ":3754,"cht":3755,"cSC":3756,"dv":3757,"ef":3758,"fra":3759,"frow":3760,"gÃ¢":3761,"hR":3762,"ho":3763,"hr":3764,"hÃłm":3765,"ii":3766,"iw":3767,"iÃ¡":3768,"ju":3769,"ka":3770,"kf":3771,"ky":3772,"kCD":3773,"ld":3774,"lz":3775,"lÃł":3776,"mM":3777,"mb":3778,"nB":3779,"nC":3780,"nD":3781,"nh":3782,"nn":3783,"ns":3784,"nt":3785,"nu":3786,"nv":3787,"nac":3788,"pc":3789,"ph":3790,"pq":3791,"ps":3792,"qs":3793,"rx":3794,"sf":3795,"sime":3796,"sao":3797,"te":3798,"tx":3799,"tdt":3800,"ux":3801,"uy":3802,"xBC":3803,"xÃ¢":3804,"xdx":3805,"xAy":3806,"ydy":3807,"yOz":3808,"zi":3809,"{}{{":3810,"{!}":3811,"{:}":3812,"|;":3813,"|(\\":3814,"|)=\\":3815,"|+(":3816,"|[\\":3817,"|^{-":3818,"|}<":3819,"|}}=":3820,"||(":3821,"|)?":3822,"|)-(":3823,"|)|=":3824,"}~":3825,"}):":3826,"}]{":3827,"}'=":3828,"}|+":3829,"}]\\":3830,"})=-":3831,"}''(":3832,"}|-":3833,"}'.":3834,"}!}":3835,"}~\\":3836,"}):\\,":3837,"}~=~":3838,"}|+|\\":3839,"~=\\":3840,"~=~\\":3841,"~+~":3842,"£ng":3843,"©c":3844,"©t":3845,"¬nh":3846,"¿n":3847,"Â§":3848,"Â©":3849,"Â´":3850,"ÂĲ":3851,"Ã³":3852,"ÃĤ":3853,"Ãªn":3854,"Ã©t":3855,"âĦ¢":3856,"ĠU":3857,"ĠX":3858,"Ġ`":3859,"Ġma":3860,"Ġlog":3861,"Ġ}-":3862,"Ġ}.":3863,"Ġ}_":3864,"Ġ)(":3865,"Ġ,\\,":3866,"Ġ}}=":3867,"Ġ}}}":3868,"Ġ]^":3869,"Ġ|+|":3870,"ĠâĢ":3871,"Ġ''(":3872,"ĠEF":3873,"Ġ|=|":3874,"Ġ,(":3875,"Ġ):\\":3876,"Ġ}}.":3877,"Ġ}}{{":3878,"ĠMNPQ":3879,"Ġ}}+{{":3880,"ĠHK":3881,"ĠHD":3882,"Ġ*}":3883,"ĠXB":3884,"ĠÄĳ":3885,"Ġ}}-{{":3886,"Ġ}}}{{{":3887,"ĵng":3888,"Ļt":3889,"rad":3890,"}{(-":3891,"Ġ\\{(":3892,"sqcup":3893,"{\\!":3894,"mathfra":3895,"mathsf":3896,"Ġ=+\\":3897,"Ġ=(\\":3898,"Ġ=(-\\":3899,"Ġ={(":3900,"}\\%":3901,"}\\,\\,":3902,"}\\;(":3903,"^{(\\":3904,"^{+}":3905,"^{*}":3906,"ĠxOz":3907,"Ġ-}}":3908,"Ġ+{\\":3909,"Ġ+}}":3910,"Ġ+...+":3911,"Ġ215":3912,"Ġ232":3913,"Ġ240":3914,"Ġ229":3915,"Ġ245":3916,"Ġ244":3917,"Ġ243":3918,"Ġ251":3919,"Ġ282":3920,"Ġ2400":3921,"Ġ2304":3922,"Ġ250000":3923,"_{+}":3924,")\\;\\":3925,")\\}.":3926,"}}_":3927,"}}|":3928,"}}~":3929,"}})^":3930,"}};-":3931,"}}):":3932,"}}|=":3933,"}}[\\":3934,"}}^{-":3935,"}}}<":3936,"}}}}}":3937,"}},~":3938,"}}}}+\\":3939,"}}}}{{":3940,"}}}\\,":3941,"}}{-\\":3942,")^+}\\":3943,"Ġ115":3944,"Ġ118":3945,"Ġ117":3946,"Ġ121":3947,"Ġ1000":3948,"Ġ160":3949,"Ġ128":3950,"Ġ133":3951,"Ġ196":3952,"Ġ1200":3953,"Ġ188":3954,"rong":3955,"2027":3956,"2050":3957,"2033":3958,"2054":3959,"2038":3960,"2044":3961,"2085":3962,"2058":3963,"20600":3964,"2084":3965,"2087":3966,"2086":3967,"204034":3968,"20412":3969,"20403":3970,"}=[":3971,"}=(\\":3972,"}=|\\":3973,"}=[\\":3974,"}={(":3975,"}={{\\":3976,"}={(\\":3977,"(\\,":3978,")=(\\":3979,")=|\\":3980,")={{\\":3981,"Ġ37":3982,"Ġ310":3983,"Ġ325":3984,"Ġ327":3985,"Ġ324":3986,"Ġ321":3987,"Ġ336":3988,"Ġ3000":3989,"Ġ323":3990,"Ġ365":3991,"Ġ331":3992,"Ġ368":3993,"Ġ367":3994,"Ġ3600":3995,"Ġ394":3996,"Ġ33280":3997,"(-|":3998,"Ġ({":3999,"Ġ(|":4000,"Ġ({\\":4001,"Ġ(<\\":4002,"1012":4003,"1015":4004,"1013":4005,"1014":4006,"1027":4007,"10100":4008,"1040":4009,"1026":4010,"1045":4011,"1022":4012,"1048":4013,"1081":4014,"1033":4015,"1090":4016,"1039":4017,"1056":4018,"1077":4019,"1095":4020,"1070":4021,"1093":4022,"1094":4023,"1092":4024,"10304":4025,"10239":4026,"10302":4027,"10395":4028,"10584":4029,"}^{(":4030,"}^{|":4031,"}^{}}{":4032,"}^{{{\\":4033,"=-(\\":4034,"Ġ010":4035,"Ġ022":4036,"Ġ081":4037,"Ġ049":4038,"Ġ007":4039,"}^+}":4040,"ĠfÃ¢":4041,"Ġyi":4042,"Ġyz":4043,"cosin":4044,"2011":4045,"20149":4046,"20156":4047,"1220":4048,"1210":4049,"1216":4050,"1215":4051,"1213":4052,"1225":4053,"1230":4054,"1221":4055,"1232":4056,"1222":4057,"1290":4058,"1263":4059,"1295":4060,"1269":4061,"12101":4062,"12110":4063,"12104":4064,"12107":4065,"12234":4066,"12504":4067,"12285":4068,"12357":4069,"126720":4070,"dot":4071,"ABG":4072,"ABQ":4073,"ABÃ¢":4074,"ABMD":4075,"ABDC":4076,"ABBÃ¢":4077,"ABPN":4078,"ABYZ":4079,"ABMNC":4080,")=\\{":4081,"}-{{":4082,"}-...":4083,"ĠbÃ¢":4084,"ĠbÃ¡Âº":4085,"001":4086,"002":4087,"008":4088,"0012":4089,"0071":4090,"Ġ44":4091,"Ġ427":4092,"Ġ432":4093,"Ġ450":4094,"Ġ465":4095,"Ġ4120":4096,"Ġ442":4097,"Ġ486":4098,"Ġ4220":4099,"Ġmm":4100,"Ġmp":4101,"Ġmt":4102,"Ġmz":4103,"ĠmÃ¡":4104,"Ġmá»":4105,"ĠmÃ©t":4106,"):-\\":4107,"1612":4108,"1616":4109,"1618":4110,"1623":4111,"1628":4112,"1698":4113,"1682":4114,"1688":4115,"16119":4116,"1689":4117,"16137":4118,"16384":4119,"16142":4120,"16267":4121,"161700":4122,"16758":4123,"166320":4124,"Ġ{{{":4125,"Ġ{.}":4126,"158":4127,"1517":4128,"1533":4129,"15120":4130,"150000":4131,"1594":4132,"15840":4133,"1500000":4134,"151200":4135,"15131":4136,"1581000":4137,"15872":4138,"bigcup":4139,"bigcap":4140,"1320":4141,"1300":4142,"1316":4143,"1317":4144,"13000":4145,"1345":4146,"1348":4147,"1349":4148,"1365":4149,"1331":4150,"1352":4151,"1347":4152,"1366":4153,"1370":4154,"1346":4155,"1376":4156,"1388":4157,"1369":4158,"1389":4159,"13117":4160,"13122":4161,"13234":4162,"13440":4163,"13116":4164,"),~\\":4165,"\\}}\\":4166,"\\}<\\":4167,"\\},\\,\\":4168,"1120":4169,"1111":4170,"11100":4171,"1140":4172,"1145":4173,"1181":4174,"11400":4175,"1188":4176,"1186":4177,"257":4178,"2513":4179,"2518":4180,"2530":4181,"25000":4182,"2560":4183,"2550":4184,"2548":4185,"2575":4186,"2590":4187,"25200":4188,"2576":4189,"252000":4190,"2584":4191,"2587":4192,"2500000":4193,"Ġ51":4194,"Ġ58":4195,"Ġ5000":4196,"Ġ550":4197,"Ġ538":4198,"Ġ573":4199,"Ġ574":4200,"Ġ576":4201,"Ġ502":4202,"Ġ56320":4203,"Ġdt":4204,"Ġdv":4205,"ĠdÃ¢":4206,"abi":4207,"abx":4208,")+{":4209,")+(-":4210,")^{|":4211,"]{{{\\":4212,"1420":4213,"1418":4214,"1424":4215,"1419":4216,"1460":4217,"1408":4218,"1445":4219,"1481":4220,"1480":4221,"14250":4222,"1459":4223,"1484":4224,"14350":4225,"14199":4226,"14299":4227,"}}\\%":4228,"}}\\}":4229,"}}\\,\\":4230,"}}\\,\\,":4231,"}}\\,\\,\\,\\":4232,"}(|":4233,"BCI":4234,"BCS":4235,"BCCÃ¢":4236,"BCHK":4237,"|={{\\":4238,"Ġ62":4239,"Ġ67":4240,"Ġ68":4241,"Ġ616":4242,"Ġ614":4243,"Ġ618":4244,"Ġ617":4245,"Ġ6000":4246,"Ġ663":4247,"Ġ685":4248,"Ġ673":4249,"Ġ679":4250,"Ġ6220":4251,"20172018":4252,"1820":4253,"1844":4254,"1867":4255,"1866":4256,"1876":4257,"1801":4258,"181440":4259,"18252000":4260,"}.\\\\":4261,"}...":4262,"ACI":4263,"ACMN":4264,"ACÃ¢":4265,"ACNM":4266,"174":4267,"17100":4268,"1750":4269,"1701":4270,"172800":4271,"271":4272,"2700":4273,"27000":4274,"2750":4275,"2735":4276,"2755":4277,"27216":4278,"27440":4279,"2750000":4280,"271317":4281,"ABCB":4282,"ABCH":4283,"ABCI":4284,"ABCN":4285,"ABCO":4286,"ABCÃ¢":4287,"ABCMNP":4288,"ABCNM":4289,"ABCHK":4290,"ABCIK":4291,"ABCED":4292,"ABCIJC":4293,"249":4294,"2416":4295,"2432":4296,"2435":4297,"2456":4298,"2499":4299,"2497":4300,"24360":4301,"2401":4302,"242000":4303,"2469":4304,"240000":4305,"2420000":4306,"24689":4307,"241920":4308,"Ġcv":4309,"ĠcÃ¡Âº":4310,"Ġcho":4311,"ĠcÃ³":4312,"Ġ-\\,":4313,"303":4314,"307":4315,"3010":4316,"3016":4317,"3017":4318,"3024":4319,"3060":4320,"3029":4321,"3049":4322,"3080":4323,"3072":4324,"3042":4325,"3097":4326,"30240":4327,"30960":4328,"303600":4329,"ĠCF":4330,"ĠCN":4331,"'={\\":4332,"2110":4333,"2199":4334,"2192":4335,"21130":4336,"21200000":4337,"2120600":4338,"SAG":4339,"SAH":4340,"SAK":4341,"SAN":4342,"SAMNP":4343,"SAIJ":4344,"SAIC":4345,"{{{{\\":4346,"{{({\\":4347,"})|":4348,"})}\\":4349,"})-\\":4350,"})+\\":4351,"}))=":4352,"})'=\\":4353,"})}^{\\":4354,"}),\\,":4355,"};\\,\\":4356,")}<":4357,")}>":4358,")})=":4359,")},\\":4360,"329":4361,"3213":4362,"3211":4363,"3260":4364,"3235":4365,"3233":4366,"32180":4367,"32162":4368,"32960":4369,"32118":4370,"322560":4371,"1900":4372,"1911":4373,"1917":4374,"1932":4375,"1936":4376,"1975":4377,"1999":4378,"1985":4379,"1955":4380,"1997":4381,"1982":4382,"1969":4383,"1986":4384,"1971":4385,"1992":4386,"1979":4387,"19368":4388,"19602":4389,"19674":4390,"192456":4391,"MNG":4392,"MNI":4393,"MNK":4394,"MNN":4395,"MNAB":4396,"MNABC":4397,"MNABCD":4398,"MNKQ":4399,").{":4400,").\\\\":4401,"axe":4402,"ĠBA":4403,"ĠBE":4404,"ĠBy":4405,"364":4406,"366":4407,"36000":4408,"3675":4409,"3637":4410,"3654":4411,"3667":4412,"36288":4413,"36900":4414,"362880":4415,"ADH":4416,"ADI":4417,"ADS":4418,"ADMN":4419,"ADCB":4420,"Ġ;+":4421,"SBM":4422,"SBO":4423,"SBAC":4424,"SBMN":4425,"SBMD":4426,"Ġ&<":4427,"Ġ&>":4428,"Ġ&=-\\":4429,"Ġ&<-":4430,"Ġ|(":4431,"Ġ|}":4432,"Ġ|-\\":4433,"Ġ|}=\\":4434,"Ġ71":4435,"Ġ73":4436,"Ġ76":4437,"Ġ712":4438,"Ġ721":4439,"Ġ750":4440,"Ġ749":4441,"Ġ794":4442,"Ġ7726":4443,"Ġ7423":4444,"Ġ7424":4445,"Ġ7776":4446,"1002":4447,"1004":4448,"10084":4449,"10089":4450,"{(|":4451,"Ġ92":4452,"Ġ9000":4453,"Ġ947":4454,"Ġ9726":4455,"Ġ92160":4456,"Ġ9830":4457,"SCM":4458,"SCO":4459,"}_+^*":4460,"603":4461,"606":4462,"607":4463,"6021":4464,"6060":4465,"6048":4466,"6049":4467,"6080":4468,"6056":4469,"6061":4470,"6052":4471,"6047":4472,"6055":4473,"6059":4474,"60480":4475,"604800":4476,"402":4477,"404":4478,"406":4479,"409":4480,"4020":4481,"4024":4482,"4030":4483,"4050":4484,"4029":4485,"4028":4486,"4031":4487,"4080":4488,"4041":4489,"4044":4490,"40500":4491,"4066":4492,"4095":4493,"4070":4494,"4058":4495,"4046":4496,"4094":4497,"40320":4498,")({":4499,")({{":4500,"<\\!":4501,"Ġ)}{\\":4502,"Ġ),\\":4503,"Ġ)}.":4504,"Ġ)>\\":4505,"268":4506,"2612":4507,"2600":4508,"2616":4509,"2615":4510,"2613":4511,"2618":4512,"2617":4513,"2619":4514,"2623":4515,"2690":4516,"2657":4517,"2688":4518,"26800":4519,"26815":4520,"2310":4521,"2315":4522,"2352":4523,"2347":4524,"2399":4525,"2358":4526,"232000":4527,"23180":4528,"23477":4529,"232518":4530,"Ġ{\\{-":4531,"Ġ{\\%}":4532,"Ġ2010":4533,"Ġ2050":4534,"]\\,\\":4535,"..+{":4536,")}{{":4537,")=-(":4538,")=-{{":4539,"507":4540,"5044":4541,"5095":4542,"50400":4543,"080":4544,"085":4545,"086":4546,"0806":4547,")>{\\":4548,")>{{\\":4549,"},\\,(":4550,"ĠthÃ¡":4551,"Ġtá»":4552,"Ġtrong":4553,"295":4554,"297":4555,"298":4556,"2916":4557,"2940":4558,"2968":4559,"292000":4560,"29525":4561,"29524":4562,"298440":4563,"Ġ(\\%)":4564,"ĠSE":4565,"ĠSJ":4566,"ĠSy":4567,"ĠSMC":4568,"ĠSDC":4569,"3500":4570,"3517":4571,"3547":4572,"3574":4573,"350000":4574,"352623":4575,"Ġ1013":4576,"Ġ1024":4577,"Ġ10726":4578,"Ġ10749":4579,"Ġnb":4580,"Ġni":4581,"Ġnt":4582,"Ġnz":4583,"ĠnhÃ¡Âº":4584,"Ġ[-\\":4585,"284":4586,"286":4587,"2867":4588,"2873":4589,"2870":4590,"28800":4591,"2889":4592,"Ġ80":4593,"Ġ89":4594,"Ġ820":4595,"Ġ810":4596,"Ġ816":4597,"Ġ825":4598,"Ġ824":4599,"Ġ829":4600,"Ġ875":4601,"Ġ880":4602,"Ġ896":4603,"Ġ863":4604,"Ġ862":4605,"Ġ876":4606,"Ġ806":4607,"Ġ8726":4608,"Ġ827440":4609,"457":4610,"458":4611,"4536":4612,"4581":4613,"45125":4614,"4563":4615,"45672":4616,"342":4617,"3400":4618,"3422":4619,"3475":4620,"3465":4621,"3473":4622,"34400":4623,"34236":4624,"342187":4625,"34240000":4626,"ABCDA":4627,"ABCDD":4628,"ABCDSA":4629,"ABCDMN":4630,"ABCDSH":4631,"ABCDSEF":4632,"^{-(":4633,"}=-(":4634,"}=-|":4635,"22168":4636,"22177":4637,"22167":4638,"222800":4639,"22178":4640,"482":4641,"484":4642,"485":4643,"48000":4644,"4839":4645,"48873":4646,"Ġ}{|":4647,"8110":4648,"647":4649,"64000":4650,"6435":4651,"6490":4652,"64152":4653,"6426815":4654,"MBD":4655,"MBN":4656,"MBNP":4657,"MBPA":4658,"338":4659,"3320":4660,"3334":4661,"3375":4662,"33240":4663,")}^{{{":4664,"}<-":4665,"}<{\\":4666,")<-":4667,"Bigl":4668,"Bigr":4669,"MAE":4670,"MAI":4671,"20162017":4672,"201600000":4673,"ĠAMN":4674,"ĠAÃ¢":4675,"ĠAAÃ¢":4676,"textbackslash":4677,"494":4678,"497":4679,"4950":4680,"4939":4681,"4942":4682,"4944":4683,"4947":4684,"4995":4685,"492513":4686,"CDB":4687,"CDG":4688,"CDP":4689,"CDNM":4690,"Ġkx":4691,"\\,;":4692,"\\,{{":4693,"âĤ¬âĦ¢,":4694,"âĤ¬âĦ¢<":4695,"âĤ¬âĦ¢>":4696,"âĤ¬âĦ¢}}":4697,"âĤ¬âĦ¢}=":4698,"âĤ¬âĦ¢(\\":4699,"âĤ¬âĦ¢(-":4700,"âĤ¬âĦ¢}(":4701,"=|(":4702,"=|-":4703,"=||":4704,"751":4705,"754":4706,"755":4707,"759":4708,"7568":4709,"7500000":4710,"75328":4711,"75528":4712,"75497":4713,"901":4714,"902":4715,"905":4716,"906":4717,"9056":4718,"9047":4719,"9057":4720,"90720":4721,"9093000":4722,"\\%\\,":4723,"}}({\\":4724,"}}({{":4725,")}^\\":4726,"1255":4727,"652":4728,"654":4729,"655":4730,"6550":4731,"6539":4732,"6577":4733,"6500000":4734,"656000":4735,"65318":4736,"65983":4737,"6594000":4738,"\\!<\\!":4739,"392":4740,"393":4741,"3924":4742,"39840":4743,"39361":4744,"39356":4745,"39366":4746,"376":4747,"379":4748,"3717":4749,"3723":4750,"3722":4751,"370000":4752,"37332":4753,"3739360":4754,"3732960":4755,"3736900":4756,"ĠhÃłm":4757,"OAO":4758,"OAMN":4759,"OAHK":4760,"}}}(-":4761,"}}}>\\":4762,"31139":4763,"541":4764,"544":4765,"5434":4766,"5476":4767,"54624":4768,"Ġ}_{_{\\":4769,"MCE":4770,"MCN":4771,"1209":4772,"12000":4773,"12098":4774,"120960":4775,"BDE":4776,"BDM":4777,"BDN":4778,"BDMN":4779,"BDNM":4780,"BDHCEF":4781,"ĠBCC":4782,"ĠBCE":4783,"803":4784,"8060":4785,"8047":4786,"8073":4787,"8077":4788,"8046":4789,"80486":4790,"80640":4791,"bold":4792,"ĠOE":4793,"ĠOI":4794,"ĠOM":4795,"ĠOMN":4796,"ĠOCD":4797,"ĠOIA":4798,"ĠOIB":4799,"ĠNB":4800,"ĠNN":4801,"ĠNMP":4802,"ĠNNNS":4803,"ĠNNSN":4804,"ĠNSNN":4805,"Ġ162":4806,"Ġ163":4807,"Ġ168":4808,"Ġ16640":4809,"Ġ16382":4810,"Ġ_{(":4811,"')}}{":4812,"AMH":4813,"AMP":4814,"AMPN":4815,"AMEN":4816,"AMIN":4817,"AMKN":4818,"Ġ}\\,":4819,"385":4820,"386":4821,"387":4822,"388":4823,"3840":4824,"3834":4825,"3848":4826,"3833":4827,"3841":4828,"3843":4829,"3874":4830,"3888":4831,"38304":4832,"384000":4833,"ĠMF":4834,"ĠMBC":4835,"ĠMÃ¢":4836,"ĠMHz":4837,"962":4838,"963":4839,"9600":4840,"MNPB":4841,"MNPD":4842,"MNPR":4843,"MNPABC":4844,"OMH":4845,"OMI":4846,"OMM":4847,"OMHN":4848,"ĠDAB":4849,"ĠDCC":4850,"ĠDCA":4851,"4216":4852,"42187":4853,"2002":4854,"2003":4855,"2004":4856,"Ġ\\\\&\\":4857,"Ġ\\\\&-\\":4858,"563":4859,"568":4860,"56228":4861,"56875":4862,"EFH":4863,"EFM":4864,"EFHK":4865,"EFNJ":4866,"OBA":4867,"OBE":4868,"OBM":4869,"Ġ1595":4870,"4430":4871,"44200":4872,"44163":4873,"443000":4874,"61161":4875,"531440":4876,"richt":4877,"}}}{{\\":4878,"}}}{{{{\\":4879,"4320":4880,"43000":4881,"473":4882,"476":4883,"478":4884,"479":4885,"4725":4886,"47000":4887,"47304":4888,"47900":4889,"4709":4890,"470071":4891,"471688":4892,"682":4893,"684":4894,"6840":4895,"6858":4896,"6888":4897,"68575":4898,";\\,|":4899,"992":4900,"993":4901,"997":4902,"998":4903,"9990":4904,"9996":4905,"9977":4906,"9997":4907,"9998":4908,"99430":4909,"99267":4910,"SABD":4911,"SDI":4912,"SDJ":4913,"ĠABM":4914,"):\\;":4915,"):\\,\\":4916,"âĢĻ.":4917,"âĢĻ(\\":4918,"âĢĻ}(":4919,"âĢĻ=(":4920,"),\\,\\,":4921,"+...}":4922,"+...}{":4923,"5004":4924,"5000000":4925,"5004000":4926,"50000000":4927,"ĠADC":4928,"ĠADO":4929,"Ġ20172018":4930,"))}}":4931,")))=":4932,"6300":4933,"6324000":4934,"63271317":4935,"573":4936,"577":4937,"5760":4938,"57793":4939,"579067":4940,"670":4941,"671":4942,"678":4943,"67000":4944,"6702":4945,"67248":4946,"679067":4947,"679057":4948,"BBÃ¢":4949,"OCB":4950,"OCMN":4951,"855":4952,"8589":4953,"ĠVh":4954,")|.":4955,")|<":4956,")||(\\":4957,"SBCD":4958,"ĠIC":4959,"ĠID":4960,"ĠIF":4961,"ĠIO":4962,"555":4963,"558":4964,"5532":4965,"5552":4966,"55346":4967,"553500":4968,"SNC":4969,"SNQ":4970,"SNNN":4971,"}>-":4972,"}>{\\":4973,"6213":4974,"1089":4975,"108160":4976,"7381":4977,"ĠSBD":4978,"100000000":4979,"6665":4980,"6672":4981,"6668":4982,"6667":4983,"6669":4984,"66121":4985,"770":4986,"779":4987,"7710":4988,"7725":4989,"7728":4990,"7768":4991,"7777":4992,"7782":4993,"ĠFG":4994,"}}.{":4995,"BCDE":4996,"BCDM":4997,"BCDN":4998,"BCDO":4999,"BCDNM":5000,"74000":5001,"7440":5002,"7445":5003,"7448":5004,"74207":5005,"}'<":5006,"ĠvÃĥ":5007,"ĠvÃ¡Âº":5008,"SACD":5009,"\\,\\,\\,(":5010,"^+)":5011,"1282":5012,"1283":5013,"1284":5014,"128432":5015,"1288110":5016,"971":5017,"9763":5018,"CCÃ¢":5019,")]>":5020,")]}\\":5021,")]-\\":5022,")]=|":5023,")]=[":5024,"982":5025,"986":5026,"989":5027,"9880":5028,"98280":5029,"CAÃ¢":5030,"IJB":5031,"IJG":5032,"IJCD":5033,"NNÃ¢":5034,"SMP":5035,"SMBC":5036,"SMGB":5037,"ĠCDB":5038,"ĠCDO":5039,"95100":5040,"MDC":5041,"14400":5042,"144000":5043,"144492513":5044,"701":5045,"707":5046,"7063":5047,"7095":5048,"7076":5049,"70947":5050,"70308":5051,"70698":5052,"70656000":5053,"SOMN":5054,"ĠSCB":5055,"Ġ\\%.":5056,"Ġ\\%\\;(":5057,"ĠSAM":5058,"ĠSAO":5059,"'=-(":5060,"583":5061,"586":5062,"588":5063,"589":5064,"58675":5065,"6005":5066,"Ġ2520":5067,"Ġ25000":5068,"469":5069,"7680":5070,"82304":5071,"2501":5072,"2502":5073,"21665983":5074,"4004":5075,"4009":5076,"40000":5077,"4005000":5078,"40080000":5079,"DCE":5080,"DCEF":5081,"\\;{\\":5082,"784":5083,"786":5084,"7889":5085,"7879":5086,"786858":5087,"^-}=+\\":5088,"Ġ]}\\":5089,"SADE":5090,"|.(":5091,"AHD":5092,"AHMK":5093,"{||":5094,"888":5095,"8800":5096,"8856":5097,"88400":5098,"88430":5099,"88933":5100,"BAS":5101,"3004":5102,"3005":5103,"30000":5104,"300000":5105,"3000000":5106,"30000000":5107,"592":5108,"59280":5109,"59203":5110,"ANMK":5111,"ANKB":5112,"Ġ}}}}":5113,"Ġ}}:{":5114,"256000":5115,"Ġ2430":5116,"Ġ1007":5117,"Ġ4550":5118,"ACDB":5119,"ACDM":5120,"ACDÃ¢":5121,"62500":5122,"OOÃ¢":5123,"2000000":5124,"Ġ6051":5125,"SHA":5126,"SHB":5127,"SHD":5128,"SHACD":5129,"ACBÃ¢":5130,"BMGH":5131,"Ġlr":5132,"ĠlÃł":5133,"MNPQABCD":5134,"MNPQRS":5135,"SSÃ¢":5136,"|({{":5137,"692":5138,"84509":5139,"842940":5140,"871":5141,"8765":5142,"879056":5143,"BNK":5144,"NMCD":5145,"00001":5146,"ĠSDB":5147,"^*}}":5148,"^*})":5149,"ĠKB":5150,"ĠKDC":5151,"8325":5152,"8650":5153,"~(*)":5154,"ĠQN":5155,"ĠQR":5156,"Ġ4020":5157,"Ġ4036":5158,"Ġ4039":5159,"2258":5160,"2250000":5161,"HKB":5162,"HKL":5163,"HKCC":5164,"HKCB":5165,"AMNB":5166,"AMNC":5167,"AMNG":5168,"SIB":5169,"SIK":5170,"SIM":5171,"SIN":5172,"Ġ\\,\\,\\,":5173,"AGD":5174,"AGBC":5175,"AGMC":5176,"CNP":5177,"CNMA":5178,"Ozy":5179,"PQNMD":5180,"}},{{":5181,"2402":5182,"2403":5183,"240643":5184,"112687500":5185,"AEB":5186,"AED":5187,"AEH":5188,"AEBD":5189,"AEBF":5190,"AEMF":5191,"AKB":5192,"AKC":5193,"AKH":5194,"mnz":5195,"Â»âĦ¢":5196,"}}>{\\":5197,"}}>{{\\":5198,"1102":5199,"1106":5200,"110544":5201,"11520":5202,"115687500":5203,"115586":5204,"Ġ...+":5205,"140608":5206,"AID":5207,"AIM":5208,"APMQ":5209,"APNMCD":5210,"CPD":5211,"OABH":5212,"OABO":5213,"|>|":5214,"arccot":5215,"}|=|\\":5216,"Ġ307":5217,"1031635":5218,"1691595":5219,"1691955":5220,"13091":5221,")|=+\\":5222,"MPIK":5223,"MPNQ":5224,"OIM":5225,"}]|":5226,"Ġbiáº":5227,"âĢĺ}}=":5228,"âĢĺ}}=-":5229,"Oxzy":5230,"2203":5231,"2209":5232,"3241":5233,"3240000":5234,"32420000":5235,"}}^{*}":5236,"}}^{*}\\":5237,"208346":5238,"208347":5239,"12413":5240,"124656":5241,"136250":5242,"){:}\\,":5243,"SABCM":5244,"14720":5245,"14730":5246,"14780":5247,"265200":5248,"4000500":5249,"5000400":5250,"BHC":5251,"BHD":5252,"GGT":5253,"Ġ\\,\\,(":5254,"}}}}:\\":5255,"12650":5256,"15335":5257,"2809":5258,"21530":5259,"215456":5260,"3209":5261,"320000":5262,"3754":5263,"3750000":5264,"72576000":5265,"72567000":5266,"IMJ":5267,"ĠMCA":5268,"207360":5269,"117600":5270,"117187500":5271,")}}{{{":5272,"44910":5273,"44918":5274,"44928":5275,"44902":5276,"44998430":5277,"44999430":5278,"44988430":5279,"900000":5280,"AEFB":5281,"AEFG":5282,"AEFK":5283,"MIN":5284,"||(\\":5285,"}:\\,":5286,"17094":5287,"17635000":5288,"1763334":5289,"27045":5290,"27072":5291,"24580":5292,"290646":5293,"354292":5294,"354294":5295,"32574":5296,"45054":5297,"AOS":5298,"ĠphÃ¡Âº":5299,"}\\,\\,\\,":5300,"114244":5301,"114187500":5302,"27866121":5303,")}.}":5304,"21235000":5305,"21233000":5306,"41250":5307,"MHAK":5308,"xen":5309,"18540":5310,"18564":5311,")}}\\,":5312,"2179":5313,"217354":5314,"6481458":5315,"AMNPBCD":5316,"BFC":5317,"CEMF":5318,"IKG":5319,"IKMN":5320,"MMÃ¢":5321,"ODEF":5322,"PAQ":5323,"SEBD":5324,"Ġ28160":5325,"14814720":5326,"18435":5327,"17550":5328,"177144":5329,"177147":5330,"120096":5331,"Â»Âģ":5332,"Â»ÂŃ":5333,"Â»âĢ¹":5334,"3456":5335,"34560":5336,"34587":5337,"44074000":5338,"59040":5339,"59048":5340,"720000":5341,"BMDA":5342,"BMDN":5343,"OHM":5344,"ĠHN":5345,"Ġ2009":5346,"204848000":5347,"204847000":5348,"1293600":5349,"34650":5350,"232289":5351,"6750000":5352,"6671":5353,"6673":5354,"6674":5355,"667735":5356,"815000":5357,"AFB":5358,"AMCN":5359,"BEC":5360,"HEJ":5361,"MBCN":5362,"OBCO":5363,"TTG":5364,"2035144":5365,"2035145":5366,"2035143":5367,"2035146":5368,"ĠĠĠĠĠ":5369,"ĠĠĠĠĠĠĠ":5370,"}+...+(-":5371,",...,":5372,"2239977":5373,"227830":5374,"227832":5375,"227835":5376,"227834":5377,"227831":5378,"311108":5379,"54045":5380,"680430":5381,"680403":5382,"9753":5383,"9754":5384,"9755":5385,"BMNE":5386,"DIG":5387,"DQA":5388,"IFJ":5389,"IFO":5390,"Ġsá»":5391,"}}}}{{{":5392,"16723477":5393,"18920":5394,"37026":5395,"77760":5396,"7776300":5397,"AHBS":5398,"5452711":5399,"}\\!\\!\\!\\!":5400,"-...-":5401,"-...-\\":5402,"-...+\\":5403,"-...+(-":5404,"22425":5405,"221100":5406,"32768":5407,"327292000":5408,"39062":5409,"390625":5410,"448290":5411,"44898430":5412,"615000":5413,"6972592":5414,"73580":5415,"8080":5416,"92695100":5417,"MCDA":5418,"~(\\%)":5419,"á»ĵng":5420,"}}(\\%)":5421,"2031000":5422,"102354624":5423,"ABMND":5424,"ABNMFE":5425,"Ġ47360":5426,"131313":5427,"1313131313":5428,"32869":5429,"19682":5430,")...(":5431,"100699267":5432,"262143":5433,"6421000":5434,"80902400":5435,"5787710":5436,"4121202990":5437,"4121202991":5438,"4121202989":5439,"4121202992":5440,")!+":5441,")!}=\\":5442,"21448":5443,"2186":5444,"22680":5445,"31250":5446,"31416":5447,"31925":5448,"312518":5449,"42465000":5450,"43593000":5451,"46794000":5452,"46712413":5453,"5183":5454,"56578":5455,"66528":5456,"70812":5457,"79833600":5458,"81626":5459,"81648":5460,"92514":5461,"92576000":5462,"9476":5463,"GTG":5464,"JKDA":5465,"MJIK":5466,"NQP":5467,"Ġ~(*)":5468,"^{+}}\\":5469,")\\!}^":5470,"}}:{":5471,"}}},\\,(":5472,"Ġ14840":5473,"Ġ14848":5474,"Ġ14846":5475,"20349":5476,"2039187":5477,"101793":5478,"}+..+\\":5479,"}+...\\":5480,"}+....+{":5481,"15775497":5482,"25942":5483,"2592100":5484,"25921000":5485,"194265":5486,"194591":5487,"194592":5488,"4068289":5489,"4068288":5490,"ĠtrÃªn":5491,"\\!=\\!\\":5492,"3991680":5493,"abcde":5494,"56782":5495,"44316000":5496,"470400":5497,"APRQCD":5498,"290642000":5499,"290640000":5500,"290644000":5501,"41056":5502,"4374":5503,"6138":5504,"717815000":5505,"73728":5506,"7385":5507,"797161":5508,"79760000":5509,"8138589":5510,"81848":5511,"81868":5512,"86400":5513,"85688":5514,"91410":5515,"93333240":5516,"9801":5517,"ASÃ¢":5518,"AOOÃ¢":5519,"CGD":5520,"EBCFAD":5521,"KHAD":5522,"SMNPD":5523,"ldot":5524,"ldotp":5525,"áº£ng":5526,"Ġ225280":5527,"Ġ23040":5528,"Ġ23038":5529,"}}}.}":5530,"2098960":5531,"2098961":5532,"1020604":5533,"12750000":5534,"15546":5535,"1595280":5536,"13258":5537,"136080":5538,"141713091":5539,"ACGS":5540,"ABCMNCÃ¢":5541,"242572":5542,"242546":5543,"302088933":5544,"321556228":5545,"MNEFPQ":5546,"100861000":5547,"100861016":5548,"408242":5549,"406221":5550,"4062240":5551,"ĠSNNN":5552,"ĠnghÃ¡":5553,"Ġnguy":5554,"344964":5555,"344963":5556,"}}+...+\\":5557,"ĠhÃĨ":5558,"ĠhÃ¬nh":5559,"147278480":5560,"147278481":5561,"147347190":5562,"147347191":5563,"155117520":5564,"155117519":5565,"ĠkhoÃ¡Âº":5566,"Ġkhoáº£ng":5567,"Ġ39505475":5568,"Ġ39505476":5569,"Ġ33935125":5570,"Ġ33935120":5571,"145422675":5572,"145422676":5573,"'~:~\\":5574,"01059203":5575,"2150600":5576,"22653924":5577,"335232000":5578,"31904000":5579,"316420":5580,"43833000":5581,"442176":5582,"41600000":5583,"413720":5584,"46666620":5585,"55786":5586,"595000":5587,"5151214":5588,"690952":5589,"71032869":5590,"71960":5591,"74088":5592,"74813000":5593,"79956782":5594,"829440":5595,"84510":5596,"86661161":5597,"94444200":5598,"92690000":5599,";...;":5600,"<...<":5601,"COGB":5602,"EIQ":5603,"GiÃ¡Âº":5604,"GABA":5605,"Mec":5606,"MHKE":5607,"OHCK":5608,"aleph":5609,"cÃħ":5610,"frown":5611,"jun":5612,"psi":5613,"simeq":5614,"ĠâĢĵ":5615,"Ġ}}.{{":5616,"ĠÄĳá»ĵng":5617,"mathfrak":5618,"Ġ21529":5619,"}}}<{{":5620,"}}}}{{.":5621,"Ġ11520":5622,"Ġ1966080":5623,"204034000":5624,"2041210":5625,"204032000":5626,"Ġ32768":5627,"Ġ36864":5628,"Ġ39424":5629,"1048575":5630,"10566000":5631,"107791":5632,"109584":5633,"2014982":5634,"}-...-\\":5635,"Ġmá»Ļt":5636,"16283241":5637,"1611955":5638,"161421000":5639,"16267104":5640,"1594322":5641,"1345899":5642,"138948873":5643,"142492514":5644,"1408722":5645,"1445332":5646,"142506":5647,"143506":5648,"1419943":5649,"Ġ622080":5650,"184426":5651,"186792":5652,"186624":5653,"1710072":5654,"27507768":5655,"ABCIKC":5656,"243238":5657,"2435600":5658,"309718":5659,"309604":5660,"323582":5661,"3637960":5662,"3667290":5663,"36288000":5664,"SBMDN":5665,"Ġ94720":5666,"Ġ983040":5667,"}_+^*\\":5668,"4080400":5669,"4066272":5670,"4070306":5671,"265720":5672,"2347600":5673,"23991000":5674,"509545":5675,"Ġtá»©c":5676,"352623000":5677,"45672181":5678,"342227000":5679,"34400000":5680,"342187000":5681,"6490123":5682,"64268158":5683,"33750000":5684,"756839":5685,"65393000":5686,"657720":5687,"6531840":5688,"398402":5689,"37332960":5690,"311392503":5691,"80486000":5692,"3888150":5693,"3830475":5694,"42187000":5695,"Ġ1595280":5696,"44163000":5697,"richter":5698,"479001600":5699,"471688328":5700,"685755000":5701,"500000000":5702,"BCDNMK":5703,"74207281":5704,"707645000":5705,"78890012":5706,"78685800":5707,"87905673":5708,"103163500":5709,"Ġbiáº¿n":5710,"290646000":5711,"667735000":5712,"223997760":5713,"Ġsá»ĳ":5714,"ĠnguyÃĥÂªn":5715},"merges":["r a","} {","ra c","f rac","d frac","Ġ \\","l e","i g","= \\","h t","ig ht","r ight","f t","i n","r t","s q","sq rt","le ft","{ \\","m a","Ġ Ċ","ma t","mat h","Ġ =","l o","r m","} \\","math rm","^ {","Ġ x","lo g","Ġ -","Ġ +","p i","- \\","+ \\","Ġ 2","_ {","l a","s p","s t","d i","y le","y st","la yst","sp layst","di splayst","displayst yle","v e","i m",") \\","} }","l im","in t","} }{",") ^","t s","} =\\","; -","c o","i ts","lim its","o ve","ove r","Ġ 1","a r","{\\ ,","l n","r o","2 0","ro w","ar row","right arrow","} =","( \\",") =","Ġ 3","over rightarrow","( -","ft y","in fty","Ġ a","Ġ (","1 0","} +","} ^{","= -","s e","c a","Ġ 0","} ^","a l","se s","ca ses","Ġ f","\\ \\","Ġ y","co s","20 1","}{ \\","b e","lo n","co lon","s in","1 2","d o","n d","A B",") =\\","+ (","c do","n e","e nd","g in","be gin","h a","cdo t","}{ -","} ;","} -","Ġ z","} +\\","Ġ b","^ {\\","0 0","Ġ 4","Ġ m","p ha",") :","t a","_ {\\","1 6","b b","Ġ {","' (",", \\","1 5","ig ne","math bb","al igne","aligne d","( -\\","b ig","1 3","al pha",") ,","\\ }","1 1","2 5","Ġ 5","m in","Ġ d","; +\\","m x","a b",") +","201 8",") ^{","; \\","= -\\","g e","] {","le q","Ġ <","} _{","1 4","}= (","l in","over lin","overlin e","} }\\","{ ,","} (","B C","' =\\","t frac","u p","| =","= (","Ġ 6","c up","t o","Ġ\\ \\","ra l","201 7","1 8","} .","{, }","A C","| \\","{ -","[ \\","} -\\","1 7","2 7","e l","[ -","AB C","D el","Del ta",") -","ma x","2 4","Ġ c","Ġ- \\","3 0","Ġ C","' =","2 1","c i","r c","ci rc","\\ {","] }","S A","ve c","^ \\","e x","{ {","} )","}; \\",") }","Ġ+ \\","Ġ R","3 2","1 9","M N","i d","e ha","w id","eha t","wid ehat",") .","Ġ >","Ġ =\\","se t","} ,","a x","}^ {\\","Ġ B","e r","ta n","3 6",": \\","f o","ral l","fo rall","A D","} &","Ġ ;",". \\","| +","S B","Ġ &","Ġ |","Ġ 7","ve rt","10 0","00 0","{ (","| =\\","Ġ 9","S C","} _","6 0","a c","4 0","201 9",") (","< \\","c m","Ġ )","2 6","ge q","x y","\\ {\\","e m","Ġ ĠĊ","2 3","n to","r u","pha nto","ru le","phanto m","Ġ u","Ġ {\\","}{ (","Ġ2 0","p er","per p","be ta","] \\","ne q",". .",") }{",")= -","x q","5 0","0 8","a ral","p aral","le l","paral lel","p m",") >","} ,\\","Ġ t","2 9","Ġ (\\","Ġ S","_{ -",",\\ ,","3 5","Ġ1 0","Ġ n","Ġ [","Ġ }","}= (-","2 8","Ġ 8","4 5","u s","min us","set minus","3 4","' \\","ABC D","\\\\ &","Ġ (-",")^ {\\","^{ -","}= -","2 2","4 8","_{ [","Ġ g","Ġ }{","Ġ _","}} +","8 1","6 4","M B","b x","3 3","}}{ \\","20 20","b rac","brac e",") }^{",")= -\\","im e","} <","co t",") <","B ig","Ġ1 2","M A","Ġ e","Ġ i","201 6","- (","}; +\\","> \\","t ex","Ġ A","tex t","}^{ -","h i","Ġ r","4 9","g a","C D","b ar","L e","¬ â","Ã ¢","â Ĥ","ft rightarrow","Le ftrightarrow","âĤ ¬â","Ġ k","\\ ,","p r","pr ime","Ħ ¢",")= (","âĤ¬â Ħ¢","= |","7 5","9 0","p hi",") +\\","Ġ\\ ,","; -\\","| ^","ca p","\\ %","t p","}} (","v ar","var phi","}. \\","' '",") }^","}} =","Ġ& =","12 5","A A","ra y","ar ray","& =","Ġ\\ {","6 5","\\ !","3 9","3 7","Ġ h","Ġ {\\,","_{ [-","{ {\\","O A","}} }","big g",".. .","( {","3 1","< -","5 4","Ġ }_{","M C","1 20","B D","Ġ BC","8 0","d x","\\ {-","}; -\\",")^{ -","] ^","o p","=\\ {","math op","7 2","}} =\\","}+ (","b o","Ġ O","}} -","= (-\\","e ga","m ega",", ~","b c","Ġ N","Ġ1 6","Ġ ^","Ġ( -\\","Ġ _{","b ac","k s","s h","la sh","bac ks","backs lash","cdo ts","Ġc m","|+ |","u nd","er set","und erset","l brace","' )","a d","4 1","A M","' ,","Ġ }\\","Ġ{ {","3 8","Ġ M","] {\\","â Ģ","9 6","= (-","MN P","q u","ab c","\\! \\!","' '(","O M","' }","Ġ20 18","| -","Ġ D","20 21","a p","m bo","p ro","ap pro","appro x","4 2","Ġ AC","math ca","Ġ= -","20 0","mathca l",") ;","Ġ\\\\ &","mbo x","5 6","b i","c x","text rm","E F","Ġ P","r brace","O B","Ġ ;-","Ġ1 5","|= |","4 4","6 1","i z",") -\\","qu ad","5 2","5 3","r i","}} }{",", (","4 3","4 7","6 8","sp ac",";\\ ,","spac e",") }\\",", \\\\","9 9","S AB","S D","n g","o mega","} (\\","| +\\",") }{\\","Ġ AB","Ġm x","): \\","âĢ Ļ","5 1",") ,\\","= {","+ ...","do ts","5 00","Ġ AD","100 9","Ġ20 17","' (-",") )","Ġ .","Ġa x","' }{","6 3","^{ -\\","_{ (","5 7","Ġ [-","6 7","B B","O C","[ -\\","| _","8 5","Ġ V",") |","S BC","Ġ I","5 5","S N","l dots","Ġ Ġ","), (","' .","a ng","} >","ang le",") }=","6 2","^{ (","10 8","' +","' =-\\","7 3","= [","_ \\","x f","Ġ SB","Ġ\\ }","10 00","Ġ0 00","Ġ+ (","}= -\\","6 6","7 7","}+ {","= {\\","] .","t ri","} ;-","tri angle","] }{\\","} )^","Ġ\\ ;","}\\ \\","& =-",") ]^","Ġ F","}} .","): (","BC D","} |","( |","7 4","C T","} '","Ġ v","Ġ ^{","S AC","Ġ ,","> -","O x","\\ ,\\","^ +","s u","Ġ\\ {-","12 8","{{ {","ga m","9 7","C C","} )\\","}} +\\","}} ;\\",") ]","9 8","B AC","C A","I J","N N","S M","Ġ1 3","ĠC D","36 0","gam ma",") {\\","9 5","M D","}{ {","}}{ {","14 4","+... +","' }=\\","7 0","S O","a y","Ġ SC","Ġ\\ %","Ġ= -\\","! }","O y","O mega","Ġ SA","' =-","5 8","6 00","b y","b set","| }","Ġ2 5","15 0",")^{ -\\","su bset","' -","4 6","7 6","8 2","Ġ1 1","25 0","SC D","2 16","4 00","D C","b a","Ġ )\\","}} ^","' =(","0 1","9 1","B h","\\ ;","=\\ {-","Ġ1 4","7 8","^ -","{ )}^{","Ġ ]","}} -\\","SA D",") ,\\,","O xy","| .","} (-","{\\ ;","}\\ }",") )=","A H","a st","Ġ :","}\\ ,","Ġa b",") +(","N C","{ |","Ġ ;+\\","8 8","B A","I I","n o",",\\ ,\\","ĠB D","Ġ20 19","no t",". }","3 00","5 9","A N","A SB","} <\\","Ġ T","Ġ }}",")\\ ,","25 6","{, }\\","SB D","= {{","} >\\","Ġ _{\\","}{ {\\","Ġ2 4","Ġ1 00","}^ *","Ġ4 5","AC D",")> \\","^+ }",") <\\","6 25","O O","{ -\\","Ġ |\\","Ġ1 8","20 00","}- (","Ġb x","Ġ6 0","' \\\\",") }=\\","+ {(","S H","c z","Ã ¡","Ġ w","Ġ )^","Ġ ABC","}{ |","10 5","big l","big r","18 0","AC B","bo t","B M","B AD","Ġ l","Ġx f","Ġ2 7","MNP Q","! }{","' }=","; +","< -\\","C B","O N","S S","m z","y i","| (","201 5","el l",") |\\","+ {\\","6 9","8 4","8 7","B N","B bb","N M","| {","}} ^{\\","AB D","00 00","16 0","ĠS D","\\!\\! \\!\\!",") )=\\","A Ã¢","^ *","m y","| -\\","Ġ K","Ġ= (","10 1",") }(","+ |","8 3","8 6","8 00","9 3","C Ã¢","D A","n x","{ .}","~ (","~ \\","Ġ Q","Ġ q","Ġ }=\\","mat ri",")= +\\","Ġ4 0","). \\","matri x",") '=","7 1","I A","a z","t ime","| <","| _{\\","_{ }",")= |","Ġd x","}}+ {{","}' {","time s","& \\!\\!\\!\\!","( {\\",") ]\\",", -","2 25","9 4","H K",")\\ \\","}} }\\","}+ {\\","\\\\ \\","11 9","ĠR h","Ġr l",") (\\","> -\\","A MN","S I","S h","d m","{ [","| }{","Ġ )=","Ġ\\ \\\\","Ġ\\ ,\\","Ġ3 2","Ġ3 6","40 36","ĠA A","= (\\","N D","[ (","d y","u v","over set","Ġ{ -",",\\ ;","BC C","\\% /","^- }",") ?",". {","5 12","8 9","9 2","A G","C N","O z","P Q","}} ,",")^ \\",")- (","24 0","âĤ¬âĦ¢ (","'' '",") }+","1 12","A E","A K","B Ã¢","C M","N B","N S","b z","m n","} /","} )^{","Â »","}} >","}} }{\\","}+ ...","13 5","Ġ6 4","100 8","Ġ9 0","Ġ20 20","' ;",") )^","0 5","1 10","1 15","7 9","= [-","B SC","K D","] ,","] =","Ġ ...","Ġ3 5","): \\,","14 0","}) }{","bigg r","ĠO B","ĠO y","}\\\\ &",") }}",") '=\\",") !}","A I","A P","C P","O AB","p t","| >","} )=","} _{\\","Ã ĥ","Ġ }^","Ġ }{\\","Ġ )^{","Ġ ;\\","Ġ ABCD","_{ _","ar c","10 4","24 3","xy z","Ġ\\, (","D B","R ight","f Ã¢","} |=","Ġ\\ {\\","Ġ2 1",")= {\\","Ġ3 0","10 3","16 9","13 0","]{ (","Ġ} _{\\","Right arrow","' :\\",") |=","C SA","M P","O I","] ^{","a f","a t","c b","k hi","l l","| ^{","} ]","Ġ E","Ġ G","Ġ J","Ġ }}\\","=\\ {(","^{ |","Ġ+ {(","ve e",")\\ ,\\","}} <","}}{ (","10 2","10 7","10 9","12 1","}- {","Ġb i",",\\ !","|= |\\","19 2","34 3","48 0","bigg l","âĢ ĺ","Ox z","IJ K","}/ \\","! }{(",") }^{\\",", +\\",", (\\","- {",". (","0 7","2 20","3 24","= {{\\","D Ã¢","I C","b d","e qu","i v","k m","Ġ MN","Ġ :\\","^{ ^{\\","}} ^{","Ġ1 7","20 8","10 10","10 24","12 4","): -","Ġ{ -\\","13 6","\\} .","Ġ5 4","Ġd m","Ġ< -","14 5","\\{ -\\","Ġ> \\","Oy z","equ iv","' >","' }\\","' '=",") {","0 6","S ABC","\\ ;\\","` `","b f","l g","| }{\\","} [","Â º","Ã Ħ","_{ -\\","20 22","10 6","}^ \\","12 3","14 7","24 00","30 4","}& (","40 34","26 5","28 9","}}+ {{\\","Big g","'' '(","âĢĻ (","Ġ\\; {\\","Oxy z","^* }","' <","' }}{","' (\\","0 2","4 000","5 000","A SC","B H","D D","G G","I B","d ge","e dge","m p","w edge","y Ã¢","| }^","| <\\","Ġ o","Ġ\\ ,\\,","}} }}","Ġ1 20","}^{ {","12 6","12 7","16 2","15 3","13 3","), ~","ĠR l","19 0","SC A","},\\ ,","ĠS AB","28 0","28 8","Ġr h","\\, (","|- |",")] =","}+... +\\","' '\\",") ;\\,","- |","2 15","3 20","3 50","3 75","7 25","= &","= &\\!\\!\\!\\!","A OB","H B","I M","M K","O MN","S P","m t","{ [-","| )","Ġ ~","Ġ MC","20 7","Ġa d","201 4","16 4","16 5","16 8","15 6","11 7","Ġ5 0","Ġc x","\\{ {","SB A","Ġ20 16","âĤ¬âĦ¢ )","ĠO C","ĠO x","+... +\\","&\\!\\!\\!\\! =&\\!\\!\\!\\!","' }+\\",") }}{",") }-","+ }","2 10","2 11","3 15","4 49","5 45","9 00","A MB","A EF","D N","H A","I H","M I","a a","{ (\\","| |","| _{","} )=\\","} :\\","} |=\\","Ġ }^{","Ġ ):","Ġ ^\\","=\\ {\\","Ġ2 6","_{ _{","AB B",";\\ ;","AC C","17 0","17 6","27 0","27 2","24 2","24 5","Ġ=\\ {","40 35","23 8","29 0","35 4","Ġk f","'' +","') )","+... +(","Ã¡ Âº","& =\\",") }+\\",") }{(","- {\\","3 25","4 50","6 24","8 40","A O","C EF","H D","I V","M G","M Q","N P","P N","\\ }\\","c d","} '=\\","Ã ł","Ġ j","Ġ p","Ġ )=\\","Ġ ĠĠĊ","Ġ MB","}{ {{","}\\ ,\\","_{ (-","}= {",")= {","=- {","16 00","Ġ{ {\\","13 7","11 4","25 2","25 3","27 8","}) .","};\\ ,","19 9","AD C","Ġ| ^","40 38","\\\\& (","({ -\\","ĠO N","ĠO z","),\\ ;","57 6","II I","\" (","( {-",") }.","+ {","0 3","0 4","2 12","4 12","7 29","7 0000","9 60","= +\\","= |\\","G H","G M","H C","M H","M ax","Y Z","b t","x e","{ }^\\","| )=","Ġ Z","Ġ )}","Ġ .\\","}{ (\\","}\\ !","}\\ ,(","Ġx y",")\\ ;","}} ;","}} >\\","Ġ1 9","20 5","20 10","12 2","AB M","16 1","), (\\","11 8","Ġ< \\","14 3","18 5","ĠC A","MN C","SB N","Ġ& -","Ġ& \\","23 4","ĠS BC","48 6","}< |",")< {","CD D","200 9","); (",";\\, -",")}\\ ,","})\\ \\","not in",")\\\\ &","arc sin","Ġ}}\\ ,","! \\","' ^","' )^",") '",") }}\\","* )",", }\\","1 13","2 17","5 21","6 20","6 45","6 48","6 72","7 50","; (","= {(","A MNP","B F","B EF","C E","D E","F E","F G","I K","K L","M M","N A","O D","O P","P A","S E","S K","a h","m i","y set","| }+","} ?","} )-","Ġ ~\\","Ġ= {\\","Ġ2 8","}} }+","}} =-","}}{ -","20 25","}= (-\\",")= (-","Ġ( (","AB N","00 5","00 000","Ġ4 00","Ġ{ (","Ġ5 00","]{ {","14 1","14 8","BC NM","18 4","18 7","18 8","17 1","17 5","17 7","27 5","ĠB h","40 5","em pt","50 3","50 4","ĠS S",",\\, (","Ġi z","text bf","Ġk m","'' (\\","\\! ,","120 0","âĢĻ =","01 15","AH K","Â» Â","Â» âĢ","empt yset","! .","' :","' +\\",") )\\",") !}{","0 32","2 30","2 60","3 36","3 45","4 30","4 40","5 90","7 20","= ~","B K","B MD","E D","I m","I AB","O F","O H","P D","[ {","\\ }}","] }=","a i","d B","m id","t in","x a","x Oy","| ,","| .\\","} '(","} )+","Â ł","Ġ H","Ġ }}{","Ġ )+","Ġ |=","Ġ ]\\","}\\ ;\\","Ġ- (","Ġ2 2","Ġ2 3","Ġ2 00","Ġ2 81","_{ (-\\",")\\ }","}} )","}} }=","}} <\\","20 48","Ġ3 4","}^{ -\\","12 9","00 4","Ġ4 8","16 3","15 2","15 4","15 5","13 2","11 1",";\\ ,\\","}_{ (","}_{ (\\","}. {","AC M","24 6","Ġc z","{{ {\\","19 6","MN Q","ĠB B","ĠB N","AD F","Ġ| _","Ġ7 2","Ġ20 21","28 5","34 6","64 6","'' -","54 2",",~ \\","ĠAC D","ĠP Q","^+ _","NN NN","^- _","tin y","! (","& >","' |","' }(",") }=(",") }-\\",") |=\\",") |-",") ~\\","+ {{\\","1 16","2 32","3 13","3 30","3 32","4 20","4 32","5 29","6 75","6 67","7 00","7 26","7 68","8 15","9 28","< |","A F","A MC","B E","B G","B I","B P","B MC","C AB","C SB","D BC","H E","K B","M AB","M BC","O S","O BC","O ABC","P C","P M","Q C","T T","] =\\","] }\\","] =(","d t","h B","k x","y z","| {\\","| }\\","| =-","| >\\","} ~(","~ =~","Ġ '","Ġ [\\","Ġ ).","Ġ )=-","Ġ MA","lo r","^{ '}(","}} }=\\","}} ,\\","}} :\\","}} .\\","}}{ {\\","}}{ {(",")^ -","20 4","20 24","20 35","}= +\\","10 000","}^{ {{","=- {{","Ġb c","Ġb y","Ġb z","00 65","15 00","13 4","13 9","13 50","\\} ,","25 00","14 6","14 9","BC A","BC E","BC MN","Ġ6 1","|\\ ,","17 25","24 8","24 50","30 9","19 5","Ġ> -","}, ...","36 9","Ġ| =\\","Ġ9 6","SC B","SC MN","40 40","26 9","23 9","29 3","ĠS SN","Ġn x","Ġ8 1","45 5","ĠA N","CD M","Ġh r","ĠN SS","ĠD N","}}}{ {",";\\, +\\","ĠI AB","ĠĠ ĠĠ","Ġv Ãł","su m","NN S","^- }\\",")\\, |\\,","Ġ100 9","SS S","^* }\\","}+... +","Â»Â ©","' +(","( *","* }","+ (\\",", }",", -\\",", ...","- {{",". {\\",". .\\","0 9","0 17","0 68","2 23","2 278","3 11","3 000","3 40","3 80","5 20","5 13","5 40","5 75","6 000","6 80","7 000","8 44","9 75","9 37","; {","B MN","D I","D P","D Q","D AB","E C","F C","F H","G E","I F","I O","I BC","K I","M S","M ON","N r","N SN","O G","P B","Q B","S a","[ {\\","[ ]{","[ {-","] }{","] }^","] =(-","e n","h Ã¡","m c","n y","x F","x b","y x","y y","z x","{ (-","| )\\","} :","ĉ Ċ","Ġ s","Ġ )^{\\","Ġ ÃĦ","Ģ ľ","}{ {{\\","}} }}{","}} }^","}} =(",")^ +}","Ġ1 44","Ġ1 250","20 23","}= [-","Ġ3 80","Ġa c","201 2","201 3","AB I","}; +","Ġ4 9","): {(","16 7","16 35","15 12","big triangle","13 1","]{ -","14 40","}}\\ \\","Ġ6 00","Ġ6 840","18 9","ĠC C","{{ (","}) }^{","32 3","19 1","). ..\\",":\\ ;","AD D","40 3","40 39","23 3","23 5","}{( {",")}{ {(","},\\ ,\\","ĠS N","ĠS h","ĠS SS","28 3","ABCD MNP","ABCD EF","33 3","âĤ¬â Ģľ","75 00","90 725","'' '\\","}}= {{","AA Ã¢","37 0","BD A","BD C","ĠBC D","ĠO P","ĠO MM","ĠN P","') )=","') )=\\","38 4","ĠM P","ĠD C","ĠD M","200 1","200 7",")}\\ :\\","âĢĻ )","57 0","67 6","SN N","77 7","^+ }{\\","Ġ\\% /","76 9","\\; (","Ġ] .\\","AH B",",\\,\\ ,\\","}^* \\","ĠK C","arc cos","106 40","545 27","}\\! \\!\\!","Â»âĢ º","SCMN KL","(* )\\","en space","bigtriangle up","90725 500","! }{\\","& <","& \\","' )\\","' }^","' )=\\","' '=\\","' |=","' }}=",") )=-\\",") '''",") !\\","- {{\\","- ...",". \\\\",". ;\\","0 23","1 100","2 13","2 24","2 21","2 36","2 29","2 28","2 200","3 27","3 34","3 90","4 16","4 25","4 23","4 48","4 62","4 272","5 60","5 50","5 54","5 97","6 15","6 18","6 30","6 40","6 50","6 97","7 35","7 93","8 10","8 08","8 75","8 41","9 000","9 26",": +\\",": (\\","< (","= {-","A x","C F","C H","C MN","D M","D MN","E G","E OF","G A","H M","H BC","I D","J C","K A","M E","M AC","M CD","S Q","S MN","S MC","X YZ","\\ ,\\,(","] .\\","a e","a ab","n N","n i","n m","q x","r in","s ma","| }=","} ),","} '\\","} )^{\\","} |+|","} |=|","~ (\\","ª n","Â ³","á »","Ġ /","Ġ ^{\\","Ġ ]}","Ġ Ã¢","Ġ ^{-\\","}{ {(","{\\ {","math rin","}\\ :(\\","Ġx dx","Ġ+ |","}} \"","}} (\\","}} +(","{\\, \\","20 3","20 30","20 08","}= {\\","}= {{","Ġ3 1","Ġ3 3","Ġ3 51","Ġa l","Ġ( *)","10 21","10 23","10 34","10 37","12 45","12 304","AB O","AB S","AB MN","AB NM","AB KD","00 6","Ġ4 7","16 000",",\\ :","13 13","13 72","13 44","25 1","Ġ5 5","Ġ5 20",")+ (\\",";\\ ;\\","14 58","}}\\ ,","}( (","BC M","18 1","17 2","17 9","17 12304","27 3","ABC M","24 4","\\{ (","]} [","SA I","SA M","}) }","ĠR a","32 2","32 6","32 8","19 68","MN E","). ..","}, -","}, ~","36 1","36 3","36 5","36 8","36 00","Ġ; -\\","|+ |\\","Ġ7 5","100 1","100 6","Ġ9 00","60 54","40 33","40 37","40 96","Ġ) }}","26 1","26 2","Ġu v","50 5",")> -","ĠS O","Ġ} :\\","28 1","45 00","\\\\& \\","\\\\& -\\","48 1","64 2","MB KD",")}^{ {","Ġk h","\\, ,","âĤ¬âĦ¢ .","\\% .","'' )^","'' '=\\","'' '=","'' '=-\\","125 8","65 61","39 7","Ġh R","54 36","Ġ}_{ {{","120 29","BD D","80 90","=\\{ -\\","bc h","ĠM D","ĠD D","ĠD O","); ~","EF GH","|=| (","43 00","99 9","SD A","SD C","ĠAB D","),\\ ,\\","dots c","57 8","ĠĠ Ġ","ĠĠ ĠĠĊ","}> {","66 6","Ġ\\; (","91 125","\\; (\\","}\\, {\\","\\!\\!\\!\\! \\!,","}}+{{ (","119 51","AMN D","Ġ... ,","AI B","':\\ ;","ll l","&\\!\\!\\!\\!=&\\!\\!\\!\\! -","412 12029","}\\! \\!\\!\\!\\!\\!,","590 49",")^- }","},... ,\\","}\\!\\!\\! \\!,","sma ll","mathrin g","% )","' -\\","' }}","' },","( (","( (\\","( {{",") !",") [",") }=(-","* }}","+ [",", {",". {{","0 16","0 25","1 201","2 14","2 18","2 27","2 26","2 250","2 304","2 187","3 12","3 14","3 18","3 21","3 19","3 125","3 200","4 15","4 13","4 24","4 21","4 60","4 35","4 45","4 64","4 63","4 67","5 25","5 18","5 27","5 24","5 30","5 26","5 28","5 33","5 65","5 80","5 53","5 99","5 180","6 21","6 36","6 65","7 18","7 30","7 08","7 98","8 20","8 16","8 17","8 000","8 68","8 62","8 1000","8 78","9 25","9 90","9 47","9 85","; (\\","; {{","B O","B Q","B x","B y","B AA","B MNP","B OC","C I","C AD","C OA","C MNP","D F","D EF","E B","E M","E N","E HK","G T","H N","I N","I S","I OM","J A","J K","K M","K N","M F","M J","M Ã¢","N F","N Q","S F","S G","X A","X B","] +","] >","] ^{\\","a n","a v","b g","b xy","h z","h Ã¡Âº","i y","i st","m f","m u","n r","p x","r h","v dt","x i","x z","z y","z z","| )-","| -(","| }{|","} |\\","Â £","Â °","Â ªn","Ä ĳ","Ġ ?","Ġ L","Ġ }=","Ġ '(","Ġ ,\\","Ġ },","Ġ |+","Ġ ^{-","Ġ _{[","Ġ ~(","Ġ }}={{","in h","{\\ {-","Ġ= (-","}\\ ;","^{ +","^{ ^{-\\","^{ *}}","Ġ- {","Ġ- |","Ġ2 9","Ġ2 56","_{ _{\\",")\\ !","}} :","}} }-","}} ;+\\","}} }}\\","}} },","}} },\\","}} -(","Ġ1 48","Ġ1 56","20 2","20 32","20 000","20 40","20 29","20 28","20 34","20 39","20 42","}= |",")= {{","Ġ3 9","Ġa R","Ġa z","10 11","10 18","10 17","10 80","}+ |","}+ ..","}+ ({","}^{ +}","=- |","12 80","12 72","AB F","AB H","AB EF","AB ND","}; {","Ġb d","Ġ4 3","Ġ4 000","Ġm y","Ġm inh","): {\\","16 6","16 40","16 80","16 10640","'( -\\",",\\ ;\\",",\\ ,\\,","15 1","15 7","15 625","13 26","), ~(","25 9","25 20","25 65","25 93","25 92","Ġ5 3","Ġ5 6","14 2","BC B","BC N","Ġ6 3","Ġ6 5","Ġ6 6","18 2","18 00","17 3","17 90","27 6","27 61","27 07","ABC A","ABC MNC",")- (\\","24 1","24 7","24 000","Ġc d","Ġc hÃ¡","30 2","30 6","30 69","ĠC H","ĠC I","ĠC P","'= {","21 9","ex ist","}) }^","}) }{\\",")} '=","32 80","19 3","19 4","19 7","19 8","19 45","19 98","19 87","MN D","MN CD","Ġ> -\\","}, (","}, -\\","ax y","AD M","}& \\","SB I","Ġ& =\\","Ġ7 7","Ġ7 9","100 7","Ġ9 9","SC I","60 2","60 4","60 8","60 53","60 51","40 32","40 42","40 68","26 4","26 6","26 7","23 1","23 7","Ġ20 22","50 40","50 45","Ġt r","29 2","29 6","ĠS a","ĠS AC","35 3","35 5","35 6","35 7","35 9","28 7","28 00","45 3","45 6","45 9","34 7","ABCD E","48 00","64 3","MB ND","33 1",")}^{ -",")}^{ -\\","ĠA E","49 6","49 99","CD A","CD E","CD EF","\\, (\\","âĤ¬âĦ¢ =","âĤ¬âĦ¢ =\\","âĤ¬âĦ¢ =(","}}= {{\\","Ġ\\{ -\\","65 6","\\! =\\","39 1","39 5","39 9","39 99","... +","54 7","MC A","ĠO AB","ĠO BC","}}- {{","ĠN NN","AM D","', (","38 2","ĠM Q","96 6","abc d","|- |\\","ĠD B","Ġ=- {","200 5","); (-","56 7","EF G","44 3","44 6","}}}{ {{","43 24","47 0","47 7","47 2761","68 5","68 9","âĢĻ \\","={ (\\","500 00","57 1","57 4","57 50","67 3","67 4","67 20","66 66","77 6","Ġv Ã¡","\\,\\ %","\\,\\ ,\\,\\",")] +\\","98 3","98 4","NN NS","58 4","),\\, (","300 3","SI F","Oz x","112 7","Â» âĢĺ","115 2","ĠOy z","AP R","Ãĥ Âº","Ãĥ Âªn","arc tan","ĠG I","`` \\","=& -","290 64","|, |","Ġs Ã¡","2707 25","exist s","ÃĥÂº ng","! =","! }}","! }+\\","\" =\\","\" -\\","\" +\\","\" =-\\","& <-","' {","' ):","' ,\\","' },\\","' }.\\","' ,~","' |=|","' ,\\;","( *)",") (-",") ;\\",") ]}",") )}",") |+",") )=-",") }.\\",") }}{(",") !}{(","+ (-",", +","- ~","- {|",". ,","0 28","0 48","0 73","1 125","2 256","3 360","3 2000","3 240","3 141","4 10","4 18","4 29","4 22","4 75","4 65","4 37","4 120","4 72","5 10","5 11","5 14","5 35","5 72","5 52","5 275","6 13","6 17","6 28","6 64","6 39","6 63","6 10000","7 15","7 11","7 17","7 36","7 60","7 90","7 65","7 37","7 80","7 38","7 61","7 97","8 13","8 18","8 32","8 60","8 64","8 72","8 56","8 61","8 99","8 95","8 82","8 666","9 10","9 11","9 14","9 18","9 36","9 35","9 22","9 33","9 80","9 72","9 96","9 52","; |","= ~\\","> {\\","> (\\","A Q","A S","A X","A OC","A IJ","A OO","B Y","B SA","B PQ","C G","C J","C K","C S","C y","C MA","C SD","D G","D H","D z","D AC","D ABC","D SA","D AA","D CA","E A","E H","E K","E BC","F A","F D","F KM","G I","G K","G BC","H I","H AB","I G","I P","I BD","I FE","K H","K Q","K MN","M O","M m","M z","M EF","M BCD","M OO","M BCC","N E","N H","N AB","N Ã¢","O K","O Ã¢","O EF","O IA","Q A","Q P","R P","R S","S x","S ABCD","S MA","S MNP","S EF","S SN","S IA","T a","\\ ,\\,","] ?","] }^{","] '\\","a S","a m","a q","a u","b n","c f","c t","c y","c ÃĦ","c Äĳ","d a","g t","h Ã","i b","k F","k g","k t","k hÃ","l do","l Ãĥ","n S","n V","n b","n z","r l","s y","s up","s ai","w i","x x","x ln","x Oz","| }=\\","| }^{","| }+\\","| )+","| {{","| }-(","} ]}","} )=-\\","} ')","~ -~","´ ng","Â ¡","Â ¥","Â ¿","Â Ń","Ä Ĳ","á º","Ġ Y","Ġ }+","Ġ cos","Ġ sin","Ġ ta","Ġ )-","Ġ }=-","Ġ OA","Ġ }}=\\","Ġ ')","Ġ MNP","Ġ }}+\\","Ġ }={","}{ [","}{ -\\","}{ |\\","Ġ\\ :","Ġ= |","Ġ= ~","^{ ^","^{ {","^{ ^{","Ġx e","Ġ2 16","Ġ2 25","Ġ2 30","Ġ2 34","Ġ2 33","Ġ2 88","}} [","}} =-\\","}} }.","}} }{(","}} ,\\,","}} }.\\","}}{ [","}}{ |","}}{ (\\","}}{ {{","Ġ1 08","Ġ1 35","Ġ1 125","Ġ1 80","Ġ1 74","{\\, (","20 6","20 9","20 36","20 26","20 31","20 41","20 47","20 99","20 97","20 98","20 46",")= [","Ġ3 20","Ġ3 00","Ġ3 39","Ġ3 38","Ġa y","Ġa Ã¢","Ġa bc","Ġ( {{","10 20","10 16","10 25","}+ {{","}^{ *}","=- (","Ġ0 48","}^ +","\\\\ (","\\\\ -","Ġy y","cos x","12 36","12 60","12 50","12 48","12 33","12 75","12 96","12 85","12 71","AB E","AB J","AB FE","}; }\\","Ġ4 1","Ġ4 6","Ġ4 400","Ġm i","): {","Ġ{ [","15 9","15 16","15 13","15 000","15 60","15 54","15 95","13 25","13 60","13 23","13 01","), (-","\\} )","11 75","11 80","11 74","25 5","Ġ5 2","Ġ5 90","Ġ5 400",")+ [",")+ {\\",")+ {{\\",")+ ...+",")^{ ^{\\",")^{ ^{-\\",";\\ ,\\,","]{ {\\","]{ {{","Ġ< -\\","}_{ {","14 00","14 16","14 17","14 33","14 542","{, }{","}( {","}( (\\","BC O","BC Ã¢","Ġ6 75","Ġ6 72","Ġ6 56","Ġ6 87","18 3","18 6","18 7500","}. {{","AC A","AC E","AC G","AC H","AC CÃ¢","17 8","17 10","17 00","17 52","17 53","27 4","27 9","ABC C","ABC E","ABC MN",")- {",")- (-","24 25","Ġc Ãĥ","30 1","30 8","30 20","ĠC B","ĠC E","21 97","\\{ {\\","\\{ {-","]} |","SA O","}) (","}) ;","}) ]","}) +(","};\\ ;\\",")} ,","32 15","19 20","19 59","MN A","MN B","MN EF","). }","}, +\\","ĠB AC","ĠB AD","ĠB HC",":\\ !",":\\ ,\\","AD B","AD E","AD DÃ¢","SB E","Ġ& =-","Ġ| -","Ġ| .","Ġ7 0","Ġ7 00","Ġ7 28","100 3","100 5","100 86","000 1","Ġ9 5","60 5","60 9","60 5000","40 1","40 7","40 8","40 16","40 15","40 26","40 62","Ġ) <","Ġ) }{","26 3","26 14","23 80","}{( {{","Ġ20 15","Ġ20 48","]\\ ,",".. .\\","50 1","50 6","50 9","50 50","50 54","},\\ :","Ġt e","Ġt Ã¡","29 1","29 4","29 9","ĠS F","ĠS I","ĠS K","ĠS NN","ĠS NS",",\\, {{\\","35 2","35 8","35 000","Ġ10 10","Ġn g","Ġn y","28 2","28 80","Ġ8 6","Ġ8 00","Ġ8 50","45 1","45 000","34 1","34 9","34 50","34 49","\\\\& -","^{- }}","^{- })=","22 24","22 100","48 3","48 7","_{[ -\\","Ġ}{ {","}}+ {","}}+ ...","MB P","33 7","33 000",")}^{ ^{\\","MA NC","ĠA I","ĠA K","ĠA M","ĠA HK","49 0","49 1","49 2","49 5","Ġk a","\\, }","75 6","75 8","90 7","90 67","'' -\\","'' +\\","125 6","65 000","\\! \\","\\! :\\!","39 4","39 6","39 8","39 360","37 1","37 3","Ġh Ã","Ġh Ãĥ","Ġ}_{ _{","BD F","80 7","80 72","80 68","80 76","\\{- {\\",",~ (","bc d","ĠN D","ĠN S","ĠN Ã¢","Ġ16 10640","38 3","ĠM E","ĠM AB","ĠM hz","96 1","96 9","96 000","ĠD A","ĠD E","mbo l","ĠAC C","200 6","56 2","56 6","56 7000","EF B","ĠP C","44 7","44 00","47 1","68 6","68 7","68 8","68 7500","99 45","99 99","âĢĻ =\\","âĢĻ )\\","={ |","500 000",")) }=","Ġ. {{","'}{ {","63 20","57 9","OC A","85 8","85 9","55 25","SN S","}> (","}> -\\",")}= +\\","108 8","73 50","1000 00","66 9","BCD A","}| ^{","^+ }\\","97 0","97 9",")] ^{","98 8","98 430","IJ C","ĠSC D","ĠSA D","600 00","600 000","76 000","250 3","216 0","^- }{\\","AH C","AH M","88 6","300 6","Ġ100 5","Ġ100 8","Ġ18 7","Ġ18 9","2000 00","SH C","BM PN","Ġl Ã¡","Ġl Ãĥ","69 4","84 40","87 9","93 000","Ġ40 35","Ġ40 34","Ġ40 96","94 000","SI C","SI D","AG C","AE C","115 6","}\\\\& (","AP MN","}}< (","Ġbi Ã¡Âº","07 96","07 97","Ġ:\\ ,","147 278","147 347","168 75","ĠOx z","315 7","545 6","Ãł m",")\\; {\\","Â»âĢ ľ","336 00","155 1175","AF D","BI D","HE Q","TT Ã¢",")^- }\\","149 50","FH N","54527 33","54527 71","416 25","697 2593","808 2","XYZ T","1968 3","Ġkh o","Ġkh Ãĥ","5436 521","5436 566","413 8","878 8","^{+ }}",")\\! \\!:\\!","Ġ39 5054","1326 00","Ġtr ÃĥÂªn","\\!=\\ !","4120 8","khÃ ´ng","sy mbol","sup set","Ġ339 35","1180 96","14542 26","! )^","! +(","! }}\\","! -(","\" =","\" \\","% }","' ~","' }{\\","' ),","' })","' ).","' .\\","' |=\\","' ,\\,","' \\\\&","' }=-","' -(","' ),(","' ~=~","( +\\","( (-","( |\\","( [-","( {{\\",") ~",") }{-",") ),",") ;+\\",") )+",") )^{",") [\\",") )>",") )}^",") {{\\",") }}}",") );",") |=|",") ].",") }}{{",") ~(",") }}}\\",") âĢĻ=",") !}{\\","* }\\","+ ^","+ ~","+ }\\","+ |\\","+ {{","+ ^*",", =",", |",", }-\\","- +","- [","- (\\","- {(",". -\\",". {{\\","/ (","/ {{","0 10","0 60","0 50","0 29","0 22","0 75","0 65","0 39","0 72","0 41","0 38","0 44","0 47","0 51","0 67","0 77","0 74","0 95","0 58","0 46","0 91","0 59","0 625","0 105","0 188","1 1000","1 128","1 150","1 105","1 135","1 165","1 168","2 108","2 150","2 2000","2 180","2 106","2 265","2 280","2 293","3 10","3 35","3 81","3 150","3 160","3 135","3 130","3 136","3 190","3 164","4 14","4 17","4 27","4 36","4 28","4 33","4 41","4 38","4 42","4 200","4 61","4 66","4 2000","4 1600","4 137","4 369","4 293","4 368","4 6666","5 15","5 17","5 32","5 34","5 22","5 39","5 120","5 96","5 51","5 57","5 95","5 240","5 184","5 1512","5 481","6 10","6 12","6 32","6 26","6 22","6 33","6 90","6 37","6 99","6 98","6 150","6 250","6 91","6 160","6 642","6 96000","7 10","7 16","7 24","7 19","7 40","7 23","7 28","7 34","7 22","7 48","7 81","7 64","7 49","7 200","7 99","7 67","7 82","7 2000","7 94","7 92","7 446","8 12","8 11","8 25","8 2018","8 27","8 24","8 30","8 21","8 100","8 26","8 50","8 29","8 35","8 45","8 34","8 48","8 81","8 33","8 90","8 54","8 96","8 51","8 85","8 73","8 66","8 97","8 600","8 46","8 400","8 91","8 0000","9 20","9 15","9 24","9 32","9 100","9 40","9 23","9 45","9 48","9 64","9 49","9 39","9 54","9 56","9 44","9 53","9 0000","9 135","9 269",": -",": {",": }",": }\\,",": ~\\","; ;","; ~","; {\\","; \\\\","; ...","< (\\","< ...","= =-","> (","A J","A T","A a","A e","A y","A OM","A SD","A SO","A MNPQ","A PQ","A YZ","B J","B S","B t","B SD","B SO","B NC","B HK","B IH","B YZ","B MNC","C L","C O","C Q","C Z","C m","C z","C MB","C BA","C IJK","C HA","C FG","C OG","C ÄĲ","D O","D s","D SB","D MNP","D CC","D IJ","D BA","D DÃ¢","D IC","D HA","D GH","D JK","E I","E Q","E S","E ABC","E AD","E CD","E Ã¢","E BD","E BCD","E IJ","F B","F M","F O","F AB","F AD","F CD","F Ã¢","F HK","F IO","G B","G C","G J","G N","G i","G AB","G AC","G ABC","G MB","G CD","G SAC","G HK","H O","H P","H Q","H z","H MN","H CA","H CEF","I R","I AC","I MN","I CD","I BCD","I BA","I CB","K C","K F","K G","K J","K CD","L C","M e","M n","M x","M y","M ABC","M OA","M OB","M ACD","M ABD","M HK","M PQ","M IJK","M OP","M ABN","M ED","M OF","M hz","N J","N K","N MD","N ACB","N PQ","N OD","N ADM","O E","O V","O AC","O ABCD","O MNP","O BCD","O ACD","O HC","P E","P I","P S","P u","P AB","P Ã¢","P BCD","P MNC","Q D","Q N","Q R","Q MN","Q CD","Q MNP","R B","R D","R h","S J","S y","S OA","S Ã¡","S FC","S FH","S JC","S JA","T G","T Ã¢","T GG","T GT","T hÃ¡Âº","V h","V OV","X T","X Y","X Z","Y T","[ |","\\ :","\\ |","\\ -\\","\\ }=","\\ }^","\\ :\\","] }}","] '=\\","] |=","] '=","] ,\\,","] }=-","] ,~","] ^{-\\","] +{\\","^ (","^ +\\","^ /(","_ =\\","a F","a R","a o","a le","a SA","b m","b SB","c h","c Ã","c ht","c SC","d v","e f","f ra","f row","g Ã¢","h R","h o","h r","h Ãłm","i i","i w","i Ã¡","j u","k a","k f","k y","k CD","l d","l z","l Ãł","m M","m b","n B","n C","n D","n h","n n","n s","n t","n u","n v","n ac","p c","p h","p q","p s","q s","r x","s f","s ime","s ao","t e","t x","t dt","u x","u y","x BC","x Ã¢","x dx","x Ay","y dy","y Oz","z i","{ }{{","{ !}","{ :}","| ;","| (\\","| )=\\","| +(","| [\\","| ^{-","| }<","| }}=","| |(","| )?","| )-(","| )|=","} ~","} ):","} ]{","} '=","} |+","} ]\\","} )=-","} ''(","} |-","} '.","} !}","} ~\\","} ):\\,","} ~=~","} |+|\\","~ =\\","~ =~\\","~ +~","£ ng","© c","© t","¬ nh","¿ n","Â §","Â ©","Â ´","Â Ĳ","Ã ³","Ã Ĥ","Ã ªn","Ã ©t","â Ħ¢","Ġ U","Ġ X","Ġ `","Ġ ma","Ġ log","Ġ }-","Ġ }.","Ġ }_","Ġ )(","Ġ ,\\,","Ġ }}=","Ġ }}}","Ġ ]^","Ġ |+|","Ġ âĢ","Ġ ''(","Ġ EF","Ġ |=|","Ġ ,(","Ġ ):\\","Ġ }}.","Ġ }}{{","Ġ MNPQ","Ġ }}+{{","Ġ HK","Ġ HD","Ġ *}","Ġ XB","Ġ Äĳ","Ġ }}-{{","Ġ }}}{{{","ĵ ng","Ļ t","ra d","}{ (-","Ġ\\ {(","sq cup","{\\ !","math fra","math sf","Ġ= +\\","Ġ= (\\","Ġ= (-\\","Ġ= {(","}\\ %","}\\ ,\\,","}\\ ;(","^{ (\\","^{ +}","^{ *}","Ġx Oz","Ġ- }}","Ġ+ {\\","Ġ+ }}","Ġ+ ...+","Ġ2 15","Ġ2 32","Ġ2 40","Ġ2 29","Ġ2 45","Ġ2 44","Ġ2 43","Ġ2 51","Ġ2 82","Ġ2 400","Ġ2 304","Ġ2 50000","_{ +}",")\\ ;\\",")\\ }.","}} _","}} |","}} ~","}} )^","}} ;-","}} ):","}} |=","}} [\\","}} ^{-","}} }<","}} }}}","}} ,~","}} }}+\\","}} }}{{","}} }\\,","}}{ -\\",")^ +}\\","Ġ1 15","Ġ1 18","Ġ1 17","Ġ1 21","Ġ1 000","Ġ1 60","Ġ1 28","Ġ1 33","Ġ1 96","Ġ1 200","Ġ1 88","ro ng","20 27","20 50","20 33","20 54","20 38","20 44","20 85","20 58","20 600","20 84","20 87","20 86","20 4034","20 412","20 403","}= [","}= (\\","}= |\\","}= [\\","}= {(","}= {{\\","}= {(\\","(\\ ,",")= (\\",")= |\\",")= {{\\","Ġ3 7","Ġ3 10","Ġ3 25","Ġ3 27","Ġ3 24","Ġ3 21","Ġ3 36","Ġ3 000","Ġ3 23","Ġ3 65","Ġ3 31","Ġ3 68","Ġ3 67","Ġ3 600","Ġ3 94","Ġ3 3280","(- |","Ġ( {","Ġ( |","Ġ( {\\","Ġ( <\\","10 12","10 15","10 13","10 14","10 27","10 100","10 40","10 26","10 45","10 22","10 48","10 81","10 33","10 90","10 39","10 56","10 77","10 95","10 70","10 93","10 94","10 92","10 304","10 239","10 302","10 395","10 584","}^{ (","}^{ |","}^{ }}{","}^{ {{\\","=- (\\","Ġ0 10","Ġ0 22","Ġ0 81","Ġ0 49","Ġ0 07","}^ +}","Ġf Ã¢","Ġy i","Ġy z","cos in","201 1","201 49","201 56","12 20","12 10","12 16","12 15","12 13","12 25","12 30","12 21","12 32","12 22","12 90","12 63","12 95","12 69","12 101","12 110","12 104","12 107","12 234","12 504","12 285","12 357","12 6720","do t","AB G","AB Q","AB Ã¢","AB MD","AB DC","AB BÃ¢","AB PN","AB YZ","AB MNC",")=\\ {","}- {{","}- ...","Ġb Ã¢","Ġb Ã¡Âº","00 1","00 2","00 8","00 12","00 71","Ġ4 4","Ġ4 27","Ġ4 32","Ġ4 50","Ġ4 65","Ġ4 120","Ġ4 42","Ġ4 86","Ġ4 220","Ġm m","Ġm p","Ġm t","Ġm z","Ġm Ã¡","Ġm á»","Ġm Ã©t","): -\\","16 12","16 16","16 18","16 23","16 28","16 98","16 82","16 88","16 119","16 89","16 137","16 384","16 142","16 267","16 1700","16 758","16 6320","Ġ{ {{","Ġ{ .}","15 8","15 17","15 33","15 120","15 0000","15 94","15 840","15 00000","15 1200","15 131","15 81000","15 872","big cup","big cap","13 20","13 00","13 16","13 17","13 000","13 45","13 48","13 49","13 65","13 31","13 52","13 47","13 66","13 70","13 46","13 76","13 88","13 69","13 89","13 117","13 122","13 234","13 440","13 116","), ~\\","\\} }\\","\\} <\\","\\} ,\\,\\","11 20","11 11","11 100","11 40","11 45","11 81","11 400","11 88","11 86","25 7","25 13","25 18","25 30","25 000","25 60","25 50","25 48","25 75","25 90","25 200","25 76","25 2000","25 84","25 87","25 00000","Ġ5 1","Ġ5 8","Ġ5 000","Ġ5 50","Ġ5 38","Ġ5 73","Ġ5 74","Ġ5 76","Ġ5 02","Ġ5 6320","Ġd t","Ġd v","Ġd Ã¢","ab i","ab x",")+ {",")+ (-",")^{ |","]{ {{\\","14 20","14 18","14 24","14 19","14 60","14 08","14 45","14 81","14 80","14 250","14 59","14 84","14 350","14 199","14 299","}}\\ %","}}\\ }","}}\\ ,\\","}}\\ ,\\,","}}\\ ,\\,\\,\\","}( |","BC I","BC S","BC CÃ¢","BC HK","|= {{\\","Ġ6 2","Ġ6 7","Ġ6 8","Ġ6 16","Ġ6 14","Ġ6 18","Ġ6 17","Ġ6 000","Ġ6 63","Ġ6 85","Ġ6 73","Ġ6 79","Ġ6 220","2017 2018","18 20","18 44","18 67","18 66","18 76","18 01","18 1440","18 252000","}. \\\\","}. ..","AC I","AC MN","AC Ã¢","AC NM","17 4","17 100","17 50","17 01","17 2800","27 1","27 00","27 000","27 50","27 35","27 55","27 216","27 440","27 50000","27 1317","ABC B","ABC H","ABC I","ABC N","ABC O","ABC Ã¢","ABC MNP","ABC NM","ABC HK","ABC IK","ABC ED","ABC IJC","24 9","24 16","24 32","24 35","24 56","24 99","24 97","24 360","24 01","24 2000","24 69","24 0000","24 20000","24 689","24 1920","Ġc v","Ġc Ã¡Âº","Ġc ho","Ġc Ã³","Ġ-\\ ,","30 3","30 7","30 10","30 16","30 17","30 24","30 60","30 29","30 49","30 80","30 72","30 42","30 97","30 240","30 960","30 3600","ĠC F","ĠC N","'= {\\","21 10","21 99","21 92","21 130","21 200000","21 20600","SA G","SA H","SA K","SA N","SA MNP","SA IJ","SA IC","{{ {{\\","{{ ({\\","}) |","}) }\\","}) -\\","}) +\\","}) )=","}) '=\\","}) }^{\\","}) ,\\,","};\\ ,\\",")} <",")} >",")} )=",")} ,\\","32 9","32 13","32 11","32 60","32 35","32 33","32 180","32 162","32 960","32 118","32 2560","19 00","19 11","19 17","19 32","19 36","19 75","19 99","19 85","19 55","19 97","19 82","19 69","19 86","19 71","19 92","19 79","19 368","19 602","19 674","19 2456","MN G","MN I","MN K","MN N","MN AB","MN ABC","MN ABCD","MN KQ","). {","). \\\\","ax e","ĠB A","ĠB E","ĠB y","36 4","36 6","36 000","36 75","36 37","36 54","36 67","36 288","36 900","36 2880","AD H","AD I","AD S","AD MN","AD CB","Ġ; +","SB M","SB O","SB AC","SB MN","SB MD","Ġ& <","Ġ& >","Ġ& =-\\","Ġ& <-","Ġ| (","Ġ| }","Ġ| -\\","Ġ| }=\\","Ġ7 1","Ġ7 3","Ġ7 6","Ġ7 12","Ġ7 21","Ġ7 50","Ġ7 49","Ġ7 94","Ġ7 726","Ġ7 423","Ġ7 424","Ġ7 776","100 2","100 4","100 84","100 89","{( |","Ġ9 2","Ġ9 000","Ġ9 47","Ġ9 726","Ġ9 2160","Ġ9 830","SC M","SC O","}_ +^*","60 3","60 6","60 7","60 21","60 60","60 48","60 49","60 80","60 56","60 61","60 52","60 47","60 55","60 59","60 480","60 4800","40 2","40 4","40 6","40 9","40 20","40 24","40 30","40 50","40 29","40 28","40 31","40 80","40 41","40 44","40 500","40 66","40 95","40 70","40 58","40 46","40 94","40 320",")( {",")( {{","<\\ !","Ġ) }{\\","Ġ) ,\\","Ġ) }.","Ġ) >\\","26 8","26 12","26 00","26 16","26 15","26 13","26 18","26 17","26 19","26 23","26 90","26 57","26 88","26 800","26 815","23 10","23 15","23 52","23 47","23 99","23 58","23 2000","23 180","23 477","23 2518","Ġ{\\ {-","Ġ{\\ %}","Ġ20 10","Ġ20 50","]\\ ,\\",".. +{",")}{ {",")=- (",")=- {{","50 7","50 44","50 95","50 400","08 0","08 5","08 6","08 06",")> {\\",")> {{\\","},\\ ,(","Ġt hÃ¡","Ġt á»","Ġt rong","29 5","29 7","29 8","29 16","29 40","29 68","29 2000","29 525","29 524","29 8440","Ġ(\\ %)","ĠS E","ĠS J","ĠS y","ĠS MC","ĠS DC","35 00","35 17","35 47","35 74","35 0000","35 2623","Ġ10 13","Ġ10 24","Ġ10 726","Ġ10 749","Ġn b","Ġn i","Ġn t","Ġn z","Ġn hÃ¡Âº","Ġ[ -\\","28 4","28 6","28 67","28 73","28 70","28 800","28 89","Ġ8 0","Ġ8 9","Ġ8 20","Ġ8 10","Ġ8 16","Ġ8 25","Ġ8 24","Ġ8 29","Ġ8 75","Ġ8 80","Ġ8 96","Ġ8 63","Ġ8 62","Ġ8 76","Ġ8 06","Ġ8 726","Ġ8 27440","45 7","45 8","45 36","45 81","45 125","45 63","45 672","34 2","34 00","34 22","34 75","34 65","34 73","34 400","34 236","34 2187","34 240000","ABCD A","ABCD D","ABCD SA","ABCD MN","ABCD SH","ABCD SEF","^{- (","}=- (","}=- |","22 168","22 177","22 167","22 2800","22 178","48 2","48 4","48 5","48 000","48 39","48 873","Ġ}{ |","81 10","64 7","64 000","64 35","64 90","64 152","64 26815","MB D","MB N","MB NP","MB PA","33 8","33 20","33 34","33 75","33 240",")}^{ {{","}< -","}< {\\",")< -","Big l","Big r","MA E","MA I","2016 2017","2016 00000","ĠA MN","ĠA Ã¢","ĠA AÃ¢","text backslash","49 4","49 7","49 50","49 39","49 42","49 44","49 47","49 95","49 2513","CD B","CD G","CD P","CD NM","Ġk x","\\, ;","\\, {{","âĤ¬âĦ¢ ,","âĤ¬âĦ¢ <","âĤ¬âĦ¢ >","âĤ¬âĦ¢ }}","âĤ¬âĦ¢ }=","âĤ¬âĦ¢ (\\","âĤ¬âĦ¢ (-","âĤ¬âĦ¢ }(","=| (","=| -","=| |","75 1","75 4","75 5","75 9","75 68","75 00000","75 328","75 528","75 497","90 1","90 2","90 5","90 6","90 56","90 47","90 57","90 720","90 93000","\\% \\,","}}( {\\","}}( {{",")}^ \\","125 5","65 2","65 4","65 5","65 50","65 39","65 77","65 00000","65 6000","65 318","65 983","65 94000","\\! <\\!","39 2","39 3","39 24","39 840","39 361","39 356","39 366","37 6","37 9","37 17","37 23","37 22","37 0000","37 332","37 39360","37 32960","37 36900","Ġh Ãłm","OA O","OA MN","OA HK","}}} (-","}}} >\\","31 139","54 1","54 4","54 34","54 76","54 624","Ġ}_{ _{\\","MC E","MC N","120 9","120 00","120 98","120 960","BD E","BD M","BD N","BD MN","BD NM","BD HCEF","ĠBC C","ĠBC E","80 3","80 60","80 47","80 73","80 77","80 46","80 486","80 640","bo ld","ĠO E","ĠO I","ĠO M","ĠO MN","ĠO CD","ĠO IA","ĠO IB","ĠN B","ĠN N","ĠN MP","ĠN NNS","ĠN NSN","ĠN SNN","Ġ16 2","Ġ16 3","Ġ16 8","Ġ16 640","Ġ16 382","Ġ_{ (","') }}{","AM H","AM P","AM PN","AM EN","AM IN","AM KN","Ġ}\\ ,","38 5","38 6","38 7","38 8","38 40","38 34","38 48","38 33","38 41","38 43","38 74","38 88","38 304","38 4000","ĠM F","ĠM BC","ĠM Ã¢","ĠM Hz","96 2","96 3","96 00","MNP B","MNP D","MNP R","MNP ABC","OM H","OM I","OM M","OM HN","ĠD AB","ĠD CC","ĠD CA","42 16","42 187","200 2","200 3","200 4","Ġ\\\\& \\","Ġ\\\\& -\\","56 3","56 8","56 228","56 875","EF H","EF M","EF HK","EF NJ","OB A","OB E","OB M","Ġ15 95","44 30","44 200","44 163","44 3000","61 161","53 1440","ri cht","}}}{ {\\","}}}{ {{{\\","43 20","43 000","47 3","47 6","47 8","47 9","47 25","47 000","47 304","47 900","47 09","47 0071","47 1688","68 2","68 4","68 40","68 58","68 88","68 575",";\\, |","99 2","99 3","99 7","99 8","99 90","99 96","99 77","99 97","99 98","99 430","99 267","SAB D","SD I","SD J","ĠAB M","):\\ ;","):\\ ,\\","âĢĻ .","âĢĻ (\\","âĢĻ }(","âĢĻ =(","),\\ ,\\,","+... }","+... }{","500 4","500 0000","500 4000","500 00000","ĠAD C","ĠAD O","Ġ2017 2018",")) }}",")) )=","63 00","63 24000","63 271317","57 3","57 7","57 60","57 793","57 9067","67 0","67 1","67 8","67 000","67 02","67 248","67 9067","67 9057","BB Ã¢","OC B","OC MN","85 5","85 89","ĠV h",")| .",")| <",")| |(\\","SBC D","ĠI C","ĠI D","ĠI F","ĠI O","55 5","55 8","55 32","55 52","55 346","55 3500","SN C","SN Q","SN NN","}> -","}> {\\","62 13","108 9","108 160","73 81","ĠSB D","1000 00000","66 65","66 72","66 68","66 67","66 69","66 121","77 0","77 9","77 10","77 25","77 28","77 68","77 77","77 82","ĠF G","}}. {","BCD E","BCD M","BCD N","BCD O","BCD NM","74 000","74 40","74 45","74 48","74 207","}' <","Ġv Ãĥ","Ġv Ã¡Âº","SAC D","\\,\\ ,\\,(","^+ )","128 2","128 3","128 4","128 432","128 8110","97 1","97 63","CC Ã¢",")] >",")] }\\",")] -\\",")] =|",")] =[","98 2","98 6","98 9","98 80","98 280","CA Ã¢","IJ B","IJ G","IJ CD","NN Ã¢","SM P","SM BC","SM GB","ĠCD B","ĠCD O","95 100","MD C","144 00","144 000","144 492513","70 1","70 7","70 63","70 95","70 76","70 947","70 308","70 698","70 656000","SO MN","ĠSC B","Ġ\\% .","Ġ\\% \\;(","ĠSA M","ĠSA O","'=- (","58 3","58 6","58 8","58 9","58 675","600 5","Ġ25 20","Ġ25 000","46 9","76 80","82 304","250 1","250 2","216 65983","400 4","400 9","400 00","400 5000","400 80000","DC E","DC EF","\\; {\\","78 4","78 6","78 89","78 79","78 6858","^- }=+\\","Ġ] }\\","SAD E","|. (","AH D","AH MK","{| |","88 8","88 00","88 56","88 400","88 430","88 933","BA S","300 4","300 5","300 00","300 000","300 0000","300 00000","59 2","59 280","59 203","AN MK","AN KB","Ġ}} }}","Ġ}} :{","256 000","Ġ24 30","Ġ100 7","Ġ45 50","ACD B","ACD M","ACD Ã¢","625 00","OO Ã¢","2000 000","Ġ60 51","SH A","SH B","SH D","SH ACD","ACB Ã¢","BM GH","Ġl r","Ġl Ãł","MNPQ ABCD","MNPQ RS","SS Ã¢","|( {{","69 2","84 509","84 2940","87 1","87 65","87 9056","BN K","NM CD","0000 1","ĠSD B","^* }}","^* })","ĠK B","ĠK DC","83 25","86 50","~( *)","ĠQ N","ĠQ R","Ġ40 20","Ġ40 36","Ġ40 39","225 8","225 0000","HK B","HK L","HK CC","HK CB","AMN B","AMN C","AMN G","SI B","SI K","SI M","SI N","Ġ\\,\\ ,\\,","AG D","AG BC","AG MC","CN P","CN MA","Oz y","PQ NMD","}}, {{","240 2","240 3","240 643","112 687500","AE B","AE D","AE H","AE BD","AE BF","AE MF","AK B","AK C","AK H","mn z","Â» âĦ¢","}}> {\\","}}> {{\\","110 2","110 6","110 544","115 20","115 687500","115 586","Ġ... +","140 608","AI D","AI M","AP MQ","AP NMCD","CP D","OAB H","OAB O","|> |","arc cot","}|= |\\","Ġ30 7","103 1635","169 1595","169 1955","130 91",")|= +\\","MP IK","MP NQ","OI M","}] |","Ġbi áº","âĢĺ }}=","âĢĺ }}=-","Oxz y","220 3","220 9","324 1","324 0000","324 20000","}}^{ *}","}}^{ *}\\","208 346","208 347","124 13","124 656","136 250","){ :}\\,","SABC M","147 20","147 30","147 80","265 200","4000 500","5000 400","BH C","BH D","GG T","Ġ\\,\\, (","}}}} :\\","126 50","153 35","280 9","215 30","215 456","320 9","320 000","375 4","375 0000","725 76000","725 67000","IM J","ĠMC A","207 360","117 600","117 187500",")}}{ {{","449 10","449 18","449 28","449 02","449 98430","449 99430","449 88430","900 000","AEF B","AEF G","AEF K","MI N","|| (\\","}:\\ ,","170 94","176 35000","176 3334","270 45","270 72","245 80","290 646","354 292","354 294","325 74","450 54","AO S","Ġp hÃ¡Âº","}\\,\\ ,\\,","114 244","114 187500","278 66121",")}. }","212 35000","212 33000","412 50","MH AK","xe n","185 40","185 64",")}}\\ ,","217 9","217 354","648 1458","AMNP BCD","BF C","CE MF","IK G","IK MN","MM Ã¢","OD EF","PA Q","SE BD","Ġ28 160","148 14720","184 35","175 50","177 144","177 147","1200 96","Â»Â ģ","Â»Â Ń","Â»âĢ ¹","345 6","345 60","345 87","440 74000","590 40","590 48","720 000","BMD A","BMD N","OH M","ĠH N","Ġ200 9","2048 48000","2048 47000","129 3600","346 50","232 289","675 0000","667 1","667 3","667 4","667 735","815 000","AF B","AMC N","BE C","HE J","MBC N","OBC O","TT G","2035 144","2035 145","2035 143","2035 146","ĠĠĠĠ Ġ","ĠĠĠĠ ĠĠĠ","}+...+ (-",",... ,","223 9977","2278 30","2278 32","2278 35","2278 34","2278 31","311 108","540 45","680 430","680 403","975 3","975 4","975 5","BMN E","DI G","DQ A","IF J","IF O","Ġs á»","}}}}{ {{","167 23477","189 20","370 26","777 60","777 6300","AHB S","54527 11","}\\!\\!\\! \\!","-... -","-... -\\","-... +\\","-... +(-","224 25","221 100","327 68","327 292000","390 62","390 625","448 290","448 98430","615 000","697 2592","735 80","808 0","926 95100","MCD A","~(\\ %)","á» ĵng","}}(\\ %)","203 1000","1023 54624","ABMN D","ABNM FE","Ġ47 360","1313 13","1313 131313","328 69","1968 2",")... (","1006 99267","262 143","642 1000","8090 2400","578 7710","41212029 90","41212029 91","41212029 89","41212029 92",")! +",")! }=\\","214 48","218 6","226 80","312 50","314 16","319 25","3125 18","424 65000","435 93000","467 94000","467 12413","518 3","565 78","665 28","708 12","798 33600","816 26","816 48","925 14","925 76000","947 6","GT G","JK DA","MJ IK","NQ P","Ġ~( *)","^{+ }}\\",")\\! }^","}}: {","}}},\\ ,(","Ġ148 40","Ġ148 48","Ġ148 46","2034 9","2039 187","1017 93","}+.. +\\","}+.. .\\","}+.. ..+{","157 75497","259 42","2592 100","2592 1000","194 265","1945 91","1945 92","4068 289","4068 288","Ġtr Ãªn","\\!=\\ !\\","399 1680","abcd e","567 82","443 16000","470 400","APR QCD","29064 2000","29064 0000","29064 4000","410 56","437 4","613 8","717 815000","737 28","738 5","797 161","797 60000","813 8589","818 48","818 68","864 00","856 88","914 10","933 33240","980 1","AS Ã¢","AOO Ã¢","CG D","EBC FAD","KH AD","SMNP D","ldo t","ldo tp","áº £ng","Ġ225 280","Ġ230 40","Ġ230 38","}}}. }","2098 960","2098 961","1020 604","1275 0000","1554 6","1595 280","1325 8","1360 80","1417 13091","ACG S","ABCMN CÃ¢","2425 72","2425 46","3020 88933","3215 56228","MNEF PQ","10086 1000","10086 1016","408 242","4062 21","4062 240","ĠSNN N","Ġng hÃ¡","Ġng uy","3449 64","3449 63","}}+... +\\","ĠhÃ Ĩ","ĠhÃ ¬nh","147278 480","147278 481","147347 190","147347 191","1551175 20","1551175 19","Ġkho Ã¡Âº","Ġkho áº£ng","Ġ395054 75","Ġ395054 76","Ġ33935 125","Ġ33935 120","1454226 75","1454226 76","'~ :~\\","010 59203","2150 600","2265 3924","335 232000","3190 4000","3164 20","438 33000","442 176","41600 000","4137 20","46666 620","557 86","595 000","51512 14","690 952","710 32869","719 60","740 88","748 13000","799 56782","829 440","845 10","866 61161","944 44200","9269 0000",";... ;","<... <","COG B","EI Q","Gi Ã¡Âº","GAB A","Me c","MHK E","OHC K","ale ph","cÃ ħ","frow n","ju n","ps i","sime q","ĠâĢ ĵ","Ġ}}. {{","ĠÄĳ á»ĵng","mathfra k","Ġ215 29","}}}< {{","}}}}{{ .","Ġ115 20","Ġ196 6080","204034 000","20412 10","20403 2000","Ġ327 68","Ġ368 64","Ġ394 24","1048 575","1056 6000","1077 91","1095 84","20149 82","}-... -\\","Ġmá» Ļt","1628 3241","16119 55","16142 1000","16267 104","1594 322","1345 899","1389 48873","1424 92514","1408 722","1445 332","14250 6","14350 6","14199 43","Ġ6220 80","1844 26","1867 92","1866 24","17100 72","2750 7768","ABCIK C","2432 38","2435 600","3097 18","30960 4","3235 82","3637 960","3667 290","36288 000","SBMD N","Ġ947 20","Ġ9830 40","}_+^* \\","4080 400","4066 272","4070 306","2657 20","2347 600","2399 1000","5095 45","Ġtá» ©c","352623 000","45672 181","3422 27000","34400 000","342187 000","6490 123","6426815 8","3375 0000","7568 39","6539 3000","6577 20","65318 40","39840 2","37332 960","31139 2503","80486 000","3888 150","38304 75","42187 000","Ġ1595 280","44163 000","richt er","47900 1600","471688 328","68575 5000","5000000 00","BCDNM K","74207 281","7076 45000","7889 0012","786858 00","879056 73","1031635 00","Ġbiáº ¿n","290646 000","667735 000","2239977 60","Ġsá» ĳ","Ġnguy ÃĥÂªn"]}}