{
  "version": "1.0",
  "truncation": null,
  "padding": null,
  "added_tokens": [
    {
      "id": 0,
      "content": "[PAD]",
      "single_word": false,
      "lstrip": false,
      "rstrip": false,
      "normalized": false,
      "special": true
    },
    {
      "id": 1,
      "content": "[BOS]",
      "single_word": false,
      "lstrip": false,
      "rstrip": false,
      "normalized": false,
      "special": true
    },
    {
      "id": 2,
      "content": "[EOS]",
      "single_word": false,
      "lstrip": false,
      "rstrip": false,
      "normalized": false,
      "special": true
    }
  ],
  "normalizer": null,
  "pre_tokenizer": {
    "type": "ByteLevel",
    "add_prefix_space": false,
    "trim_offsets": true,
    "use_regex": true
  },
  "post_processor": null,
  "decoder": null,
  "model": {
    "type": "BPE",
    "dropout": null,
    "unk_token": null,
    "continuing_subword_prefix": null,
    "end_of_word_suffix": null,
    "fuse_unk": false,
    "vocab": {
      "[PAD]": 0,
      "[BOS]": 1,
      "[EOS]": 2,
      "!": 3,
      "\"": 4,
      "%": 5,
      "&": 6,
      "'": 7,
      "(": 8,
      ")": 9,
      "*": 10,
      "+": 11,
      ",": 12,
      "-": 13,
      ".": 14,
      "/": 15,
      "0": 16,
      "1": 17,
      "2": 18,
      "3": 19,
      "4": 20,
      "5": 21,
      "6": 22,
      "7": 23,
      "8": 24,
      "9": 25,
      ":": 26,
      ";": 27,
      "<": 28,
      "=": 29,
      ">": 30,
      "?": 31,
      "A": 32,
      "B": 33,
      "C": 34,
      "D": 35,
      "E": 36,
      "F": 37,
      "G": 38,
      "H": 39,
      "I": 40,
      "J": 41,
      "K": 42,
      "L": 43,
      "M": 44,
      "N": 45,
      "O": 46,
      "P": 47,
      "Q": 48,
      "R": 49,
      "S": 50,
      "T": 51,
      "U": 52,
      "V": 53,
      "W": 54,
      "X": 55,
      "Y": 56,
      "Z": 57,
      "[": 58,
      "\\": 59,
      "]": 60,
      "^": 61,
      "_": 62,
      "`": 63,
      "a": 64,
      "b": 65,
      "c": 66,
      "d": 67,
      "e": 68,
      "f": 69,
      "g": 70,
      "h": 71,
      "i": 72,
      "j": 73,
      "k": 74,
      "l": 75,
      "m": 76,
      "n": 77,
      "o": 78,
      "p": 79,
      "q": 80,
      "r": 81,
      "s": 82,
      "t": 83,
      "u": 84,
      "v": 85,
      "w": 86,
      "x": 87,
      "y": 88,
      "z": 89,
      "{": 90,
      "|": 91,
      "}": 92,
      "~": 93,
      "£": 94,
      "©": 95,
      "ª": 96,
      "¬": 97,
      "°": 98,
      "³": 99,
      "´": 100,
      "º": 101,
      "»": 102,
      "¿": 103,
      "Â": 104,
      "Ã": 105,
      "Ä": 106,
      "á": 107,
      "â": 108,
      "ĉ": 109,
      "Ċ": 110,
      "Ġ": 111,
      "Ģ": 112,
      "Ĳ": 113,
      "ĳ": 114,
      "ĵ": 115,
      "Ļ": 116,
      "ł": 117,
      "ra": 118,
      "}{": 119,
      "rac": 120,
      "frac": 121,
      "dfrac": 122,
      "Ġ\\": 123,
      "le": 124,
      "ig": 125,
      "=\\": 126,
      "ht": 127,
      "ight": 128,
      "right": 129,
      "ft": 130,
      "in": 131,
      "rt": 132,
      "sq": 133,
      "sqrt": 134,
      "left": 135,
      "{\\": 136,
      "ma": 137,
      "mat": 138,
      "math": 139,
      "Ġ=": 140,
      "lo": 141,
      "rm": 142,
      "}\\": 143,
      "mathrm": 144,
      "^{": 145,
      "Ġx": 146,
      "log": 147,
      "Ġ-": 148,
      "Ġ+": 149,
      "pi": 150,
      "-\\": 151,
      "+\\": 152,
      "Ġ2": 153,
      "_{": 154,
      "la": 155,
      "sp": 156,
      "st": 157,
      "di": 158,
      "yle": 159,
      "yst": 160,
      "layst": 161,
      "splayst": 162,
      "displayst": 163,
      "displaystyle": 164,
      "ve": 165,
      "im": 166,
      ")\\": 167,
      "}}": 168,
      "lim": 169,
      "int": 170,
      "}}{": 171,
      ")^": 172,
      "ts": 173,
      "}=\\": 174,
      ";-": 175,
      "co": 176,
      "its": 177,
      "limits": 178,
      "ove": 179,
      "over": 180,
      "Ġ1": 181,
      "ar": 182,
      "{\\,": 183,
      "ln": 184,
      "ro": 185,
      "20": 186,
      "row": 187,
      "arrow": 188,
      "rightarrow": 189,
      "}=": 190,
      "(\\": 191,
      ")=": 192,
      "Ġ3": 193,
      "overrightarrow": 194,
      "(-": 195,
      "fty": 196,
      "infty": 197,
      "Ġa": 198,
      "Ġ(": 199,
      "10": 200,
      "}+": 201,
      "}^{": 202,
      "=-": 203,
      "se": 204,
      "ca": 205,
      "Ġ0": 206,
      "}^": 207,
      "al": 208,
      "ses": 209,
      "cases": 210,
      "Ġf": 211,
      "\\\\": 212,
      "Ġy": 213,
      "cos": 214,
      "201": 215,
      "}{\\": 216,
      "be": 217,
      "lon": 218,
      "colon": 219,
      "sin": 220,
      "12": 221,
      "do": 222,
      "nd": 223,
      "AB": 224,
      ")=\\": 225,
      "+(": 226,
      "cdo": 227,
      "ne": 228,
      "end": 229,
      "gin": 230,
      "begin": 231,
      "ha": 232,
      "cdot": 233,
      "}{-": 234,
      "};": 235,
      "}-": 236,
      "Ġz": 237,
      "}+\\": 238,
      "Ġb": 239,
      "^{\\": 240,
      "00": 241,
      "Ġ4": 242,
      "Ġm": 243,
      "pha": 244,
      "):": 245,
      "ta": 246,
      "_{\\": 247,
      "16": 248,
      "bb": 249,
      "Ġ{": 250,
      "'(": 251,
      ",\\": 252,
      "15": 253,
      "igne": 254,
      "mathbb": 255,
      "aligne": 256,
      "aligned": 257,
      "(-\\": 258,
      "big": 259,
      "13": 260,
      "alpha": 261,
      "),": 262,
      "\\}": 263,
      "11": 264,
      "25": 265,
      "Ġ5": 266,
      "min": 267,
      "Ġd": 268,
      ";+\\": 269,
      "mx": 270,
      "ab": 271,
      ")+": 272,
      "2018": 273,
      ")^{": 274,
      ";\\": 275,
      "=-\\": 276,
      "ge": 277,
      "]{": 278,
      "leq": 279,
      "Ġ<": 280,
      "}_{": 281,
      "14": 282,
      "}=(": 283,
      "lin": 284,
      "overlin": 285,
      "overline": 286,
      "}}\\": 287,
      "BC": 288,
      "{,": 289,
      "}(": 290,
      "'=\\": 291,
      "tfrac": 292,
      "up": 293,
      "|=": 294,
      "=(": 295,
      "Ġ6": 296,
      "cup": 297,
      "to": 298,
      "Ġ\\\\": 299,
      "ral": 300,
      "2017": 301,
      "18": 302,
      "}.": 303,
      "{,}": 304,
      "AC": 305,
      "|\\": 306,
      "{-": 307,
      "[\\": 308,
      "}-\\": 309,
      "17": 310,
      "27": 311,
      "el": 312,
      "[-": 313,
      "ABC": 314,
      "Del": 315,
      "Delta": 316,
      ")-": 317,
      "max": 318,
      "24": 319,
      "Ġ-\\": 320,
      "Ġc": 321,
      "30": 322,
      "ĠC": 323,
      "'=": 324,
      "21": 325,
      "ci": 326,
      "rc": 327,
      "circ": 328,
      "\\{": 329,
      "]}": 330,
      "SA": 331,
      "vec": 332,
      "^\\": 333,
      "ex": 334,
      "{{": 335,
      "})": 336,
      "};\\": 337,
      ")}": 338,
      "Ġ+\\": 339,
      "ĠR": 340,
      "32": 341,
      "19": 342,
      "MN": 343,
      "id": 344,
      "eha": 345,
      "wid": 346,
      "ehat": 347,
      "widehat": 348,
      ").": 349,
      "Ġ>": 350,
      "Ġ=\\": 351,
      "set": 352,
      "},": 353,
      "ax": 354,
      "}^{\\": 355,
      "ĠB": 356,
      "er": 357,
      "tan": 358,
      "36": 359,
      ":\\": 360,
      "fo": 361,
      "rall": 362,
      "forall": 363,
      "AD": 364,
      "}&": 365,
      "Ġ;": 366,
      ".\\": 367,
      "|+": 368,
      "SB": 369,
      "Ġ&": 370,
      "Ġ|": 371,
      "Ġ7": 372,
      "vert": 373,
      "100": 374,
      "000": 375,
      "{(": 376,
      "|=\\": 377,
      "Ġ9": 378,
      "SC": 379,
      "}_": 380,
      "ac": 381,
      "60": 382,
      "40": 383,
      "2019": 384,
      ")(": 385,
      "<\\": 386,
      "cm": 387,
      "Ġ)": 388,
      "26": 389,
      "geq": 390,
      "xy": 391,
      "\\{\\": 392,
      "em": 393,
      "23": 394,
      "nto": 395,
      "ru": 396,
      "phanto": 397,
      "rule": 398,
      "phantom": 399,
      "Ġu": 400,
      "Ġ{\\": 401,
      "}{(": 402,
      "Ġ20": 403,
      "per": 404,
      "perp": 405,
      "beta": 406,
      "]\\": 407,
      "neq": 408,
      "..": 409,
      ")}{": 410,
      ")=-": 411,
      "xq": 412,
      "50": 413,
      "08": 414,
      "aral": 415,
      "paral": 416,
      "lel": 417,
      "parallel": 418,
      "pm": 419,
      ")>": 420,
      "},\\": 421,
      "29": 422,
      "Ġ(\\": 423,
      "Ġt": 424,
      "ĠS": 425,
      "_{-": 426,
      ",\\,": 427,
      "35": 428,
      "Ġ10": 429,
      "Ġ[": 430,
      "}=(-": 431,
      "Ġn": 432,
      "Ġ}": 433,
      "28": 434,
      "Ġ8": 435,
      "45": 436,
      "us": 437,
      "minus": 438,
      "setminus": 439,
      "ABCD": 440,
      "34": 441,
      "'\\": 442,
      "\\\\&": 443,
      "Ġ(-": 444,
      ")^{\\": 445,
      "^{-": 446,
      "}=-": 447,
      "22": 448,
      "48": 449,
      "_{[": 450,
      "Ġg": 451,
      "Ġ}{": 452,
      "Ġ_": 453,
      "}}+": 454,
      "81": 455,
      "64": 456,
      "MB": 457,
      "bx": 458,
      "33": 459,
      "}}{\\": 460,
      "2020": 461,
      "brac": 462,
      "brace": 463,
      ")}^{": 464,
      ")=-\\": 465,
      "ime": 466,
      "}<": 467,
      "cot": 468,
      ")<": 469,
      "Big": 470,
      "Ġ12": 471,
      "MA": 472,
      "Ġe": 473,
      "2016": 474,
      "-(": 475,
      "Ġi": 476,
      "};+\\": 477,
      ">\\": 478,
      "tex": 479,
      "text": 480,
      "ĠA": 481,
      "}^{-": 482,
      "hi": 483,
      "Ġr": 484,
      "49": 485,
      "CD": 486,
      "ga": 487,
      "bar": 488,
      "Le": 489,
      "ftrightarrow": 490,
      "Leftrightarrow": 491,
      "\\,": 492,
      "pr": 493,
      "prime": 494,
      "Ġk": 495,
      ")=(": 496,
      "=|": 497,
      "75": 498,
      "90": 499,
      "phi": 500,
      ")+\\": 501,
      "Ġ\\,": 502,
      ";-\\": 503,
      "|^": 504,
      "cap": 505,
      "\\%": 506,
      "tp": 507,
      "}}(": 508,
      "var": 509,
      "varphi": 510,
      "}.\\": 511,
      "''": 512,
      ")}^": 513,
      "}}=": 514,
      "Ġ&=": 515,
      "125": 516,
      "ray": 517,
      "array": 518,
      "&=": 519,
      "Ġ\\{": 520,
      "65": 521,
      "AA": 522,
      "\\!": 523,
      "39": 524,
      "37": 525,
      "Ġ{\\,": 526,
      "_{[-": 527,
      "{{\\": 528,
      "OA": 529,
      "}}}": 530,
      "bigg": 531,
      "...": 532,
      "({": 533,
      "31": 534,
      "<-": 535,
      "Ġh": 536,
      "54": 537,
      "Ġ}_{": 538,
      "MC": 539,
      "120": 540,
      "BD": 541,
      "ĠBC": 542,
      "80": 543,
      "dx": 544,
      "\\{-": 545,
      "};-\\": 546,
      ")^{-": 547,
      "]^": 548,
      "op": 549,
      "=\\{": 550,
      "mathop": 551,
      "72": 552,
      "}}=\\": 553,
      "}+(": 554,
      "ĠO": 555,
      "}}-": 556,
      "bo": 557,
      "=(-\\": 558,
      "ega": 559,
      "mega": 560,
      ",~": 561,
      "bc": 562,
      "ĠN": 563,
      "Ġ16": 564,
      "Ġ^": 565,
      "Ġ(-\\": 566,
      "Ġ_{": 567,
      "bac": 568,
      "ks": 569,
      "sh": 570,
      "lash": 571,
      "backs": 572,
      "backslash": 573,
      "cdots": 574,
      "Ġcm": 575,
      "|+|": 576,
      "und": 577,
      "erset": 578,
      "underset": 579,
      "lbrace": 580,
      "')": 581,
      "ad": 582,
      "41": 583,
      "AM": 584,
      "',": 585,
      "Ġ}\\": 586,
      "Ġ{{": 587,
      "38": 588,
      "ĠM": 589,
      "]{\\": 590,
      "96": 591,
      "=(-": 592,
      "MNP": 593,
      "qu": 594,
      "abc": 595,
      "\\!\\!": 596,
      "''(": 597,
      "OM": 598,
      "'}": 599,
      "Ġ2018": 600,
      "|-": 601,
      "ĠD": 602,
      "2021": 603,
      "42": 604,
      "ap": 605,
      "pro": 606,
      "appro": 607,
      "approx": 608,
      "mbo": 609,
      "ĠAC": 610,
      "mathca": 611,
      "Ġ=-": 612,
      "200": 613,
      "mathcal": 614,
      ");": 615,
      "Ġ\\\\&": 616,
      "56": 617,
      "mbox": 618,
      "EF": 619,
      "bi": 620,
      "cx": 621,
      "textrm": 622,
      "ĠP": 623,
      "rbrace": 624,
      "OB": 625,
      "Ġ;-": 626,
      "Ġ15": 627,
      "|=|": 628,
      "44": 629,
      "61": 630,
      "iz": 631,
      ")-\\": 632,
      "quad": 633,
      "52": 634,
      "53": 635,
      "ri": 636,
      "}}}{": 637,
      ",(": 638,
      "43": 639,
      "47": 640,
      "68": 641,
      "ng": 642,
      "spac": 643,
      ";\\,": 644,
      "space": 645,
      ")}\\": 646,
      ",\\\\": 647,
      "99": 648,
      "SAB": 649,
      "SD": 650,
      "omega": 651,
      "}(\\": 652,
      "|+\\": 653,
      "âĢ": 654,
      ")}{\\": 655,
      "ĠAB": 656,
      "Ġmx": 657,
      "):\\": 658,
      "âĢĻ": 659,
      "51": 660,
      "),\\": 661,
      "={": 662,
      "+...": 663,
      "dots": 664,
      "500": 665,
      "ĠAD": 666,
      "1009": 667,
      "Ġ2017": 668,
      "'(-": 669,
      "Ġax": 670,
      "))": 671,
      "Ġ.": 672,
      "'}{": 673,
      "63": 674,
      "^{-\\": 675,
      "_{(": 676,
      "57": 677,
      "Ġ[-": 678,
      "67": 679,
      "BB": 680,
      "OC": 681,
      "[-\\": 682,
      "|_": 683,
      "85": 684,
      "ĠV": 685,
      ")|": 686,
      "SBC": 687,
      "ĠI": 688,
      "55": 689,
      "SN": 690,
      "ldots": 691,
      "),(": 692,
      "'.": 693,
      "ang": 694,
      "}>": 695,
      "angle": 696,
      ")}=": 697,
      "62": 698,
      "^{(": 699,
      "108": 700,
      "'+": 701,
      "'=-\\": 702,
      "73": 703,
      "=[": 704,
      "_\\": 705,
      "xf": 706,
      "ĠĠ": 707,
      "ĠSB": 708,
      "Ġ\\}": 709,
      "1000": 710,
      "Ġ000": 711,
      "Ġ+(": 712,
      "}=-\\": 713,
      "66": 714,
      "77": 715,
      "}+{": 716,
      "={\\": 717,
      "].": 718,
      "tri": 719,
      "};-": 720,
      "triangle": 721,
      "]}{\\": 722,
      "})^": 723,
      "Ġ\\;": 724,
      "}\\\\": 725,
      "&=-": 726,
      ")]^": 727,
      "ĠF": 728,
      "}}.": 729,
      "):(": 730,
      "BCD": 731,
      "}|": 732,
      "(|": 733,
      "74": 734,
      "CT": 735,
      "}'": 736,
      "Ġ^{": 737,
      "SAC": 738,
      "Ġ,": 739,
      ">-": 740,
      "Ox": 741,
      "\\,\\": 742,
      "^+": 743,
      "su": 744,
      "Ġ\\{-": 745,
      "128": 746,
      "{{{": 747,
      "gam": 748,
      "97": 749,
      "CA": 750,
      "})\\": 751,
      "}}+\\": 752,
      "}};\\": 753,
      ")]": 754,
      "98": 755,
      "BAC": 756,
      "CC": 757,
      "IJ": 758,
      "NN": 759,
      "SM": 760,
      "Ġ13": 761,
      "ĠCD": 762,
      "360": 763,
      "gamma": 764,
      "){\\": 765,
      "95": 766,
      "MD": 767,
      "Ġv": 768,
      "}{{": 769,
      "}}{{": 770,
      "144": 771,
      "+...+": 772,
      "'}=\\": 773,
      "70": 774,
      "SO": 775,
      "ay": 776,
      "ĠSC": 777,
      "Ġ\\%": 778,
      "Ġ=-\\": 779,
      "!}": 780,
      "Oy": 781,
      "Omega": 782,
      "ĠSA": 783,
      "'=-": 784,
      "58": 785,
      "600": 786,
      "by": 787,
      "bset": 788,
      "|}": 789,
      "Ġ25": 790,
      "150": 791,
      ")^{-\\": 792,
      "subset": 793,
      "'-": 794,
      "46": 795,
      "76": 796,
      "82": 797,
      "Ġ11": 798,
      "250": 799,
      "SCD": 800,
      "216": 801,
      "400": 802,
      "DC": 803,
      "ba": 804,
      "Ġ)\\": 805,
      "}}^": 806,
      "'=(": 807,
      "01": 808,
      "91": 809,
      "Bh": 810,
      "\\;": 811,
      "=\\{-": 812,
      "Ġ14": 813,
      "78": 814,
      "^-": 815,
      "{)}^{": 816,
      "Ġ]": 817,
      "}}-\\": 818,
      "SAD": 819,
      "),\\,": 820,
      "Oxy": 821,
      "|.": 822,
      "}(-": 823,
      "{\\;": 824,
      "}\\}": 825,
      "))=": 826,
      "AH": 827,
      "ast": 828,
      "Ġ:": 829,
      "}\\,": 830,
      "Ġab": 831,
      ")+(": 832,
      "BA": 833,
      "NC": 834,
      "{|": 835,
      "Ġ;+\\": 836,
      "88": 837,
      "II": 838,
      "no": 839,
      ",\\,\\": 840,
      "ĠBD": 841,
      "Ġ2019": 842,
      "not": 843,
      ".}": 844,
      "300": 845,
      "59": 846,
      "AN": 847,
      "ASB": 848,
      "}<\\": 849,
      "ĠT": 850,
      "Ġ}}": 851,
      ")\\,": 852,
      "256": 853,
      "{,}\\": 854,
      "ACD": 855,
      "SBD": 856,
      "={{": 857,
      "}>\\": 858,
      "Ġ_{\\": 859,
      "}{{\\": 860,
      "Ġ24": 861,
      "Ġ100": 862,
      "}^*": 863,
      "Ġ45": 864,
      ")>\\": 865,
      "^+}": 866,
      ")<\\": 867,
      "625": 868,
      "OO": 869,
      "{-\\": 870,
      "Ġ|\\": 871,
      "Ġ18": 872,
      "2000": 873,
      "}-(": 874,
      "Ġbx": 875,
      "Ġ60": 876,
      "'\\\\": 877,
      ")}=\\": 878,
      "+{(": 879,
      "SH": 880,
      "cz": 881,
      "Ġw": 882,
      "Ġ)^": 883,
      "ĠABC": 884,
      "}{|": 885,
      "105": 886,
      "bigl": 887,
      "bigr": 888,
      "180": 889,
      "bot": 890,
      "BM": 891,
      "BAD": 892,
      "CB": 893,
      "Ġxf": 894,
      "Ġ27": 895,
      "ACB": 896,
      "MNPQ": 897,
      "!}{": 898,
      "'}=": 899,
      ";+": 900,
      "<-\\": 901,
      "ON": 902,
      "SS": 903,
      "mz": 904,
      "yi": 905,
      "|(": 906,
      "2015": 907,
      "ABD": 908,
      "ell": 909,
      ")|\\": 910,
      "+{\\": 911,
      "69": 912,
      "84": 913,
      "87": 914,
      "BN": 915,
      "Bbb": 916,
      "NM": 917,
      "|{": 918,
      "}}^{\\": 919,
      "0000": 920,
      "160": 921,
      "ĠSD": 922,
      "\\!\\!\\!\\!": 923,
      "))=\\": 924,
      "DA": 925,
      "^*": 926,
      "my": 927,
      "|-\\": 928,
      "ĠK": 929,
      "Ġ=(": 930,
      "101": 931,
      ")}(": 932,
      "+|": 933,
      "83": 934,
      "86": 935,
      "800": 936,
      "93": 937,
      "nx": 938,
      "{.}": 939,
      "~(": 940,
      "~\\": 941,
      "ĠQ": 942,
      "Ġl": 943,
      "Ġq": 944,
      "Ġ}=\\": 945,
      "matri": 946,
      ")=+\\": 947,
      "Ġ40": 948,
      ").\\": 949,
      "matrix": 950,
      ")'=": 951,
      "71": 952,
      "IA": 953,
      "az": 954,
      "time": 955,
      "|<": 956,
      "|_{\\": 957,
      "_{}": 958,
      ")=|": 959,
      "Ġdx": 960,
      "}}+{{": 961,
      "}'{": 962,
      "times": 963,
      "&\\!\\!\\!\\!": 964,
      "({\\": 965,
      ")]\\": 966,
      ",-": 967,
      "225": 968,
      "94": 969,
      "HK": 970,
      ")\\\\": 971,
      "}}}\\": 972,
      "}+{\\": 973,
      "\\\\\\": 974,
      "119": 975,
      "ĠRh": 976,
      "ĠAA": 977,
      "Ġrl": 978,
      ")(\\": 979,
      ">-\\": 980,
      "AMN": 981,
      "SI": 982,
      "Sh": 983,
      "dm": 984,
      "{[": 985,
      "|}{": 986,
      "Ġ)=": 987,
      "Ġ\\\\\\": 988,
      "Ġ\\,\\": 989,
      "Ġ32": 990,
      "Ġ36": 991,
      "4036": 992,
      "=(\\": 993,
      "ND": 994,
      "[(": 995,
      "dy": 996,
      "uv": 997,
      "overset": 998,
      "Ġ{-": 999,
      ",\\;": 1000,
      "BCC": 1001,
      "\\%/": 1002,
      "^-}": 1003,
      ")?": 1004,
      ".{": 1005,
      "512": 1006,
      "89": 1007,
      "92": 1008,
      "AG": 1009,
      "CN": 1010,
      "Oz": 1011,
      "PQ": 1012,
      "}},": 1013,
      ")^\\": 1014,
      ")-(": 1015,
      "240": 1016,
      "'''": 1017,
      ")}+": 1018,
      "112": 1019,
      "AE": 1020,
      "AK": 1021,
      "CM": 1022,
      "NB": 1023,
      "NS": 1024,
      "bz": 1025,
      "mn": 1026,
      "}/": 1027,
      "})^{": 1028,
      "}}>": 1029,
      "}}}{\\": 1030,
      "}+...": 1031,
      "135": 1032,
      "Ġ64": 1033,
      "1008": 1034,
      "Ġ90": 1035,
      "Ġ2020": 1036,
      "';": 1037,
      "))^": 1038,
      "05": 1039,
      "110": 1040,
      "115": 1041,
      "79": 1042,
      "=[-": 1043,
      "BSC": 1044,
      "KD": 1045,
      "],": 1046,
      "]=": 1047,
      "ĠABCD": 1048,
      "Ġ...": 1049,
      "Ġ35": 1050,
      "):\\,": 1051,
      "140": 1052,
      "})}{": 1053,
      "biggr": 1054,
      "ĠOB": 1055,
      "ĠOy": 1056,
      "}\\\\&": 1057,
      ")}}": 1058,
      ")'=\\": 1059,
      ")!}": 1060,
      "AI": 1061,
      "AP": 1062,
      "CP": 1063,
      "OAB": 1064,
      "pt": 1065,
      "|>": 1066,
      "})=": 1067,
      "}_{\\": 1068,
      "Ġ}^": 1069,
      "Ġ}{\\": 1070,
      "Ġ)^{": 1071,
      "Ġ;\\": 1072,
      "_{_": 1073,
      "arc": 1074,
      "104": 1075,
      "243": 1076,
      "xyz": 1077,
      "Ġ\\,(": 1078,
      "DB": 1079,
      "Right": 1080,
      "}|=": 1081,
      "Ġ\\{\\": 1082,
      "Ġ21": 1083,
      ")={\\": 1084,
      "Ġ30": 1085,
      "103": 1086,
      "169": 1087,
      "130": 1088,
      "]{(": 1089,
      "Ġ}_{\\": 1090,
      "Rightarrow": 1091,
      "':\\": 1092,
      ")|=": 1093,
      "CSA": 1094,
      "MP": 1095,
      "OI": 1096,
      "]^{": 1097,
      "af": 1098,
      "at": 1099,
      "cb": 1100,
      "khi": 1101,
      "ll": 1102,
      "|^{": 1103,
      "}]": 1104,
      "ĠE": 1105,
      "ĠG": 1106,
      "ĠJ": 1107,
      "Ġ}}\\": 1108,
      "=\\{(": 1109,
      "^{|": 1110,
      "Ġ+{(": 1111,
      "vee": 1112,
      ")\\,\\": 1113,
      "}}<": 1114,
      "}}{(": 1115,
      "102": 1116,
      "107": 1117,
      "109": 1118,
      "121": 1119,
      "}-{": 1120,
      ",\\!": 1121,
      "|=|\\": 1122,
      "192": 1123,
      "343": 1124,
      "480": 1125,
      "biggl": 1126,
      "Oxz": 1127,
      "IJK": 1128,
      "}/\\": 1129,
      "!}{(": 1130,
      ")}^{\\": 1131,
      ",+\\": 1132,
      ",(\\": 1133,
      "-{": 1134,
      ".(": 1135,
      "07": 1136,
      "220": 1137,
      "324": 1138,
      "={{\\": 1139,
      "IC": 1140,
      "bd": 1141,
      "equ": 1142,
      "iv": 1143,
      "km": 1144,
      "ĠMN": 1145,
      "Ġ:\\": 1146,
      "^{^{\\": 1147,
      "}}^{": 1148,
      "Ġ17": 1149,
      "208": 1150,
      "1010": 1151,
      "1024": 1152,
      "124": 1153,
      "):-": 1154,
      "Ġ{-\\": 1155,
      "136": 1156,
      "\\}.": 1157,
      "Ġ54": 1158,
      "Ġdm": 1159,
      "Ġ<-": 1160,
      "145": 1161,
      "\\{-\\": 1162,
      "Ġ>\\": 1163,
      "Oyz": 1164,
      "equiv": 1165,
      "'>": 1166,
      "'}\\": 1167,
      "''=": 1168,
      "){": 1169,
      "06": 1170,
      "DD": 1171,
      "SABC": 1172,
      "\\;\\": 1173,
      "``": 1174,
      "bf": 1175,
      "lg": 1176,
      "|}{\\": 1177,
      "}[": 1178,
      "_{-\\": 1179,
      "2022": 1180,
      "106": 1181,
      "}^\\": 1182,
      "123": 1183,
      "Ġbi": 1184,
      "147": 1185,
      "2400": 1186,
      "304": 1187,
      "}&(": 1188,
      "4034": 1189,
      "265": 1190,
      "289": 1191,
      "}}+{{\\": 1192,
      "Bigg": 1193,
      "'''(": 1194,
      "âĢĻ(": 1195,
      "Ġ\\;{\\": 1196,
      "Oxyz": 1197,
      "^*}": 1198,
      "'<": 1199,
      "'}}{": 1200,
      "'(\\": 1201,
      "02": 1202,
      "4000": 1203,
      "5000": 1204,
      "ASC": 1205,
      "BH": 1206,
      "GG": 1207,
      "IB": 1208,
      "dge": 1209,
      "edge": 1210,
      "mp": 1211,
      "mt": 1212,
      "wedge": 1213,
      "|}^": 1214,
      "|<\\": 1215,
      "Ġo": 1216,
      "Ġ\\,\\,": 1217,
      "}}}}": 1218,
      "Ġ120": 1219,
      "}^{{": 1220,
      "126": 1221,
      "127": 1222,
      "162": 1223,
      "153": 1224,
      "133": 1225,
      "),~": 1226,
      "ACC": 1227,
      "ĠRl": 1228,
      "190": 1229,
      "SCA": 1230,
      "},\\,": 1231,
      "ĠSAB": 1232,
      "280": 1233,
      "288": 1234,
      "Ġrh": 1235,
      "\\,(": 1236,
      "|-|": 1237,
      ")]=": 1238,
      "}+...+\\": 1239,
      "''\\": 1240,
      ");\\,": 1241,
      "-|": 1242,
      "215": 1243,
      "320": 1244,
      "350": 1245,
      "375": 1246,
      "725": 1247,
      "=&": 1248,
      "=&\\!\\!\\!\\!": 1249,
      "AOB": 1250,
      "HB": 1251,
      "IM": 1252,
      "MK": 1253,
      "OMN": 1254,
      "SP": 1255,
      "{[-": 1256,
      "|)": 1257,
      "Ġ~": 1258,
      "ĠMC": 1259,
      "207": 1260,
      "Ġad": 1261,
      "2014": 1262,
      "164": 1263,
      "165": 1264,
      "168": 1265,
      "156": 1266,
      "117": 1267,
      "Ġ50": 1268,
      "Ġcx": 1269,
      "\\{{": 1270,
      "SBA": 1271,
      "Ġ2016": 1272,
      "ĠOC": 1273,
      "ĠOx": 1274,
      "+...+\\": 1275,
      "&\\!\\!\\!\\!=&\\!\\!\\!\\!": 1276,
      "'}+\\": 1277,
      ")}}{": 1278,
      ")}-": 1279,
      "+}": 1280,
      "210": 1281,
      "211": 1282,
      "315": 1283,
      "449": 1284,
      "545": 1285,
      "900": 1286,
      "AMB": 1287,
      "AEF": 1288,
      "DN": 1289,
      "HA": 1290,
      "IH": 1291,
      "MI": 1292,
      "aa": 1293,
      "{(\\": 1294,
      "||": 1295,
      "|_{": 1296,
      "})=\\": 1297,
      "}:\\": 1298,
      "}|=\\": 1299,
      "Ġ}^{": 1300,
      "Ġ):": 1301,
      "Ġ^\\": 1302,
      "=\\{\\": 1303,
      "Ġ26": 1304,
      "_{_{": 1305,
      "ABB": 1306,
      ";\\;": 1307,
      "170": 1308,
      "176": 1309,
      "270": 1310,
      "272": 1311,
      "242": 1312,
      "245": 1313,
      "Ġ=\\{": 1314,
      "4035": 1315,
      "238": 1316,
      "290": 1317,
      "354": 1318,
      "Ġkf": 1319,
      "''+": 1320,
      "'))": 1321,
      "+...+(": 1322,
      "&=\\": 1323,
      ")}+\\": 1324,
      ")}{(": 1325,
      "-{\\": 1326,
      "325": 1327,
      "450": 1328,
      "624": 1329,
      "840": 1330,
      "AO": 1331,
      "CEF": 1332,
      "HD": 1333,
      "IV": 1334,
      "MG": 1335,
      "MQ": 1336,
      "NP": 1337,
      "PN": 1338,
      "\\}\\": 1339,
      "bt": 1340,
      "cd": 1341,
      "}'=\\": 1342,
      "Ãł": 1343,
      "Ġj": 1344,
      "Ġ)=\\": 1345,
      "ĠMB": 1346,
      "}{{{": 1347,
      "}\\,\\": 1348,
      "_{(-": 1349,
      "}={": 1350,
      ")={": 1351,
      "=-{": 1352,
      "1600": 1353,
      "Ġ{{\\": 1354,
      "137": 1355,
      "114": 1356,
      "252": 1357,
      "253": 1358,
      "278": 1359,
      "}).": 1360,
      "};\\,": 1361,
      "199": 1362,
      "MNC": 1363,
      "ADC": 1364,
      "Ġ|^": 1365,
      "4038": 1366,
      "\\\\&(": 1367,
      "({-\\": 1368,
      "ĠON": 1369,
      "ĠOz": 1370,
      "),\\;": 1371,
      "576": 1372,
      "III": 1373,
      "\"(": 1374,
      "({-": 1375,
      ")}.": 1376,
      "+{": 1377,
      "03": 1378,
      "04": 1379,
      "212": 1380,
      "412": 1381,
      "729": 1382,
      "70000": 1383,
      "960": 1384,
      "=+\\": 1385,
      "=|\\": 1386,
      "GH": 1387,
      "GM": 1388,
      "HC": 1389,
      "MH": 1390,
      "Max": 1391,
      "YZ": 1392,
      "xe": 1393,
      "{}^\\": 1394,
      "|)=": 1395,
      "ĠZ": 1396,
      "Ġp": 1397,
      "Ġ)}": 1398,
      "Ġ.\\": 1399,
      "}{(\\": 1400,
      "}\\!": 1401,
      "}\\,(": 1402,
      "Ġxy": 1403,
      ")\\;": 1404,
      "}};": 1405,
      "}}>\\": 1406,
      "Ġ19": 1407,
      "205": 1408,
      "2010": 1409,
      "122": 1410,
      "ABM": 1411,
      "161": 1412,
      "),(\\": 1413,
      "118": 1414,
      "Ġ<\\": 1415,
      "143": 1416,
      "185": 1417,
      "ĠCA": 1418,
      "SBN": 1419,
      "Ġ&-": 1420,
      "Ġ&\\": 1421,
      "234": 1422,
      "ĠSBC": 1423,
      "486": 1424,
      "}<|": 1425,
      ")<{": 1426,
      "CDD": 1427,
      "2009": 1428,
      ");(": 1429,
      ";\\,-": 1430,
      ")}\\,": 1431,
      "})\\\\": 1432,
      "notin": 1433,
      ")\\\\&": 1434,
      "arcsin": 1435,
      "Ġ}}\\,": 1436,
      "!\\": 1437,
      "'^": 1438,
      "')^": 1439,
      ")'": 1440,
      ")}}\\": 1441,
      "*)": 1442,
      ",}\\": 1443,
      "113": 1444,
      "217": 1445,
      "521": 1446,
      "620": 1447,
      "645": 1448,
      "648": 1449,
      "672": 1450,
      "750": 1451,
      ";(": 1452,
      "={(": 1453,
      "AMNP": 1454,
      "BF": 1455,
      "BEF": 1456,
      "CE": 1457,
      "DE": 1458,
      "FE": 1459,
      "FG": 1460,
      "IK": 1461,
      "KL": 1462,
      "MM": 1463,
      "NA": 1464,
      "OD": 1465,
      "OP": 1466,
      "PA": 1467,
      "SE": 1468,
      "SK": 1469,
      "ah": 1470,
      "mi": 1471,
      "yset": 1472,
      "|}+": 1473,
      "}?": 1474,
      "})-": 1475,
      "Ġ~\\": 1476,
      "Ġ={\\": 1477,
      "Ġ28": 1478,
      "}}}+": 1479,
      "}}=-": 1480,
      "}}{-": 1481,
      "2025": 1482,
      "}=(-\\": 1483,
      ")=(-": 1484,
      "Ġ((": 1485,
      "ABN": 1486,
      "005": 1487,
      "00000": 1488,
      "Ġ400": 1489,
      "Ġ{(": 1490,
      "Ġ500": 1491,
      "]{{": 1492,
      "141": 1493,
      "148": 1494,
      "BCNM": 1495,
      "184": 1496,
      "187": 1497,
      "188": 1498,
      "171": 1499,
      "175": 1500,
      "177": 1501,
      "275": 1502,
      "ĠBh": 1503,
      "405": 1504,
      "empt": 1505,
      "503": 1506,
      "504": 1507,
      "ĠSS": 1508,
      ",\\,(": 1509,
      "Ġiz": 1510,
      "textbf": 1511,
      "Ġkm": 1512,
      "''(\\": 1513,
      "\\!,": 1514,
      "1200": 1515,
      "âĢĻ=": 1516,
      "0115": 1517,
      "AHK": 1518,
      "emptyset": 1519,
      "!.": 1520,
      "':": 1521,
      "'+\\": 1522,
      "))\\": 1523,
      ")!}{": 1524,
      "032": 1525,
      "230": 1526,
      "260": 1527,
      "336": 1528,
      "345": 1529,
      "430": 1530,
      "440": 1531,
      "590": 1532,
      "720": 1533,
      "=~": 1534,
      "BK": 1535,
      "BMD": 1536,
      "CAB": 1537,
      "ED": 1538,
      "Im": 1539,
      "IAB": 1540,
      "OF": 1541,
      "OH": 1542,
      "PD": 1543,
      "[{": 1544,
      "\\}}": 1545,
      "]}=": 1546,
      "ai": 1547,
      "dB": 1548,
      "mid": 1549,
      "tin": 1550,
      "xa": 1551,
      "xOy": 1552,
      "|,": 1553,
      "|.\\": 1554,
      "}'(": 1555,
      "})+": 1556,
      "ĠH": 1557,
      "Ġ}}{": 1558,
      "Ġ)+": 1559,
      "Ġ|=": 1560,
      "Ġ]\\": 1561,
      "}\\;\\": 1562,
      "Ġ-(": 1563,
      "Ġ22": 1564,
      "Ġ23": 1565,
      "Ġ200": 1566,
      "Ġ281": 1567,
      "_{(-\\": 1568,
      ")\\}": 1569,
      "}})": 1570,
      "}}}=": 1571,
      "}}<\\": 1572,
      "2048": 1573,
      "Ġ34": 1574,
      "}^{-\\": 1575,
      "129": 1576,
      "004": 1577,
      "Ġ48": 1578,
      "163": 1579,
      "152": 1580,
      "154": 1581,
      "155": 1582,
      "132": 1583,
      "111": 1584,
      ";\\,\\": 1585,
      "}_{(": 1586,
      "}_{(\\": 1587,
      "BCA": 1588,
      "}.{": 1589,
      "ACM": 1590,
      "246": 1591,
      "Ġcz": 1592,
      "{{{\\": 1593,
      "196": 1594,
      "MNQ": 1595,
      "ĠBB": 1596,
      "ĠBN": 1597,
      "ADF": 1598,
      "Ġ|_": 1599,
      "Ġ72": 1600,
      "Ġ2021": 1601,
      "285": 1602,
      "346": 1603,
      "646": 1604,
      "''-": 1605,
      "542": 1606,
      ",~\\": 1607,
      "ĠACD": 1608,
      "ĠPQ": 1609,
      "^+_": 1610,
      "NNNN": 1611,
      "^-_": 1612,
      "tiny": 1613,
      "!(": 1614,
      "&>": 1615,
      "'|": 1616,
      "'}(": 1617,
      ")}=(": 1618,
      ")}-\\": 1619,
      ")|=\\": 1620,
      ")|-": 1621,
      ")~\\": 1622,
      "+{{\\": 1623,
      "116": 1624,
      "232": 1625,
      "313": 1626,
      "330": 1627,
      "332": 1628,
      "420": 1629,
      "432": 1630,
      "529": 1631,
      "675": 1632,
      "667": 1633,
      "700": 1634,
      "726": 1635,
      "768": 1636,
      "815": 1637,
      "928": 1638,
      "<|": 1639,
      "AF": 1640,
      "AMC": 1641,
      "BE": 1642,
      "BG": 1643,
      "BI": 1644,
      "BP": 1645,
      "BMC": 1646,
      "CSB": 1647,
      "DBC": 1648,
      "HE": 1649,
      "KB": 1650,
      "MAB": 1651,
      "MBC": 1652,
      "OS": 1653,
      "OBC": 1654,
      "OABC": 1655,
      "PC": 1656,
      "PM": 1657,
      "QC": 1658,
      "TT": 1659,
      "]=\\": 1660,
      "]}\\": 1661,
      "]=(": 1662,
      "dt": 1663,
      "hB": 1664,
      "kx": 1665,
      "yz": 1666,
      "|{\\": 1667,
      "|}\\": 1668,
      "|=-": 1669,
      "|>\\": 1670,
      "}~(": 1671,
      "~=~": 1672,
      "Ġ'": 1673,
      "Ġ[\\": 1674,
      "Ġ).": 1675,
      "Ġ)=-": 1676,
      "ĠMA": 1677,
      "lor": 1678,
      "^{'}(": 1679,
      "}}}=\\": 1680,
      "}},\\": 1681,
      "}}:\\": 1682,
      "}}.\\": 1683,
      "}}{{\\": 1684,
      "}}{{(": 1685,
      ")^-": 1686,
      "204": 1687,
      "2024": 1688,
      "2035": 1689,
      "}=+\\": 1690,
      "10000": 1691,
      "}^{{{": 1692,
      "=-{{": 1693,
      "Ġbc": 1694,
      "Ġby": 1695,
      "Ġbz": 1696,
      "0065": 1697,
      "1500": 1698,
      "134": 1699,
      "139": 1700,
      "1350": 1701,
      "\\},": 1702,
      "2500": 1703,
      "146": 1704,
      "149": 1705,
      "BCE": 1706,
      "BCMN": 1707,
      "Ġ61": 1708,
      "|\\,": 1709,
      "1725": 1710,
      "248": 1711,
      "2450": 1712,
      "309": 1713,
      "195": 1714,
      "Ġ>-": 1715,
      "},...": 1716,
      "369": 1717,
      "ADD": 1718,
      "Ġ|=\\": 1719,
      "Ġ96": 1720,
      "SCB": 1721,
      "SCMN": 1722,
      "4040": 1723,
      "269": 1724,
      "239": 1725,
      "293": 1726,
      "ĠSSN": 1727,
      "Ġnx": 1728,
      "Ġ81": 1729,
      "455": 1730,
      "ABCDEF": 1731,
      "ĠAN": 1732,
      "CDM": 1733,
      "Ġhr": 1734,
      "ĠNSS": 1735,
      "ĠDN": 1736,
      "}}}{{": 1737,
      ";\\,+\\": 1738,
      "ĠIAB": 1739,
      "ĠĠĠĠ": 1740,
      "sum": 1741,
      "NNS": 1742,
      "ĠvÃł": 1743,
      "^-}\\": 1744,
      ")\\,|\\,": 1745,
      "Ġ1009": 1746,
      "SSS": 1747,
      "^*}\\": 1748,
      "}+...+": 1749,
      "'+(": 1750,
      "(*": 1751,
      "*}": 1752,
      "+(\\": 1753,
      ",}": 1754,
      ",-\\": 1755,
      ",...": 1756,
      "-{{": 1757,
      ".{\\": 1758,
      "..\\": 1759,
      "09": 1760,
      "017": 1761,
      "068": 1762,
      "223": 1763,
      "2278": 1764,
      "311": 1765,
      "3000": 1766,
      "340": 1767,
      "380": 1768,
      "520": 1769,
      "513": 1770,
      "540": 1771,
      "575": 1772,
      "6000": 1773,
      "680": 1774,
      "7000": 1775,
      "844": 1776,
      "975": 1777,
      "937": 1778,
      ";{": 1779,
      "BMN": 1780,
      "DI": 1781,
      "DP": 1782,
      "DQ": 1783,
      "DAB": 1784,
      "EC": 1785,
      "FC": 1786,
      "FH": 1787,
      "GE": 1788,
      "IF": 1789,
      "IO": 1790,
      "IBC": 1791,
      "KI": 1792,
      "MS": 1793,
      "MON": 1794,
      "Nr": 1795,
      "NSN": 1796,
      "OG": 1797,
      "PB": 1798,
      "QB": 1799,
      "Sa": 1800,
      "[{\\": 1801,
      "[]{": 1802,
      "[{-": 1803,
      "]}{": 1804,
      "]}^": 1805,
      "]=(-": 1806,
      "ch": 1807,
      "en": 1808,
      "kh": 1809,
      "mc": 1810,
      "ny": 1811,
      "xF": 1812,
      "xb": 1813,
      "yx": 1814,
      "yy": 1815,
      "zx": 1816,
      "{(-": 1817,
      "|)\\": 1818,
      "}:": 1819,
      "Ġ)^{\\": 1820,
      "}{{{\\": 1821,
      "}}}}{": 1822,
      "}}}^": 1823,
      "}}=(": 1824,
      ")^+}": 1825,
      "Ġ144": 1826,
      "Ġ1250": 1827,
      "2023": 1828,
      "}=[-": 1829,
      "Ġ380": 1830,
      "Ġac": 1831,
      "2012": 1832,
      "2013": 1833,
      "ABI": 1834,
      "};+": 1835,
      "Ġ49": 1836,
      "):{(": 1837,
      "167": 1838,
      "1635": 1839,
      "1512": 1840,
      "bigtriangle": 1841,
      "131": 1842,
      "]{-": 1843,
      "1440": 1844,
      "}}\\\\": 1845,
      "Ġ600": 1846,
      "Ġ6840": 1847,
      "189": 1848,
      "ĠCC": 1849,
      "{{(": 1850,
      "})}^{": 1851,
      "323": 1852,
      "191": 1853,
      ")...\\": 1854,
      ":\\;": 1855,
      "403": 1856,
      "4039": 1857,
      "233": 1858,
      "235": 1859,
      "}{({": 1860,
      ")}{{(": 1861,
      "},\\,\\": 1862,
      "ĠSN": 1863,
      "ĠSh": 1864,
      "ĠSSS": 1865,
      "283": 1866,
      "ABCDMNP": 1867,
      "333": 1868,
      "7500": 1869,
      "90725": 1870,
      "'''\\": 1871,
      "}}={{": 1872,
      "370": 1873,
      "BDA": 1874,
      "BDC": 1875,
      "ĠBCD": 1876,
      "ĠOP": 1877,
      "ĠOMM": 1878,
      "ĠNP": 1879,
      "'))=": 1880,
      "'))=\\": 1881,
      "384": 1882,
      "ĠMP": 1883,
      "ĠDC": 1884,
      "ĠDM": 1885,
      "2001": 1886,
      "2007": 1887,
      ")}\\:\\": 1888,
      "âĢĻ)": 1889,
      "570": 1890,
      "676": 1891,
      "SNN": 1892,
      "777": 1893,
      "^+}{\\": 1894,
      "Ġ\\%/": 1895,
      "769": 1896,
      "\\;(": 1897,
      "Ġ].\\": 1898,
      "AHB": 1899,
      ",\\,\\,\\": 1900,
      "}^*\\": 1901,
      "ĠKC": 1902,
      "arccos": 1903,
      "10640": 1904,
      "54527": 1905,
      "}\\!\\!\\!": 1906,
      "SCMNKL": 1907,
      "(*)\\": 1908,
      "enspace": 1909,
      "bigtriangleup": 1910,
      "90725500": 1911,
      "!}{\\": 1912,
      "&<": 1913,
      "&\\": 1914,
      "')\\": 1915,
      "'}^": 1916,
      "')=\\": 1917,
      "''=\\": 1918,
      "'|=": 1919,
      "'}}=": 1920,
      "))=-\\": 1921,
      ")'''": 1922,
      ")!\\": 1923,
      "-{{\\": 1924,
      "-...": 1925,
      ".\\\\": 1926,
      ".;\\": 1927,
      "023": 1928,
      "1100": 1929,
      "213": 1930,
      "224": 1931,
      "221": 1932,
      "236": 1933,
      "229": 1934,
      "228": 1935,
      "2200": 1936,
      "327": 1937,
      "334": 1938,
      "390": 1939,
      "416": 1940,
      "425": 1941,
      "423": 1942,
      "448": 1943,
      "462": 1944,
      "4272": 1945,
      "560": 1946,
      "550": 1947,
      "554": 1948,
      "597": 1949,
      "615": 1950,
      "618": 1951,
      "630": 1952,
      "640": 1953,
      "650": 1954,
      "697": 1955,
      "735": 1956,
      "793": 1957,
      "810": 1958,
      "808": 1959,
      "875": 1960,
      "841": 1961,
      "9000": 1962,
      "926": 1963,
      ":+\\": 1964,
      ":(\\": 1965,
      "<(": 1966,
      "={-": 1967,
      "Ax": 1968,
      "CF": 1969,
      "CH": 1970,
      "CMN": 1971,
      "DM": 1972,
      "DMN": 1973,
      "EG": 1974,
      "EOF": 1975,
      "GA": 1976,
      "HM": 1977,
      "HBC": 1978,
      "ID": 1979,
      "JC": 1980,
      "KA": 1981,
      "ME": 1982,
      "MAC": 1983,
      "MCD": 1984,
      "SQ": 1985,
      "SMN": 1986,
      "SMC": 1987,
      "XYZ": 1988,
      "\\,\\,(": 1989,
      "].\\": 1990,
      "ae": 1991,
      "aab": 1992,
      "ist": 1993,
      "nN": 1994,
      "ni": 1995,
      "nm": 1996,
      "qx": 1997,
      "rin": 1998,
      "sma": 1999,
      "|}=": 2000,
      "}),": 2001,
      "}'\\": 2002,
      "})^{\\": 2003,
      "}|+|": 2004,
      "}|=|": 2005,
      "~(\\": 2006,
      "á»": 2007,
      "Ġ/": 2008,
      "Ġ^{\\": 2009,
      "Ġ]}": 2010,
      "Ġ^{-\\": 2011,
      "}{{(": 2012,
      "{\\{": 2013,
      "mathrin": 2014,
      "}\\:(\\": 2015,
      "Ġxdx": 2016,
      "Ġ+|": 2017,
      "}}\"": 2018,
      "}}(\\": 2019,
      "}}+(": 2020,
      "{\\,\\": 2021,
      "203": 2022,
      "2030": 2023,
      "2008": 2024,
      "}={\\": 2025,
      "}={{": 2026,
      "Ġ31": 2027,
      "Ġ33": 2028,
      "Ġ351": 2029,
      "Ġal": 2030,
      "Ġ(*)": 2031,
      "1021": 2032,
      "1023": 2033,
      "1034": 2034,
      "1037": 2035,
      "1245": 2036,
      "12304": 2037,
      "ABO": 2038,
      "ABS": 2039,
      "ABMN": 2040,
      "ABNM": 2041,
      "ABKD": 2042,
      "006": 2043,
      "Ġ47": 2044,
      "16000": 2045,
      ",\\:": 2046,
      "1313": 2047,
      "1372": 2048,
      "1344": 2049,
      "251": 2050,
      "Ġ55": 2051,
      "Ġ520": 2052,
      ")+(\\": 2053,
      ";\\;\\": 2054,
      "1458": 2055,
      "}}\\,": 2056,
      "BCM": 2057,
      "}((": 2058,
      "181": 2059,
      "172": 2060,
      "179": 2061,
      "1712304": 2062,
      "273": 2063,
      "ABCM": 2064,
      "ABCMNC": 2065,
      "244": 2066,
      "\\{(": 2067,
      "]}[": 2068,
      "SAI": 2069,
      "SAM": 2070,
      "})}": 2071,
      "ĠRa": 2072,
      "322": 2073,
      "326": 2074,
      "328": 2075,
      "1968": 2076,
      "MNE": 2077,
      ")...": 2078,
      "},-": 2079,
      "},~": 2080,
      "361": 2081,
      "363": 2082,
      "365": 2083,
      "368": 2084,
      "3600": 2085,
      "Ġ;-\\": 2086,
      "|+|\\": 2087,
      "Ġ75": 2088,
      "1001": 2089,
      "1006": 2090,
      "Ġ900": 2091,
      "6054": 2092,
      "4033": 2093,
      "4037": 2094,
      "4096": 2095,
      "Ġ)}}": 2096,
      "261": 2097,
      "262": 2098,
      "Ġuv": 2099,
      "505": 2100,
      ")>-": 2101,
      "ĠSO": 2102,
      "Ġ}:\\": 2103,
      "281": 2104,
      "4500": 2105,
      "\\\\&\\": 2106,
      "\\\\&-\\": 2107,
      "481": 2108,
      "642": 2109,
      "MBKD": 2110,
      ")}^{{": 2111,
      "\\,,": 2112,
      "\\%.": 2113,
      "'')^": 2114,
      "'''=\\": 2115,
      "'''=": 2116,
      "'''=-\\": 2117,
      "1258": 2118,
      "6561": 2119,
      "397": 2120,
      "ĠhR": 2121,
      "5436": 2122,
      "Ġ}_{{{": 2123,
      "12029": 2124,
      "BDD": 2125,
      "8090": 2126,
      "=\\{-\\": 2127,
      "bch": 2128,
      "ĠMD": 2129,
      "ĠDD": 2130,
      "ĠDO": 2131,
      ");~": 2132,
      "EFGH": 2133,
      "|=|(": 2134,
      "4300": 2135,
      "999": 2136,
      "SDA": 2137,
      "SDC": 2138,
      "ĠABD": 2139,
      "),\\,\\": 2140,
      "dotsc": 2141,
      "578": 2142,
      "}>{": 2143,
      "ĠĠĠ": 2144,
      "666": 2145,
      "Ġ\\;(": 2146,
      "91125": 2147,
      "\\;(\\": 2148,
      "}\\,{\\": 2149,
      "\\!\\!\\!\\!\\!,": 2150,
      "}}+{{(": 2151,
      "11951": 2152,
      "AMND": 2153,
      "Ġ...,": 2154,
      "AIB": 2155,
      "':\\;": 2156,
      "lll": 2157,
      "&\\!\\!\\!\\!=&\\!\\!\\!\\!-": 2158,
      "41212029": 2159,
      "}\\!\\!\\!\\!\\!\\!,": 2160,
      "59049": 2161,
      ")^-}": 2162,
      "},...,\\": 2163,
      "}\\!\\!\\!\\!,": 2164,
      "small": 2165,
      "mathring": 2166,
      "%)": 2167,
      "'-\\": 2168,
      "'}}": 2169,
      "'},": 2170,
      "((": 2171,
      "((\\": 2172,
      "({{": 2173,
      ")!": 2174,
      ")[": 2175,
      ")}=(-": 2176,
      "*}}": 2177,
      "+[": 2178,
      ",{": 2179,
      ".{{": 2180,
      "016": 2181,
      "025": 2182,
      "1201": 2183,
      "214": 2184,
      "218": 2185,
      "227": 2186,
      "226": 2187,
      "2250": 2188,
      "2304": 2189,
      "2187": 2190,
      "312": 2191,
      "314": 2192,
      "318": 2193,
      "321": 2194,
      "319": 2195,
      "3125": 2196,
      "3200": 2197,
      "415": 2198,
      "413": 2199,
      "424": 2200,
      "421": 2201,
      "460": 2202,
      "435": 2203,
      "445": 2204,
      "464": 2205,
      "463": 2206,
      "467": 2207,
      "525": 2208,
      "518": 2209,
      "527": 2210,
      "524": 2211,
      "530": 2212,
      "526": 2213,
      "528": 2214,
      "533": 2215,
      "565": 2216,
      "580": 2217,
      "553": 2218,
      "599": 2219,
      "5180": 2220,
      "621": 2221,
      "636": 2222,
      "665": 2223,
      "718": 2224,
      "730": 2225,
      "708": 2226,
      "798": 2227,
      "820": 2228,
      "816": 2229,
      "817": 2230,
      "8000": 2231,
      "868": 2232,
      "862": 2233,
      "81000": 2234,
      "878": 2235,
      "925": 2236,
      "990": 2237,
      "947": 2238,
      "985": 2239,
      ";(\\": 2240,
      ";{{": 2241,
      "BO": 2242,
      "BQ": 2243,
      "Bx": 2244,
      "By": 2245,
      "BAA": 2246,
      "BMNP": 2247,
      "BOC": 2248,
      "CI": 2249,
      "CAD": 2250,
      "COA": 2251,
      "CMNP": 2252,
      "DF": 2253,
      "DEF": 2254,
      "EB": 2255,
      "EM": 2256,
      "EN": 2257,
      "EHK": 2258,
      "GT": 2259,
      "HN": 2260,
      "IN": 2261,
      "IS": 2262,
      "IOM": 2263,
      "JA": 2264,
      "JK": 2265,
      "KM": 2266,
      "KN": 2267,
      "MF": 2268,
      "MJ": 2269,
      "NF": 2270,
      "NQ": 2271,
      "SF": 2272,
      "SG": 2273,
      "XA": 2274,
      "XB": 2275,
      "]+": 2276,
      "]>": 2277,
      "]^{\\": 2278,
      "an": 2279,
      "av": 2280,
      "bg": 2281,
      "bxy": 2282,
      "hz": 2283,
      "iy": 2284,
      "mf": 2285,
      "mu": 2286,
      "nr": 2287,
      "px": 2288,
      "rh": 2289,
      "vi": 2290,
      "vdt": 2291,
      "xi": 2292,
      "xz": 2293,
      "zy": 2294,
      "zz": 2295,
      "|)-": 2296,
      "|-(": 2297,
      "|}{|": 2298,
      "}|\\": 2299,
      "Â°": 2300,
      "Äĳ": 2301,
      "Ġ?": 2302,
      "ĠL": 2303,
      "Ġ}=": 2304,
      "Ġ'(": 2305,
      "Ġ,\\": 2306,
      "Ġ},": 2307,
      "Ġ|+": 2308,
      "Ġ^{-": 2309,
      "Ġ_{[": 2310,
      "Ġ~(": 2311,
      "Ġ}}={{": 2312,
      "{\\{-": 2313,
      "Ġ=(-": 2314,
      "}\\;": 2315,
      "^{+": 2316,
      "^{^{-\\": 2317,
      "^{*}}": 2318,
      "Ġ-{": 2319,
      "Ġ-|": 2320,
      "Ġ29": 2321,
      "Ġ256": 2322,
      "_{_{\\": 2323,
      ")\\!": 2324,
      "}}:": 2325,
      "}}}-": 2326,
      "}};+\\": 2327,
      "}}}}\\": 2328,
      "}}},": 2329,
      "}}},\\": 2330,
      "}}-(": 2331,
      "Ġ148": 2332,
      "Ġ156": 2333,
      "202": 2334,
      "2032": 2335,
      "20000": 2336,
      "2040": 2337,
      "2029": 2338,
      "2028": 2339,
      "2034": 2340,
      "2039": 2341,
      "2042": 2342,
      "}=|": 2343,
      ")={{": 2344,
      "Ġ39": 2345,
      "ĠaR": 2346,
      "Ġaz": 2347,
      "1011": 2348,
      "1018": 2349,
      "1017": 2350,
      "1080": 2351,
      "}+|": 2352,
      "}+..": 2353,
      "}+({": 2354,
      "}^{+}": 2355,
      "=-|": 2356,
      "1280": 2357,
      "1272": 2358,
      "ABF": 2359,
      "ABH": 2360,
      "ABEF": 2361,
      "ABND": 2362,
      "};{": 2363,
      "Ġbd": 2364,
      "Ġ43": 2365,
      "Ġ4000": 2366,
      "Ġmy": 2367,
      "):{\\": 2368,
      "166": 2369,
      "1640": 2370,
      "1680": 2371,
      "1610640": 2372,
      "'(-\\": 2373,
      ",\\;\\": 2374,
      ",\\,\\,": 2375,
      "151": 2376,
      "157": 2377,
      "15625": 2378,
      "1326": 2379,
      "),~(": 2380,
      "259": 2381,
      "2520": 2382,
      "2565": 2383,
      "2593": 2384,
      "2592": 2385,
      "Ġ53": 2386,
      "Ġ56": 2387,
      "minh": 2388,
      "142": 2389,
      "BCB": 2390,
      "BCN": 2391,
      "Ġ63": 2392,
      "Ġ65": 2393,
      "Ġ66": 2394,
      "182": 2395,
      "1800": 2396,
      "173": 2397,
      "1790": 2398,
      "276": 2399,
      "2761": 2400,
      "2707": 2401,
      "ABCA": 2402,
      ")-(\\": 2403,
      "241": 2404,
      "247": 2405,
      "24000": 2406,
      "Ġcd": 2407,
      "302": 2408,
      "306": 2409,
      "3069": 2410,
      "ĠCH": 2411,
      "ĠCI": 2412,
      "ĠCP": 2413,
      "'={": 2414,
      "219": 2415,
      "exist": 2416,
      "})}^": 2417,
      "})}{\\": 2418,
      ")}'=": 2419,
      "3280": 2420,
      "193": 2421,
      "194": 2422,
      "197": 2423,
      "198": 2424,
      "1945": 2425,
      "1998": 2426,
      "1987": 2427,
      "MND": 2428,
      "MNCD": 2429,
      "Ġ>-\\": 2430,
      "},(": 2431,
      "},-\\": 2432,
      "axy": 2433,
      "ADM": 2434,
      "}&\\": 2435,
      "SBI": 2436,
      "Ġ&=\\": 2437,
      "Ġ77": 2438,
      "Ġ79": 2439,
      "1007": 2440,
      "Ġ99": 2441,
      "SCI": 2442,
      "602": 2443,
      "604": 2444,
      "608": 2445,
      "6053": 2446,
      "6051": 2447,
      "4032": 2448,
      "4042": 2449,
      "4068": 2450,
      "264": 2451,
      "266": 2452,
      "267": 2453,
      "231": 2454,
      "237": 2455,
      "Ġ2022": 2456,
      "5040": 2457,
      "5045": 2458,
      "292": 2459,
      "296": 2460,
      "ĠSa": 2461,
      "ĠSAC": 2462,
      "353": 2463,
      "355": 2464,
      "356": 2465,
      "357": 2466,
      "359": 2467,
      "287": 2468,
      "2800": 2469,
      "453": 2470,
      "456": 2471,
      "459": 2472,
      "ABCDE": 2473,
      "347": 2474,
      "4800": 2475,
      "643": 2476,
      "MBND": 2477,
      "331": 2478,
      ")}^{-": 2479,
      ")}^{-\\": 2480,
      "ĠAE": 2481,
      "496": 2482,
      "4999": 2483,
      "CDA": 2484,
      "CDE": 2485,
      "CDEF": 2486,
      "\\,(\\": 2487,
      "}}={{\\": 2488,
      "Ġ\\{-\\": 2489,
      "656": 2490,
      "\\!=\\": 2491,
      "391": 2492,
      "395": 2493,
      "399": 2494,
      "3999": 2495,
      "...+": 2496,
      "547": 2497,
      "MCA": 2498,
      "ĠOAB": 2499,
      "ĠOBC": 2500,
      "}}-{{": 2501,
      "ĠNNN": 2502,
      "AMD": 2503,
      "',(": 2504,
      "382": 2505,
      "ĠMQ": 2506,
      "966": 2507,
      "abcd": 2508,
      "|-|\\": 2509,
      "ĠDB": 2510,
      "Ġ=-{": 2511,
      "2005": 2512,
      ");(-": 2513,
      "567": 2514,
      "EFG": 2515,
      "443": 2516,
      "446": 2517,
      "}}}{{{": 2518,
      "4324": 2519,
      "470": 2520,
      "477": 2521,
      "472761": 2522,
      "685": 2523,
      "689": 2524,
      "ngvi": 2525,
      "ngminh": 2526,
      "âĢĻ\\": 2527,
      "={(\\": 2528,
      "50000": 2529,
      "571": 2530,
      "574": 2531,
      "5750": 2532,
      "673": 2533,
      "674": 2534,
      "6720": 2535,
      "6666": 2536,
      "776": 2537,
      "\\,\\%": 2538,
      "\\,\\,\\,\\": 2539,
      ")]+\\": 2540,
      "983": 2541,
      "984": 2542,
      "NNNS": 2543,
      "584": 2544,
      "),\\,(": 2545,
      "3003": 2546,
      "SIF": 2547,
      "Ozx": 2548,
      "1127": 2549,
      "1152": 2550,
      "ĠOyz": 2551,
      "APR": 2552,
      "arctan": 2553,
      "ĠGI": 2554,
      "``\\": 2555,
      "=&-": 2556,
      "29064": 2557,
      "|,|": 2558,
      "chngminh": 2559,
      "270725": 2560,
      "exists": 2561,
      "!=": 2562,
      "!}}": 2563,
      "!}+\\": 2564,
      "\"=\\": 2565,
      "\"-\\": 2566,
      "\"+\\": 2567,
      "\"=-\\": 2568,
      "&<-": 2569,
      "'{": 2570,
      "'):": 2571,
      "',\\": 2572,
      "'},\\": 2573,
      "'}.\\": 2574,
      "',~": 2575,
      "'|=|": 2576,
      "',\\;": 2577,
      "(*)": 2578,
      ")(-": 2579,
      ");\\": 2580,
      ")]}": 2581,
      "))}": 2582,
      ")|+": 2583,
      "))=-": 2584,
      ")}.\\": 2585,
      ")}}{(": 2586,
      ")!}{(": 2587,
      "+(-": 2588,
      ",+": 2589,
      "-~": 2590,
      "-{|": 2591,
      ".,": 2592,
      "028": 2593,
      "048": 2594,
      "073": 2595,
      "1125": 2596,
      "2256": 2597,
      "3360": 2598,
      "32000": 2599,
      "3240": 2600,
      "3141": 2601,
      "410": 2602,
      "418": 2603,
      "429": 2604,
      "422": 2605,
      "475": 2606,
      "465": 2607,
      "437": 2608,
      "4120": 2609,
      "472": 2610,
      "510": 2611,
      "511": 2612,
      "514": 2613,
      "535": 2614,
      "572": 2615,
      "552": 2616,
      "5275": 2617,
      "613": 2618,
      "617": 2619,
      "628": 2620,
      "664": 2621,
      "639": 2622,
      "663": 2623,
      "610000": 2624,
      "715": 2625,
      "711": 2626,
      "717": 2627,
      "736": 2628,
      "760": 2629,
      "790": 2630,
      "765": 2631,
      "737": 2632,
      "780": 2633,
      "738": 2634,
      "761": 2635,
      "797": 2636,
      "813": 2637,
      "818": 2638,
      "832": 2639,
      "860": 2640,
      "864": 2641,
      "872": 2642,
      "856": 2643,
      "861": 2644,
      "899": 2645,
      "895": 2646,
      "882": 2647,
      "8666": 2648,
      "910": 2649,
      "911": 2650,
      "914": 2651,
      "918": 2652,
      "936": 2653,
      "935": 2654,
      "922": 2655,
      "933": 2656,
      "980": 2657,
      "972": 2658,
      "996": 2659,
      "952": 2660,
      ";|": 2661,
      "=~\\": 2662,
      ">{\\": 2663,
      ">(\\": 2664,
      "AQ": 2665,
      "AS": 2666,
      "AX": 2667,
      "AABC": 2668,
      "AOC": 2669,
      "AIJ": 2670,
      "AOO": 2671,
      "BY": 2672,
      "BSA": 2673,
      "BPQ": 2674,
      "CG": 2675,
      "CJ": 2676,
      "CK": 2677,
      "CS": 2678,
      "Cy": 2679,
      "CMA": 2680,
      "CSD": 2681,
      "DG": 2682,
      "DH": 2683,
      "Dz": 2684,
      "DAC": 2685,
      "DABC": 2686,
      "DSA": 2687,
      "DAA": 2688,
      "DCA": 2689,
      "EA": 2690,
      "EH": 2691,
      "EK": 2692,
      "EBC": 2693,
      "FA": 2694,
      "FD": 2695,
      "FKM": 2696,
      "GI": 2697,
      "GK": 2698,
      "GBC": 2699,
      "HI": 2700,
      "HAB": 2701,
      "IG": 2702,
      "IP": 2703,
      "IBD": 2704,
      "IFE": 2705,
      "KH": 2706,
      "KQ": 2707,
      "KMN": 2708,
      "MO": 2709,
      "Mm": 2710,
      "Mz": 2711,
      "MEF": 2712,
      "MBCD": 2713,
      "MOO": 2714,
      "MBCC": 2715,
      "NE": 2716,
      "NH": 2717,
      "NAB": 2718,
      "OK": 2719,
      "OEF": 2720,
      "OIA": 2721,
      "QA": 2722,
      "QP": 2723,
      "RP": 2724,
      "RS": 2725,
      "Sx": 2726,
      "SABCD": 2727,
      "SMA": 2728,
      "SMNP": 2729,
      "SEF": 2730,
      "SSN": 2731,
      "SIA": 2732,
      "\\,\\,": 2733,
      "]?": 2734,
      "]}^{": 2735,
      "]'\\": 2736,
      "aS": 2737,
      "am": 2738,
      "aq": 2739,
      "au": 2740,
      "bn": 2741,
      "bint": 2742,
      "cf": 2743,
      "cl": 2744,
      "ct": 2745,
      "cy": 2746,
      "cÄĳ": 2747,
      "da": 2748,
      "gt": 2749,
      "hm": 2750,
      "ib": 2751,
      "kF": 2752,
      "kg": 2753,
      "kt": 2754,
      "ldo": 2755,
      "nS": 2756,
      "nV": 2757,
      "nb": 2758,
      "nz": 2759,
      "rl": 2760,
      "rn": 2761,
      "sy": 2762,
      "sup": 2763,
      "sai": 2764,
      "wi": 2765,
      "xx": 2766,
      "xln": 2767,
      "xOz": 2768,
      "|}=\\": 2769,
      "|}^{": 2770,
      "|}+\\": 2771,
      "|)+": 2772,
      "|{{": 2773,
      "|}-(": 2774,
      "}]}": 2775,
      "})=-\\": 2776,
      "}')": 2777,
      "~-~": 2778,
      "´ng": 2779,
      "Ã´ng": 2780,
      "ÄĲ": 2781,
      "áº": 2782,
      "ĠY": 2783,
      "Ġs": 2784,
      "Ġ}+": 2785,
      "Ġcos": 2786,
      "Ġsin": 2787,
      "Ġ)-": 2788,
      "Ġ}=-": 2789,
      "ĠOA": 2790,
      "Ġ}}=\\": 2791,
      "Ġ')": 2792,
      "ĠMNP": 2793,
      "Ġ}}+\\": 2794,
      "Ġ}={": 2795,
      "}{[": 2796,
      "}{-\\": 2797,
      "}{|\\": 2798,
      "Ġ\\:": 2799,
      "Ġ=|": 2800,
      "Ġ=~": 2801,
      "^{^": 2802,
      "^{{": 2803,
      "^{^{": 2804,
      "Ġxe": 2805,
      "Ġ216": 2806,
      "Ġ225": 2807,
      "Ġ230": 2808,
      "Ġ234": 2809,
      "Ġ233": 2810,
      "Ġ288": 2811,
      "}}[": 2812,
      "}}=-\\": 2813,
      "}}}.": 2814,
      "}}}{(": 2815,
      "}},\\,": 2816,
      "}}}.\\": 2817,
      "}}{[": 2818,
      "}}{|": 2819,
      "}}{(\\": 2820,
      "}}{{{": 2821,
      "Ġ108": 2822,
      "Ġ135": 2823,
      "Ġ1125": 2824,
      "Ġ180": 2825,
      "Ġ174": 2826,
      "{\\,(": 2827,
      "206": 2828,
      "209": 2829,
      "2036": 2830,
      "2026": 2831,
      "2031": 2832,
      "2041": 2833,
      "2047": 2834,
      "2099": 2835,
      "2097": 2836,
      "2098": 2837,
      "2046": 2838,
      ")=[": 2839,
      "Ġ320": 2840,
      "Ġ300": 2841,
      "Ġ339": 2842,
      "Ġ338": 2843,
      "Ġay": 2844,
      "Ġabc": 2845,
      "Ġ({{": 2846,
      "1020": 2847,
      "1016": 2848,
      "1025": 2849,
      "}+{{": 2850,
      "}^{*}": 2851,
      "=-(": 2852,
      "Ġ048": 2853,
      "}^+": 2854,
      "\\\\(": 2855,
      "\\\\-": 2856,
      "Ġyy": 2857,
      "cosx": 2858,
      "1236": 2859,
      "1260": 2860,
      "1250": 2861,
      "1248": 2862,
      "1233": 2863,
      "1275": 2864,
      "1296": 2865,
      "1285": 2866,
      "1271": 2867,
      "ABE": 2868,
      "ABJ": 2869,
      "ABFE": 2870,
      "};}\\": 2871,
      "Ġ41": 2872,
      "Ġ46": 2873,
      "Ġ4400": 2874,
      "Ġmi": 2875,
      "):{": 2876,
      "Ġ{[": 2877,
      "159": 2878,
      "1516": 2879,
      "1513": 2880,
      "15000": 2881,
      "1560": 2882,
      "1554": 2883,
      "1595": 2884,
      "1325": 2885,
      "1360": 2886,
      "1323": 2887,
      "1301": 2888,
      "),(-": 2889,
      "\\})": 2890,
      "1175": 2891,
      "1180": 2892,
      "1174": 2893,
      "255": 2894,
      "Ġ52": 2895,
      "Ġ590": 2896,
      "Ġ5400": 2897,
      ")+[": 2898,
      ")+{\\": 2899,
      ")+{{\\": 2900,
      ")+...+": 2901,
      ")^{^{\\": 2902,
      ")^{^{-\\": 2903,
      ";\\,\\,": 2904,
      "]{{\\": 2905,
      "]{{{": 2906,
      "Ġ<-\\": 2907,
      "}_{{": 2908,
      "1400": 2909,
      "1416": 2910,
      "1417": 2911,
      "1433": 2912,
      "14542": 2913,
      "BCO": 2914,
      "{,}{": 2915,
      "}({": 2916,
      "}((\\": 2917,
      "Ġ675": 2918,
      "Ġ672": 2919,
      "Ġ656": 2920,
      "Ġ687": 2921,
      "183": 2922,
      "186": 2923,
      "187500": 2924,
      "}.{{": 2925,
      "ACA": 2926,
      "ACE": 2927,
      "ACG": 2928,
      "ACH": 2929,
      "ACCA": 2930,
      "178": 2931,
      "1710": 2932,
      "1700": 2933,
      "1752": 2934,
      "1753": 2935,
      "274": 2936,
      "279": 2937,
      "ABCC": 2938,
      "ABCE": 2939,
      ")-{": 2940,
      ")-(-": 2941,
      "2425": 2942,
      "301": 2943,
      "308": 2944,
      "3020": 2945,
      "ĠCB": 2946,
      "ĠCE": 2947,
      "2197": 2948,
      "\\{{\\": 2949,
      "\\{{-": 2950,
      "]}|": 2951,
      "SAO": 2952,
      "})(": 2953,
      "});": 2954,
      "})]": 2955,
      "})+(": 2956,
      "};\\;\\": 2957,
      ")},": 2958,
      "3215": 2959,
      "1920": 2960,
      "1959": 2961,
      "MNA": 2962,
      "MNB": 2963,
      "MNEF": 2964,
      ").}": 2965,
      "},+\\": 2966,
      "ĠBAC": 2967,
      "ĠBAD": 2968,
      "ĠBHC": 2969,
      ":\\!": 2970,
      ":\\,\\": 2971,
      "ADB": 2972,
      "ADE": 2973,
      "SBE": 2974,
      "Ġ&=-": 2975,
      "Ġ|-": 2976,
      "Ġ|.": 2977,
      "Ġ70": 2978,
      "Ġ700": 2979,
      "Ġ728": 2980,
      "1003": 2981,
      "1005": 2982,
      "10086": 2983,
      "0001": 2984,
      "Ġ95": 2985,
      "605": 2986,
      "609": 2987,
      "605000": 2988,
      "401": 2989,
      "407": 2990,
      "408": 2991,
      "4016": 2992,
      "4015": 2993,
      "4026": 2994,
      "4062": 2995,
      "Ġ)<": 2996,
      "Ġ)}{": 2997,
      "263": 2998,
      "2614": 2999,
      "2380": 3000,
      "}{({{": 3001,
      "Ġ2015": 3002,
      "Ġ2048": 3003,
      "]\\,": 3004,
      "...\\": 3005,
      "501": 3006,
      "506": 3007,
      "509": 3008,
      "5050": 3009,
      "5054": 3010,
      "},\\:": 3011,
      "291": 3012,
      "294": 3013,
      "299": 3014,
      "Ġte": 3015,
      "Ġtcl": 3016,
      "ĠSF": 3017,
      "ĠSI": 3018,
      "ĠSK": 3019,
      "ĠSNN": 3020,
      "ĠSNS": 3021,
      ",\\,{{\\": 3022,
      "352": 3023,
      "358": 3024,
      "35000": 3025,
      "Ġ1010": 3026,
      "Ġny": 3027,
      "282": 3028,
      "2880": 3029,
      "Ġ86": 3030,
      "Ġ800": 3031,
      "Ġ850": 3032,
      "451": 3033,
      "45000": 3034,
      "341": 3035,
      "349": 3036,
      "3450": 3037,
      "3449": 3038,
      "\\\\&-": 3039,
      "^{-}}": 3040,
      "^{-})=": 3041,
      "2224": 3042,
      "22100": 3043,
      "483": 3044,
      "487": 3045,
      "_{[-\\": 3046,
      "Ġ}{{": 3047,
      "}}+{": 3048,
      "}}+...": 3049,
      "MBP": 3050,
      "337": 3051,
      "33000": 3052,
      ")}^{^{\\": 3053,
      "MANC": 3054,
      "ĠAI": 3055,
      "ĠAK": 3056,
      "ĠAM": 3057,
      "ĠAHK": 3058,
      "490": 3059,
      "491": 3060,
      "492": 3061,
      "495": 3062,
      "\\,}": 3063,
      "Ġka": 3064,
      "756": 3065,
      "758": 3066,
      "907": 3067,
      "9067": 3068,
      "''-\\": 3069,
      "''+\\": 3070,
      "1256": 3071,
      "65000": 3072,
      "\\!\\": 3073,
      "\\!:\\!": 3074,
      "394": 3075,
      "396": 3076,
      "398": 3077,
      "39360": 3078,
      "371": 3079,
      "373": 3080,
      "Ġ}_{_{": 3081,
      "BDF": 3082,
      "807": 3083,
      "8072": 3084,
      "8068": 3085,
      "8076": 3086,
      "\\{-{\\": 3087,
      ",~(": 3088,
      "bcd": 3089,
      "ĠND": 3090,
      "ĠNS": 3091,
      "Ġ1610640": 3092,
      "383": 3093,
      "ĠME": 3094,
      "ĠMAB": 3095,
      "ĠMhz": 3096,
      "961": 3097,
      "969": 3098,
      "96000": 3099,
      "ĠDA": 3100,
      "ĠDE": 3101,
      "mbol": 3102,
      "ĠACC": 3103,
      "2006": 3104,
      "562": 3105,
      "566": 3106,
      "567000": 3107,
      "EFB": 3108,
      "ĠPC": 3109,
      "447": 3110,
      "4400": 3111,
      "471": 3112,
      "686": 3113,
      "687": 3114,
      "688": 3115,
      "687500": 3116,
      "9945": 3117,
      "9999": 3118,
      "âĢĻ=\\": 3119,
      "âĢĻ)\\": 3120,
      "={|": 3121,
      "500000": 3122,
      "))}=": 3123,
      "Ġ.{{": 3124,
      "'}{{": 3125,
      "6320": 3126,
      "579": 3127,
      "OCA": 3128,
      "858": 3129,
      "859": 3130,
      "5525": 3131,
      "SNS": 3132,
      "}>(": 3133,
      "}>-\\": 3134,
      ")}=+\\": 3135,
      "1088": 3136,
      "7350": 3137,
      "100000": 3138,
      "669": 3139,
      "BCDA": 3140,
      "}|^{": 3141,
      "^+}\\": 3142,
      "970": 3143,
      "979": 3144,
      ")]^{": 3145,
      "988": 3146,
      "98430": 3147,
      "IJC": 3148,
      "ĠSCD": 3149,
      "ĠSAD": 3150,
      "60000": 3151,
      "600000": 3152,
      "76000": 3153,
      "2503": 3154,
      "2160": 3155,
      "^-}{\\": 3156,
      "AHC": 3157,
      "AHM": 3158,
      "886": 3159,
      "3006": 3160,
      "Ġ1005": 3161,
      "Ġ1008": 3162,
      "Ġ187": 3163,
      "Ġ189": 3164,
      "200000": 3165,
      "SHC": 3166,
      "BMPN": 3167,
      "694": 3168,
      "8440": 3169,
      "879": 3170,
      "93000": 3171,
      "Ġ4035": 3172,
      "Ġ4034": 3173,
      "Ġ4096": 3174,
      "94000": 3175,
      "SIC": 3176,
      "SID": 3177,
      "AGC": 3178,
      "AEC": 3179,
      "1156": 3180,
      "}\\\\&(": 3181,
      "APMN": 3182,
      "}}<(": 3183,
      "0796": 3184,
      "0797": 3185,
      "Ġ:\\,": 3186,
      "147278": 3187,
      "147347": 3188,
      "16875": 3189,
      "ĠOxz": 3190,
      "3157": 3191,
      "5456": 3192,
      "Ãłm": 3193,
      ")\\;{\\": 3194,
      "33600": 3195,
      "1551175": 3196,
      "AFD": 3197,
      "BID": 3198,
      "HEQ": 3199,
      ")^-}\\": 3200,
      "14950": 3201,
      "FHN": 3202,
      "khÃ´ng": 3203,
      "5452733": 3204,
      "5452771": 3205,
      "41625": 3206,
      "6972593": 3207,
      "8082": 3208,
      "XYZT": 3209,
      "19683": 3210,
      "5436521": 3211,
      "5436566": 3212,
      "4138": 3213,
      "8788": 3214,
      "^{+}}": 3215,
      ")\\!\\!:\\!": 3216,
      "Ġ395054": 3217,
      "132600": 3218,
      "\\!=\\!": 3219,
      "41208": 3220,
      "bintrn": 3221,
      "symbol": 3222,
      "supset": 3223,
      "Ġ33935": 3224,
      "118096": 3225,
      "1454226": 3226,
      "!)^": 3227,
      "!+(": 3228,
      "!}}\\": 3229,
      "!-(": 3230,
      "\"=": 3231,
      "\"\\": 3232,
      "%}": 3233,
      "'~": 3234,
      "'}{\\": 3235,
      "'),": 3236,
      "'})": 3237,
      "').": 3238,
      "'.\\": 3239,
      "'|=\\": 3240,
      "',\\,": 3241,
      "'\\\\&": 3242,
      "'}=-": 3243,
      "'-(": 3244,
      "'),(": 3245,
      "'~=~": 3246,
      "(+\\": 3247,
      "((-": 3248,
      "(|\\": 3249,
      "([-": 3250,
      "({{\\": 3251,
      ")~": 3252,
      ")}{-": 3253,
      ")),": 3254,
      ");+\\": 3255,
      "))+": 3256,
      "))^{": 3257,
      ")[\\": 3258,
      "))>": 3259,
      "))}^": 3260,
      "){{\\": 3261,
      ")}}}": 3262,
      "));": 3263,
      ")|=|": 3264,
      ")].": 3265,
      ")}}{{": 3266,
      ")~(": 3267,
      ")}}}\\": 3268,
      ")âĢĻ=": 3269,
      ")!}{\\": 3270,
      "*}\\": 3271,
      "+^": 3272,
      "+~": 3273,
      "+}\\": 3274,
      "+|\\": 3275,
      "+{{": 3276,
      "+^*": 3277,
      ",=": 3278,
      ",|": 3279,
      ",}-\\": 3280,
      "-+": 3281,
      "-[": 3282,
      "-(\\": 3283,
      "-{(": 3284,
      ".-\\": 3285,
      ".{{\\": 3286,
      "/(": 3287,
      "/{{": 3288,
      "010": 3289,
      "060": 3290,
      "050": 3291,
      "029": 3292,
      "022": 3293,
      "075": 3294,
      "065": 3295,
      "039": 3296,
      "072": 3297,
      "041": 3298,
      "038": 3299,
      "044": 3300,
      "047": 3301,
      "051": 3302,
      "067": 3303,
      "077": 3304,
      "074": 3305,
      "095": 3306,
      "058": 3307,
      "046": 3308,
      "091": 3309,
      "059": 3310,
      "0625": 3311,
      "0105": 3312,
      "0188": 3313,
      "11000": 3314,
      "1128": 3315,
      "1150": 3316,
      "1105": 3317,
      "1135": 3318,
      "1165": 3319,
      "1168": 3320,
      "2108": 3321,
      "2150": 3322,
      "22000": 3323,
      "2180": 3324,
      "2106": 3325,
      "2265": 3326,
      "2280": 3327,
      "2293": 3328,
      "310": 3329,
      "335": 3330,
      "381": 3331,
      "3150": 3332,
      "3160": 3333,
      "3135": 3334,
      "3130": 3335,
      "3136": 3336,
      "3190": 3337,
      "3164": 3338,
      "414": 3339,
      "417": 3340,
      "427": 3341,
      "436": 3342,
      "428": 3343,
      "433": 3344,
      "441": 3345,
      "438": 3346,
      "442": 3347,
      "4200": 3348,
      "461": 3349,
      "466": 3350,
      "42000": 3351,
      "41600": 3352,
      "4137": 3353,
      "4369": 3354,
      "4293": 3355,
      "4368": 3356,
      "46666": 3357,
      "515": 3358,
      "517": 3359,
      "532": 3360,
      "534": 3361,
      "522": 3362,
      "539": 3363,
      "5120": 3364,
      "596": 3365,
      "551": 3366,
      "557": 3367,
      "595": 3368,
      "5240": 3369,
      "5184": 3370,
      "51512": 3371,
      "5481": 3372,
      "610": 3373,
      "612": 3374,
      "632": 3375,
      "626": 3376,
      "622": 3377,
      "633": 3378,
      "690": 3379,
      "637": 3380,
      "699": 3381,
      "698": 3382,
      "6150": 3383,
      "6250": 3384,
      "691": 3385,
      "6160": 3386,
      "6642": 3387,
      "696000": 3388,
      "710": 3389,
      "716": 3390,
      "724": 3391,
      "719": 3392,
      "740": 3393,
      "723": 3394,
      "728": 3395,
      "734": 3396,
      "722": 3397,
      "748": 3398,
      "781": 3399,
      "764": 3400,
      "749": 3401,
      "7200": 3402,
      "799": 3403,
      "767": 3404,
      "782": 3405,
      "72000": 3406,
      "794": 3407,
      "792": 3408,
      "7446": 3409,
      "812": 3410,
      "811": 3411,
      "825": 3412,
      "82018": 3413,
      "827": 3414,
      "824": 3415,
      "830": 3416,
      "821": 3417,
      "8100": 3418,
      "826": 3419,
      "850": 3420,
      "829": 3421,
      "835": 3422,
      "845": 3423,
      "834": 3424,
      "848": 3425,
      "881": 3426,
      "833": 3427,
      "890": 3428,
      "854": 3429,
      "896": 3430,
      "851": 3431,
      "885": 3432,
      "873": 3433,
      "866": 3434,
      "897": 3435,
      "8600": 3436,
      "846": 3437,
      "8400": 3438,
      "891": 3439,
      "80000": 3440,
      "920": 3441,
      "915": 3442,
      "924": 3443,
      "932": 3444,
      "9100": 3445,
      "940": 3446,
      "923": 3447,
      "945": 3448,
      "948": 3449,
      "964": 3450,
      "949": 3451,
      "939": 3452,
      "954": 3453,
      "956": 3454,
      "944": 3455,
      "953": 3456,
      "90000": 3457,
      "9135": 3458,
      "9269": 3459,
      ":-": 3460,
      ":{": 3461,
      ":}": 3462,
      ":}\\,": 3463,
      ":~\\": 3464,
      ";;": 3465,
      ";~": 3466,
      ";{\\": 3467,
      ";\\\\": 3468,
      ";...": 3469,
      "<(\\": 3470,
      "<...": 3471,
      "==-": 3472,
      ">(": 3473,
      "AJ": 3474,
      "AT": 3475,
      "Aa": 3476,
      "Ae": 3477,
      "Ay": 3478,
      "AOM": 3479,
      "ASD": 3480,
      "ASO": 3481,
      "AMNPQ": 3482,
      "APQ": 3483,
      "AACC": 3484,
      "AYZ": 3485,
      "BJ": 3486,
      "BS": 3487,
      "Bt": 3488,
      "BSD": 3489,
      "BSO": 3490,
      "BNC": 3491,
      "BHK": 3492,
      "BIH": 3493,
      "BMNC": 3494,
      "BYZ": 3495,
      "CL": 3496,
      "CO": 3497,
      "CQ": 3498,
      "CZ": 3499,
      "Cm": 3500,
      "Cz": 3501,
      "CMB": 3502,
      "CBA": 3503,
      "CIJK": 3504,
      "CHA": 3505,
      "CFG": 3506,
      "COG": 3507,
      "CÄĲ": 3508,
      "DO": 3509,
      "Ds": 3510,
      "DSB": 3511,
      "DMNP": 3512,
      "DCC": 3513,
      "DIJ": 3514,
      "DBA": 3515,
      "DIC": 3516,
      "DHA": 3517,
      "DGH": 3518,
      "DJK": 3519,
      "EI": 3520,
      "EQ": 3521,
      "ES": 3522,
      "EABC": 3523,
      "EAD": 3524,
      "ECD": 3525,
      "EBD": 3526,
      "EBCD": 3527,
      "EIJ": 3528,
      "FB": 3529,
      "FM": 3530,
      "FO": 3531,
      "FAB": 3532,
      "FAD": 3533,
      "FCD": 3534,
      "FHK": 3535,
      "FIO": 3536,
      "GB": 3537,
      "GC": 3538,
      "GJ": 3539,
      "GN": 3540,
      "GAB": 3541,
      "GAC": 3542,
      "GABC": 3543,
      "GMB": 3544,
      "GCD": 3545,
      "GSAC": 3546,
      "GHK": 3547,
      "Gist": 3548,
      "HO": 3549,
      "HP": 3550,
      "HQ": 3551,
      "Hz": 3552,
      "HMN": 3553,
      "HCA": 3554,
      "HCEF": 3555,
      "IR": 3556,
      "IAC": 3557,
      "IMN": 3558,
      "ICD": 3559,
      "IBCD": 3560,
      "IBA": 3561,
      "ICB": 3562,
      "KC": 3563,
      "KF": 3564,
      "KG": 3565,
      "KJ": 3566,
      "KCD": 3567,
      "LC": 3568,
      "Me": 3569,
      "Mn": 3570,
      "Mx": 3571,
      "My": 3572,
      "MABC": 3573,
      "MOA": 3574,
      "MOB": 3575,
      "MACD": 3576,
      "MABD": 3577,
      "MHK": 3578,
      "MPQ": 3579,
      "MIJK": 3580,
      "MOP": 3581,
      "MABN": 3582,
      "MED": 3583,
      "MOF": 3584,
      "Mhz": 3585,
      "NJ": 3586,
      "NK": 3587,
      "NMD": 3588,
      "NACB": 3589,
      "NPQ": 3590,
      "NOD": 3591,
      "NADM": 3592,
      "OE": 3593,
      "OV": 3594,
      "OAC": 3595,
      "OABCD": 3596,
      "OMNP": 3597,
      "OBCD": 3598,
      "OACD": 3599,
      "OHC": 3600,
      "PE": 3601,
      "PI": 3602,
      "PS": 3603,
      "Pu": 3604,
      "PAB": 3605,
      "PBCD": 3606,
      "PMNC": 3607,
      "QD": 3608,
      "QN": 3609,
      "QR": 3610,
      "QMN": 3611,
      "QCD": 3612,
      "QMNP": 3613,
      "RB": 3614,
      "RD": 3615,
      "Rh": 3616,
      "SJ": 3617,
      "Sy": 3618,
      "SOA": 3619,
      "SFC": 3620,
      "SFH": 3621,
      "Skh": 3622,
      "SJC": 3623,
      "SJA": 3624,
      "TG": 3625,
      "Ta": 3626,
      "Tht": 3627,
      "Tac": 3628,
      "TGG": 3629,
      "TGT": 3630,
      "Vh": 3631,
      "VOV": 3632,
      "XT": 3633,
      "XY": 3634,
      "XZ": 3635,
      "YT": 3636,
      "[|": 3637,
      "\\:": 3638,
      "\\|": 3639,
      "\\-\\": 3640,
      "\\}=": 3641,
      "\\}^": 3642,
      "\\:\\": 3643,
      "]}}": 3644,
      "]'=\\": 3645,
      "]|=": 3646,
      "]'=": 3647,
      "],\\,": 3648,
      "]}=-": 3649,
      "],~": 3650,
      "]^{-\\": 3651,
      "]+{\\": 3652,
      "^(": 3653,
      "^+\\": 3654,
      "^/(": 3655,
      "_=\\": 3656,
      "aF": 3657,
      "aR": 3658,
      "ao": 3659,
      "ale": 3660,
      "aSA": 3661,
      "bm": 3662,
      "bSB": 3663,
      "cht": 3664,
      "cSC": 3665,
      "cng": 3666,
      "cngvi": 3667,
      "dv": 3668,
      "ef": 3669,
      "fra": 3670,
      "frow": 3671,
      "hR": 3672,
      "hn": 3673,
      "ho": 3674,
      "hr": 3675,
      "hch": 3676,
      "hÃłm": 3677,
      "hcngvi": 3678,
      "ii": 3679,
      "iw": 3680,
      "iup": 3681,
      "ju": 3682,
      "ka": 3683,
      "kf": 3684,
      "ky": 3685,
      "kCD": 3686,
      "ld": 3687,
      "ls": 3688,
      "lz": 3689,
      "lmt": 3690,
      "lÃł": 3691,
      "mM": 3692,
      "mb": 3693,
      "nB": 3694,
      "nC": 3695,
      "nD": 3696,
      "nh": 3697,
      "nn": 3698,
      "ns": 3699,
      "nt": 3700,
      "nu": 3701,
      "nv": 3702,
      "nht": 3703,
      "nln": 3704,
      "nac": 3705,
      "nchngminh": 3706,
      "ong": 3707,
      "ohm": 3708,
      "pc": 3709,
      "ph": 3710,
      "pq": 3711,
      "ps": 3712,
      "qs": 3713,
      "rx": 3714,
      "rÃ": 3715,
      "sf": 3716,
      "sime": 3717,
      "sao": 3718,
      "te": 3719,
      "tx": 3720,
      "tdt": 3721,
      "thcngvi": 3722,
      "ux": 3723,
      "uy": 3724,
      "vy": 3725,
      "xBC": 3726,
      "xdx": 3727,
      "xOx": 3728,
      "xAy": 3729,
      "ydy": 3730,
      "yOz": 3731,
      "zi": 3732,
      "{}{{": 3733,
      "{!}": 3734,
      "{:}": 3735,
      "|;": 3736,
      "|(\\": 3737,
      "|)=\\": 3738,
      "|+(": 3739,
      "|[\\": 3740,
      "|^{-": 3741,
      "|}<": 3742,
      "|}}=": 3743,
      "||(": 3744,
      "|)?": 3745,
      "|)-(": 3746,
      "|)|=": 3747,
      "}~": 3748,
      "}):": 3749,
      "}]{": 3750,
      "}'=": 3751,
      "}|+": 3752,
      "}]\\": 3753,
      "})=-": 3754,
      "}''(": 3755,
      "}|-": 3756,
      "}'.": 3757,
      "}!}": 3758,
      "}~\\": 3759,
      "}):\\,": 3760,
      "}~=~": 3761,
      "}|+|\\": 3762,
      "~=\\": 3763,
      "~=~\\": 3764,
      "~+~": 3765,
      "£ng": 3766,
      "©c": 3767,
      "©t": 3768,
      "ªn": 3769,
      "¬nh": 3770,
      "¿n": 3771,
      "Ã³": 3772,
      "Ã©t": 3773,
      "Ã¬nh": 3774,
      "ĠU": 3775,
      "ĠX": 3776,
      "Ġ`": 3777,
      "Ġma": 3778,
      "Ġlog": 3779,
      "Ġ}-": 3780,
      "Ġta": 3781,
      "Ġ}.": 3782,
      "Ġ}_": 3783,
      "Ġ)(": 3784,
      "Ġ,\\,": 3785,
      "Ġ}}=": 3786,
      "Ġ}}}": 3787,
      "Ġ]^": 3788,
      "Ġ|+|": 3789,
      "Ġ''(": 3790,
      "ĠEF": 3791,
      "Ġ|=|": 3792,
      "Ġ,(": 3793,
      "ĠâĢ": 3794,
      "Ġ):\\": 3795,
      "Ġ}}.": 3796,
      "Ġ}}{{": 3797,
      "ĠMNPQ": 3798,
      "Ġ}}+{{": 3799,
      "ĠHK": 3800,
      "ĠHD": 3801,
      "Ġ*}": 3802,
      "ĠXB": 3803,
      "ĠÄĳ": 3804,
      "Ġ}}-{{": 3805,
      "Ġ}}}{{{": 3806,
      "ĵng": 3807,
      "Ļt": 3808,
      "rad": 3809,
      "}{(-": 3810,
      "Ġ\\{(": 3811,
      "sqcup": 3812,
      "{\\!": 3813,
      "mathfra": 3814,
      "mathsf": 3815,
      "Ġ=+\\": 3816,
      "Ġ=(\\": 3817,
      "Ġ=(-\\": 3818,
      "Ġ={(": 3819,
      "}\\%": 3820,
      "}\\,\\,": 3821,
      "}\\;(": 3822,
      "^{(\\": 3823,
      "^{+}": 3824,
      "^{*}": 3825,
      "ĠxOz": 3826,
      "Ġ-}}": 3827,
      "Ġ+{\\": 3828,
      "Ġ+}}": 3829,
      "Ġ+...+": 3830,
      "Ġ215": 3831,
      "Ġ232": 3832,
      "Ġ240": 3833,
      "Ġ229": 3834,
      "Ġ245": 3835,
      "Ġ244": 3836,
      "Ġ243": 3837,
      "Ġ251": 3838,
      "Ġ282": 3839,
      "Ġ2400": 3840,
      "Ġ2304": 3841,
      "Ġ250000": 3842,
      "_{+}": 3843,
      ")\\;\\": 3844,
      ")\\}.": 3845,
      "}}_": 3846,
      "}}|": 3847,
      "}}~": 3848,
      "}})^": 3849,
      "}};-": 3850,
      "}}):": 3851,
      "}}|=": 3852,
      "}}[\\": 3853,
      "}}^{-": 3854,
      "}}}<": 3855,
      "}}}}}": 3856,
      "}},~": 3857,
      "}}}}+\\": 3858,
      "}}}}{{": 3859,
      "}}}\\,": 3860,
      "}}{-\\": 3861,
      ")^+}\\": 3862,
      "Ġ115": 3863,
      "Ġ118": 3864,
      "Ġ117": 3865,
      "Ġ121": 3866,
      "Ġ1000": 3867,
      "Ġ160": 3868,
      "Ġ128": 3869,
      "Ġ133": 3870,
      "Ġ196": 3871,
      "Ġ1200": 3872,
      "Ġ188": 3873,
      "lnhn": 3874,
      "rong": 3875,
      "2027": 3876,
      "2050": 3877,
      "2033": 3878,
      "2054": 3879,
      "2038": 3880,
      "2044": 3881,
      "2085": 3882,
      "2058": 3883,
      "20600": 3884,
      "2084": 3885,
      "2087": 3886,
      "2086": 3887,
      "204034": 3888,
      "20412": 3889,
      "20403": 3890,
      "}=[": 3891,
      "}=(\\": 3892,
      "}=|\\": 3893,
      "}=[\\": 3894,
      "}={(": 3895,
      "}={{\\": 3896,
      "}={(\\": 3897,
      "(\\,": 3898,
      ")=(\\": 3899,
      ")=|\\": 3900,
      ")={{\\": 3901,
      "Ġ37": 3902,
      "Ġ310": 3903,
      "Ġ325": 3904,
      "Ġ327": 3905,
      "Ġ324": 3906,
      "Ġ321": 3907,
      "Ġ336": 3908,
      "Ġ3000": 3909,
      "Ġ323": 3910,
      "Ġ365": 3911,
      "Ġ331": 3912,
      "Ġ368": 3913,
      "Ġ367": 3914,
      "Ġ3600": 3915,
      "Ġ394": 3916,
      "Ġ33280": 3917,
      "(-|": 3918,
      "Ġ({": 3919,
      "Ġ(|": 3920,
      "Ġ({\\": 3921,
      "Ġ(<\\": 3922,
      "1012": 3923,
      "1015": 3924,
      "1013": 3925,
      "1014": 3926,
      "1027": 3927,
      "10100": 3928,
      "1040": 3929,
      "1026": 3930,
      "1045": 3931,
      "1022": 3932,
      "1048": 3933,
      "1081": 3934,
      "1033": 3935,
      "1090": 3936,
      "1039": 3937,
      "1056": 3938,
      "1077": 3939,
      "1095": 3940,
      "1070": 3941,
      "1093": 3942,
      "1094": 3943,
      "1092": 3944,
      "10304": 3945,
      "10239": 3946,
      "10302": 3947,
      "10395": 3948,
      "10584": 3949,
      "}^{(": 3950,
      "}^{|": 3951,
      "}^{}}{": 3952,
      "}^{{{\\": 3953,
      "=-(\\": 3954,
      "Ġ010": 3955,
      "Ġ022": 3956,
      "Ġ081": 3957,
      "Ġ049": 3958,
      "Ġ007": 3959,
      "}^+}": 3960,
      "Ġyi": 3961,
      "Ġyz": 3962,
      "cosin": 3963,
      "2011": 3964,
      "20149": 3965,
      "20156": 3966,
      "1220": 3967,
      "1210": 3968,
      "1216": 3969,
      "1215": 3970,
      "1213": 3971,
      "1225": 3972,
      "1230": 3973,
      "1221": 3974,
      "1232": 3975,
      "1222": 3976,
      "1290": 3977,
      "1263": 3978,
      "1295": 3979,
      "1269": 3980,
      "12101": 3981,
      "12110": 3982,
      "12104": 3983,
      "12107": 3984,
      "12234": 3985,
      "12504": 3986,
      "12285": 3987,
      "12357": 3988,
      "126720": 3989,
      "dot": 3990,
      "ABG": 3991,
      "ABQ": 3992,
      "ABMD": 3993,
      "ABDC": 3994,
      "ABBA": 3995,
      "ABPN": 3996,
      "ABMNC": 3997,
      "ABYZ": 3998,
      ")=\\{": 3999,
      "}-{{": 4000,
      "}-...": 4001,
      "001": 4002,
      "002": 4003,
      "008": 4004,
      "0012": 4005,
      "0071": 4006,
      "Ġ44": 4007,
      "Ġ427": 4008,
      "Ġ432": 4009,
      "Ġ450": 4010,
      "Ġ465": 4011,
      "Ġ4120": 4012,
      "Ġ442": 4013,
      "Ġ486": 4014,
      "Ġ4220": 4015,
      "Ġmm": 4016,
      "Ġmp": 4017,
      "Ġmt": 4018,
      "Ġmz": 4019,
      "Ġmá»": 4020,
      "ĠmÃ©t": 4021,
      "):-\\": 4022,
      "1612": 4023,
      "1616": 4024,
      "1618": 4025,
      "1623": 4026,
      "1628": 4027,
      "1698": 4028,
      "1682": 4029,
      "1688": 4030,
      "16119": 4031,
      "1689": 4032,
      "16137": 4033,
      "16384": 4034,
      "16142": 4035,
      "16267": 4036,
      "161700": 4037,
      "16758": 4038,
      "166320": 4039,
      "Ġ{{{": 4040,
      "Ġ{.}": 4041,
      "158": 4042,
      "1517": 4043,
      "1533": 4044,
      "15120": 4045,
      "150000": 4046,
      "1594": 4047,
      "15840": 4048,
      "1500000": 4049,
      "151200": 4050,
      "15131": 4051,
      "1581000": 4052,
      "15872": 4053,
      "bigcup": 4054,
      "bigcap": 4055,
      "1320": 4056,
      "1300": 4057,
      "1316": 4058,
      "1317": 4059,
      "13000": 4060,
      "1345": 4061,
      "1348": 4062,
      "1349": 4063,
      "1365": 4064,
      "1331": 4065,
      "1352": 4066,
      "1347": 4067,
      "1366": 4068,
      "1370": 4069,
      "1346": 4070,
      "1376": 4071,
      "1388": 4072,
      "1369": 4073,
      "1389": 4074,
      "13117": 4075,
      "13122": 4076,
      "13234": 4077,
      "13440": 4078,
      "13116": 4079,
      "),~\\": 4080,
      "\\}}\\": 4081,
      "\\}<\\": 4082,
      "\\},\\,\\": 4083,
      "1120": 4084,
      "1111": 4085,
      "11100": 4086,
      "1140": 4087,
      "1145": 4088,
      "1181": 4089,
      "11400": 4090,
      "1188": 4091,
      "1186": 4092,
      "257": 4093,
      "2513": 4094,
      "2518": 4095,
      "2530": 4096,
      "25000": 4097,
      "2560": 4098,
      "2550": 4099,
      "2548": 4100,
      "2575": 4101,
      "2590": 4102,
      "25200": 4103,
      "2576": 4104,
      "252000": 4105,
      "2584": 4106,
      "2587": 4107,
      "2500000": 4108,
      "Ġ51": 4109,
      "Ġ58": 4110,
      "Ġ5000": 4111,
      "Ġ550": 4112,
      "Ġ538": 4113,
      "Ġ573": 4114,
      "Ġ574": 4115,
      "Ġ576": 4116,
      "Ġ502": 4117,
      "Ġ56320": 4118,
      "Ġdt": 4119,
      "Ġdv": 4120,
      "abi": 4121,
      "abx": 4122,
      ")+{": 4123,
      ")+(-": 4124,
      ")^{|": 4125,
      "]{{{\\": 4126,
      "1420": 4127,
      "1418": 4128,
      "1424": 4129,
      "1419": 4130,
      "1460": 4131,
      "1408": 4132,
      "1445": 4133,
      "1481": 4134,
      "1480": 4135,
      "14250": 4136,
      "1459": 4137,
      "1484": 4138,
      "14350": 4139,
      "14199": 4140,
      "14299": 4141,
      "}}\\%": 4142,
      "}}\\}": 4143,
      "}}\\,\\": 4144,
      "}}\\,\\,": 4145,
      "}}\\,\\,\\,\\": 4146,
      "BCI": 4147,
      "BCS": 4148,
      "BCCB": 4149,
      "BCHK": 4150,
      "}(|": 4151,
      "|={{\\": 4152,
      "Ġ62": 4153,
      "Ġ67": 4154,
      "Ġ68": 4155,
      "Ġ616": 4156,
      "Ġ614": 4157,
      "Ġ618": 4158,
      "Ġ617": 4159,
      "Ġ6000": 4160,
      "Ġ663": 4161,
      "Ġ685": 4162,
      "Ġ673": 4163,
      "Ġ679": 4164,
      "Ġ6220": 4165,
      "20172018": 4166,
      "1820": 4167,
      "1844": 4168,
      "1867": 4169,
      "1866": 4170,
      "1876": 4171,
      "1801": 4172,
      "181440": 4173,
      "18252000": 4174,
      "}.\\\\": 4175,
      "}...": 4176,
      "ACI": 4177,
      "ACMN": 4178,
      "ACBD": 4179,
      "ACNM": 4180,
      "174": 4181,
      "17100": 4182,
      "1750": 4183,
      "1701": 4184,
      "172800": 4185,
      "271": 4186,
      "2700": 4187,
      "27000": 4188,
      "2750": 4189,
      "2735": 4190,
      "2755": 4191,
      "27216": 4192,
      "27440": 4193,
      "2750000": 4194,
      "271317": 4195,
      "ABCB": 4196,
      "ABCH": 4197,
      "ABCI": 4198,
      "ABCN": 4199,
      "ABCO": 4200,
      "ABCMN": 4201,
      "ABCMNP": 4202,
      "ABCNM": 4203,
      "ABCHK": 4204,
      "ABCIK": 4205,
      "ABCED": 4206,
      "ABCIJC": 4207,
      "249": 4208,
      "2416": 4209,
      "2432": 4210,
      "2435": 4211,
      "2456": 4212,
      "2499": 4213,
      "2497": 4214,
      "24360": 4215,
      "2401": 4216,
      "242000": 4217,
      "2469": 4218,
      "240000": 4219,
      "2420000": 4220,
      "24689": 4221,
      "241920": 4222,
      "Ġ-\\,": 4223,
      "Ġcv": 4224,
      "ĠcÃ³": 4225,
      "303": 4226,
      "307": 4227,
      "3010": 4228,
      "3016": 4229,
      "3017": 4230,
      "3024": 4231,
      "3060": 4232,
      "3029": 4233,
      "3049": 4234,
      "3080": 4235,
      "3072": 4236,
      "3042": 4237,
      "3097": 4238,
      "30240": 4239,
      "30960": 4240,
      "303600": 4241,
      "ĠCF": 4242,
      "ĠCN": 4243,
      "'={\\": 4244,
      "2110": 4245,
      "2199": 4246,
      "2192": 4247,
      "21130": 4248,
      "21200000": 4249,
      "2120600": 4250,
      "SAG": 4251,
      "SAH": 4252,
      "SAK": 4253,
      "SAN": 4254,
      "SAMNP": 4255,
      "SAIJ": 4256,
      "SAIC": 4257,
      "{{{{\\": 4258,
      "{{({\\": 4259,
      "})|": 4260,
      "})}\\": 4261,
      "})-\\": 4262,
      "})+\\": 4263,
      "}))=": 4264,
      "})'=\\": 4265,
      "})}^{\\": 4266,
      "}),\\,": 4267,
      "};\\,\\": 4268,
      ")}<": 4269,
      ")}>": 4270,
      ")})=": 4271,
      ")},\\": 4272,
      "329": 4273,
      "3213": 4274,
      "3211": 4275,
      "3260": 4276,
      "3235": 4277,
      "3233": 4278,
      "32180": 4279,
      "32162": 4280,
      "32960": 4281,
      "32118": 4282,
      "322560": 4283,
      "1900": 4284,
      "1911": 4285,
      "1917": 4286,
      "1932": 4287,
      "1936": 4288,
      "1975": 4289,
      "1999": 4290,
      "1985": 4291,
      "1955": 4292,
      "1997": 4293,
      "1982": 4294,
      "1969": 4295,
      "1986": 4296,
      "1971": 4297,
      "1992": 4298,
      "1979": 4299,
      "19368": 4300,
      "19602": 4301,
      "19674": 4302,
      "192456": 4303,
      "MNG": 4304,
      "MNI": 4305,
      "MNK": 4306,
      "MNN": 4307,
      "MNAB": 4308,
      "MNABC": 4309,
      "MNABCD": 4310,
      "MNKQ": 4311,
      ").{": 4312,
      ").\\\\": 4313,
      "axe": 4314,
      "ĠBA": 4315,
      "ĠBE": 4316,
      "ĠBy": 4317,
      "364": 4318,
      "366": 4319,
      "36000": 4320,
      "3675": 4321,
      "3637": 4322,
      "3654": 4323,
      "3667": 4324,
      "36288": 4325,
      "36900": 4326,
      "362880": 4327,
      "ADH": 4328,
      "ADI": 4329,
      "ADS": 4330,
      "ADMN": 4331,
      "ADCB": 4332,
      "ADDA": 4333,
      "Ġ;+": 4334,
      "SBM": 4335,
      "SBO": 4336,
      "SBAC": 4337,
      "SBMN": 4338,
      "SBMD": 4339,
      "Ġ&<": 4340,
      "Ġ&>": 4341,
      "Ġ&=-\\": 4342,
      "Ġ&<-": 4343,
      "Ġ|(": 4344,
      "Ġ|}": 4345,
      "Ġ|-\\": 4346,
      "Ġ|}=\\": 4347,
      "Ġ71": 4348,
      "Ġ73": 4349,
      "Ġ76": 4350,
      "Ġ712": 4351,
      "Ġ721": 4352,
      "Ġ750": 4353,
      "Ġ749": 4354,
      "Ġ794": 4355,
      "Ġ7726": 4356,
      "Ġ7423": 4357,
      "Ġ7424": 4358,
      "Ġ7776": 4359,
      "1002": 4360,
      "1004": 4361,
      "10084": 4362,
      "10089": 4363,
      "{(|": 4364,
      "Ġ92": 4365,
      "Ġ9000": 4366,
      "Ġ947": 4367,
      "Ġ9726": 4368,
      "Ġ92160": 4369,
      "Ġ9830": 4370,
      "SCM": 4371,
      "SCO": 4372,
      "}_+^*": 4373,
      "603": 4374,
      "606": 4375,
      "607": 4376,
      "6021": 4377,
      "6060": 4378,
      "6048": 4379,
      "6049": 4380,
      "6080": 4381,
      "6056": 4382,
      "6061": 4383,
      "6052": 4384,
      "6047": 4385,
      "6055": 4386,
      "6059": 4387,
      "60480": 4388,
      "604800": 4389,
      "402": 4390,
      "404": 4391,
      "406": 4392,
      "409": 4393,
      "4020": 4394,
      "4024": 4395,
      "4030": 4396,
      "4050": 4397,
      "4029": 4398,
      "4028": 4399,
      "4031": 4400,
      "4080": 4401,
      "4041": 4402,
      "4044": 4403,
      "40500": 4404,
      "4066": 4405,
      "4095": 4406,
      "4070": 4407,
      "4058": 4408,
      "4046": 4409,
      "4094": 4410,
      "40320": 4411,
      ")({": 4412,
      ")({{": 4413,
      "<\\!": 4414,
      "Ġ)}{\\": 4415,
      "Ġ),\\": 4416,
      "Ġ)}.": 4417,
      "Ġ)>\\": 4418,
      "268": 4419,
      "2612": 4420,
      "2600": 4421,
      "2616": 4422,
      "2615": 4423,
      "2613": 4424,
      "2618": 4425,
      "2617": 4426,
      "2619": 4427,
      "2623": 4428,
      "2690": 4429,
      "2657": 4430,
      "2688": 4431,
      "26800": 4432,
      "26815": 4433,
      "2310": 4434,
      "2315": 4435,
      "2352": 4436,
      "2347": 4437,
      "2399": 4438,
      "2358": 4439,
      "232000": 4440,
      "23180": 4441,
      "23477": 4442,
      "232518": 4443,
      "Ġ{\\{-": 4444,
      "Ġ{\\%}": 4445,
      "Ġ2010": 4446,
      "Ġ2050": 4447,
      "]\\,\\": 4448,
      "..+{": 4449,
      ")}{{": 4450,
      ")=-(": 4451,
      ")=-{{": 4452,
      "507": 4453,
      "5044": 4454,
      "5095": 4455,
      "50400": 4456,
      "080": 4457,
      "085": 4458,
      "086": 4459,
      "0806": 4460,
      ")>{\\": 4461,
      ")>{{\\": 4462,
      "},\\,(": 4463,
      "295": 4464,
      "297": 4465,
      "298": 4466,
      "2916": 4467,
      "2940": 4468,
      "2968": 4469,
      "292000": 4470,
      "29525": 4471,
      "29524": 4472,
      "298440": 4473,
      "Ġ(\\%)": 4474,
      "Ġtá»": 4475,
      "ĠtrÃ": 4476,
      "Ġtrong": 4477,
      "ĠSE": 4478,
      "ĠSJ": 4479,
      "ĠSy": 4480,
      "ĠSMC": 4481,
      "ĠSDC": 4482,
      "3500": 4483,
      "3517": 4484,
      "3547": 4485,
      "3574": 4486,
      "350000": 4487,
      "352623": 4488,
      "Ġ1013": 4489,
      "Ġ1024": 4490,
      "Ġ10726": 4491,
      "Ġ10749": 4492,
      "Ġ[-\\": 4493,
      "Ġnb": 4494,
      "Ġni": 4495,
      "Ġnt": 4496,
      "Ġnz": 4497,
      "284": 4498,
      "286": 4499,
      "2867": 4500,
      "2873": 4501,
      "2870": 4502,
      "28800": 4503,
      "2889": 4504,
      "Ġ80": 4505,
      "Ġ89": 4506,
      "Ġ820": 4507,
      "Ġ810": 4508,
      "Ġ816": 4509,
      "Ġ825": 4510,
      "Ġ824": 4511,
      "Ġ829": 4512,
      "Ġ875": 4513,
      "Ġ880": 4514,
      "Ġ896": 4515,
      "Ġ863": 4516,
      "Ġ862": 4517,
      "Ġ876": 4518,
      "Ġ806": 4519,
      "Ġ8726": 4520,
      "Ġ827440": 4521,
      "457": 4522,
      "458": 4523,
      "4536": 4524,
      "4581": 4525,
      "45125": 4526,
      "4563": 4527,
      "45672": 4528,
      "ABCDA": 4529,
      "ABCDD": 4530,
      "ABCDSA": 4531,
      "ABCDMN": 4532,
      "ABCDSH": 4533,
      "ABCDSEF": 4534,
      "342": 4535,
      "3400": 4536,
      "3422": 4537,
      "3475": 4538,
      "3465": 4539,
      "3473": 4540,
      "34400": 4541,
      "34236": 4542,
      "342187": 4543,
      "34240000": 4544,
      "^{-(": 4545,
      "}=-(": 4546,
      "}=-|": 4547,
      "22168": 4548,
      "22177": 4549,
      "22167": 4550,
      "222800": 4551,
      "22178": 4552,
      "482": 4553,
      "484": 4554,
      "485": 4555,
      "48000": 4556,
      "4839": 4557,
      "48873": 4558,
      "Ġ}{|": 4559,
      "8110": 4560,
      "647": 4561,
      "64000": 4562,
      "6435": 4563,
      "6490": 4564,
      "64152": 4565,
      "6426815": 4566,
      "MBD": 4567,
      "MBN": 4568,
      "MBNP": 4569,
      "MBPA": 4570,
      "338": 4571,
      "3320": 4572,
      "3334": 4573,
      "3375": 4574,
      "33240": 4575,
      ")}^{{{": 4576,
      "}<-": 4577,
      "}<{\\": 4578,
      ")<-": 4579,
      "Bigl": 4580,
      "Bigr": 4581,
      "MAE": 4582,
      "MAI": 4583,
      "20162017": 4584,
      "201600000": 4585,
      "textbackslash": 4586,
      "ĠAMN": 4587,
      "hichngminh": 4588,
      "494": 4589,
      "497": 4590,
      "4950": 4591,
      "4939": 4592,
      "4942": 4593,
      "4944": 4594,
      "4947": 4595,
      "4995": 4596,
      "492513": 4597,
      "CDB": 4598,
      "CDG": 4599,
      "CDP": 4600,
      "CDNM": 4601,
      "\\,;": 4602,
      "\\,{{": 4603,
      "Ġkx": 4604,
      "Ġkho": 4605,
      "=|(": 4606,
      "=|-": 4607,
      "=||": 4608,
      "751": 4609,
      "754": 4610,
      "755": 4611,
      "759": 4612,
      "7568": 4613,
      "7500000": 4614,
      "75328": 4615,
      "75528": 4616,
      "75497": 4617,
      "901": 4618,
      "902": 4619,
      "905": 4620,
      "906": 4621,
      "9056": 4622,
      "9047": 4623,
      "9057": 4624,
      "90720": 4625,
      "9093000": 4626,
      "\\%\\,": 4627,
      "}}({\\": 4628,
      "}}({{": 4629,
      ")}^\\": 4630,
      "1255": 4631,
      "652": 4632,
      "654": 4633,
      "655": 4634,
      "6550": 4635,
      "6539": 4636,
      "6577": 4637,
      "6500000": 4638,
      "656000": 4639,
      "65318": 4640,
      "65983": 4641,
      "6594000": 4642,
      "\\!<\\!": 4643,
      "392": 4644,
      "393": 4645,
      "3924": 4646,
      "39840": 4647,
      "39361": 4648,
      "39356": 4649,
      "39366": 4650,
      "376": 4651,
      "379": 4652,
      "3717": 4653,
      "3723": 4654,
      "3722": 4655,
      "370000": 4656,
      "37332": 4657,
      "3739360": 4658,
      "3732960": 4659,
      "3736900": 4660,
      "OAO": 4661,
      "OAMN": 4662,
      "OAHK": 4663,
      "}}}(-": 4664,
      "}}}>\\": 4665,
      "31139": 4666,
      "ĠhÃłm": 4667,
      "ĠhÃ¬nh": 4668,
      "541": 4669,
      "544": 4670,
      "5434": 4671,
      "5476": 4672,
      "54624": 4673,
      "Ġ}_{_{\\": 4674,
      "MCE": 4675,
      "MCN": 4676,
      "1209": 4677,
      "12000": 4678,
      "12098": 4679,
      "120960": 4680,
      "BDE": 4681,
      "BDM": 4682,
      "BDN": 4683,
      "BDMN": 4684,
      "BDNM": 4685,
      "BDHCEF": 4686,
      "ĠBCC": 4687,
      "ĠBCE": 4688,
      "803": 4689,
      "8060": 4690,
      "8047": 4691,
      "8073": 4692,
      "8077": 4693,
      "8046": 4694,
      "80486": 4695,
      "80640": 4696,
      "ĠOE": 4697,
      "ĠOI": 4698,
      "ĠOM": 4699,
      "ĠOMN": 4700,
      "ĠOCD": 4701,
      "ĠOIA": 4702,
      "ĠOIB": 4703,
      "bold": 4704,
      "ĠNB": 4705,
      "ĠNN": 4706,
      "ĠNMP": 4707,
      "ĠNNNS": 4708,
      "ĠNNSN": 4709,
      "ĠNSNN": 4710,
      "Ġ162": 4711,
      "Ġ163": 4712,
      "Ġ168": 4713,
      "Ġ16640": 4714,
      "Ġ16382": 4715,
      "Ġ_{(": 4716,
      "')}}{": 4717,
      "AMH": 4718,
      "AMP": 4719,
      "AMPN": 4720,
      "AMEN": 4721,
      "AMIN": 4722,
      "AMKN": 4723,
      "Ġ}\\,": 4724,
      "385": 4725,
      "386": 4726,
      "387": 4727,
      "388": 4728,
      "3840": 4729,
      "3834": 4730,
      "3848": 4731,
      "3833": 4732,
      "3841": 4733,
      "3843": 4734,
      "3874": 4735,
      "3888": 4736,
      "38304": 4737,
      "384000": 4738,
      "ĠMF": 4739,
      "ĠMBC": 4740,
      "ĠMHz": 4741,
      "962": 4742,
      "963": 4743,
      "9600": 4744,
      "MNPB": 4745,
      "MNPD": 4746,
      "MNPR": 4747,
      "MNPABC": 4748,
      "OMH": 4749,
      "OMI": 4750,
      "OMM": 4751,
      "OMHN": 4752,
      "ĠDAB": 4753,
      "ĠDCA": 4754,
      "ĠDCC": 4755,
      "4216": 4756,
      "42187": 4757,
      "2002": 4758,
      "2003": 4759,
      "2004": 4760,
      "Ġ\\\\&\\": 4761,
      "Ġ\\\\&-\\": 4762,
      "563": 4763,
      "568": 4764,
      "56228": 4765,
      "56875": 4766,
      "EFH": 4767,
      "EFM": 4768,
      "EFHK": 4769,
      "EFNJ": 4770,
      "OBA": 4771,
      "OBE": 4772,
      "OBM": 4773,
      "Ġ1595": 4774,
      "4430": 4775,
      "44200": 4776,
      "44163": 4777,
      "443000": 4778,
      "61161": 4779,
      "531440": 4780,
      "richt": 4781,
      "}}}{{\\": 4782,
      "}}}{{{{\\": 4783,
      "4320": 4784,
      "43000": 4785,
      "473": 4786,
      "476": 4787,
      "478": 4788,
      "479": 4789,
      "4725": 4790,
      "47000": 4791,
      "47304": 4792,
      "47900": 4793,
      "4709": 4794,
      "470071": 4795,
      "471688": 4796,
      "682": 4797,
      "684": 4798,
      "6840": 4799,
      "6858": 4800,
      "6888": 4801,
      "68575": 4802,
      "ngbintrn": 4803,
      "nghch": 4804,
      "ngthcngvi": 4805,
      "nguy": 4806,
      "nglnhn": 4807,
      ";\\,|": 4808,
      "992": 4809,
      "993": 4810,
      "997": 4811,
      "998": 4812,
      "9990": 4813,
      "9996": 4814,
      "9977": 4815,
      "9997": 4816,
      "9998": 4817,
      "99430": 4818,
      "99267": 4819,
      "SABD": 4820,
      "SDI": 4821,
      "SDJ": 4822,
      "ĠABM": 4823,
      "):\\;": 4824,
      "):\\,\\": 4825,
      "âĢĻ.": 4826,
      "âĢĻ(\\": 4827,
      "âĢĻ}(": 4828,
      "âĢĻ=(": 4829,
      "),\\,\\,": 4830,
      "+...}": 4831,
      "+...}{": 4832,
      "5004": 4833,
      "5000000": 4834,
      "5004000": 4835,
      "50000000": 4836,
      "ĠADC": 4837,
      "ĠADO": 4838,
      "Ġ20172018": 4839,
      "))}}": 4840,
      ")))=": 4841,
      "6300": 4842,
      "6324000": 4843,
      "63271317": 4844,
      "573": 4845,
      "577": 4846,
      "5760": 4847,
      "57793": 4848,
      "579067": 4849,
      "670": 4850,
      "671": 4851,
      "678": 4852,
      "67000": 4853,
      "6702": 4854,
      "67248": 4855,
      "679067": 4856,
      "679057": 4857,
      "OCB": 4858,
      "OCMN": 4859,
      "855": 4860,
      "8589": 4861,
      "ĠVh": 4862,
      ")|.": 4863,
      ")|<": 4864,
      ")||(\\": 4865,
      "SBCD": 4866,
      "ĠIC": 4867,
      "ĠID": 4868,
      "ĠIF": 4869,
      "ĠIO": 4870,
      "555": 4871,
      "558": 4872,
      "5532": 4873,
      "5552": 4874,
      "55346": 4875,
      "553500": 4876,
      "SNC": 4877,
      "SNQ": 4878,
      "SNNN": 4879,
      "}>-": 4880,
      "}>{\\": 4881,
      "6213": 4882,
      "1089": 4883,
      "108160": 4884,
      "7381": 4885,
      "ĠSBD": 4886,
      "100000000": 4887,
      "6665": 4888,
      "6672": 4889,
      "6668": 4890,
      "6667": 4891,
      "6669": 4892,
      "66121": 4893,
      "770": 4894,
      "779": 4895,
      "7710": 4896,
      "7725": 4897,
      "7728": 4898,
      "7768": 4899,
      "7777": 4900,
      "7782": 4901,
      "ĠFG": 4902,
      "}}.{": 4903,
      "BCDE": 4904,
      "BCDM": 4905,
      "BCDN": 4906,
      "BCDO": 4907,
      "BCDNM": 4908,
      "74000": 4909,
      "7440": 4910,
      "7445": 4911,
      "7448": 4912,
      "74207": 4913,
      "}'<": 4914,
      "SACD": 4915,
      "\\,\\,\\,(": 4916,
      "^+)": 4917,
      "1282": 4918,
      "1283": 4919,
      "1284": 4920,
      "128432": 4921,
      "1288110": 4922,
      "971": 4923,
      "9763": 4924,
      ")]>": 4925,
      ")]}\\": 4926,
      ")]-\\": 4927,
      ")]=|": 4928,
      ")]=[": 4929,
      "982": 4930,
      "986": 4931,
      "989": 4932,
      "9880": 4933,
      "98280": 4934,
      "IJB": 4935,
      "IJG": 4936,
      "IJCD": 4937,
      "SMP": 4938,
      "SMBC": 4939,
      "SMGB": 4940,
      "ĠCDB": 4941,
      "ĠCDO": 4942,
      "95100": 4943,
      "MDC": 4944,
      "14400": 4945,
      "144000": 4946,
      "144492513": 4947,
      "701": 4948,
      "707": 4949,
      "7063": 4950,
      "7095": 4951,
      "7076": 4952,
      "70947": 4953,
      "70308": 4954,
      "70698": 4955,
      "70656000": 4956,
      "SOMN": 4957,
      "ĠSCB": 4958,
      "Ġ\\%.": 4959,
      "Ġ\\%\\;(": 4960,
      "ĠSAM": 4961,
      "ĠSAO": 4962,
      "'=-(": 4963,
      "583": 4964,
      "586": 4965,
      "588": 4966,
      "589": 4967,
      "58675": 4968,
      "6005": 4969,
      "Ġ2520": 4970,
      "Ġ25000": 4971,
      "469": 4972,
      "7680": 4973,
      "82304": 4974,
      "2501": 4975,
      "2502": 4976,
      "21665983": 4977,
      "4004": 4978,
      "4009": 4979,
      "40000": 4980,
      "4005000": 4981,
      "40080000": 4982,
      "DCE": 4983,
      "DCEF": 4984,
      "\\;{\\": 4985,
      "784": 4986,
      "786": 4987,
      "7889": 4988,
      "7879": 4989,
      "786858": 4990,
      "^-}=+\\": 4991,
      "Ġ]}\\": 4992,
      "SADE": 4993,
      "|.(": 4994,
      "AHD": 4995,
      "AHMK": 4996,
      "BAS": 4997,
      "{||": 4998,
      "888": 4999,
      "8800": 5000,
      "8856": 5001,
      "88400": 5002,
      "88430": 5003,
      "88933": 5004,
      "3004": 5005,
      "3005": 5006,
      "30000": 5007,
      "300000": 5008,
      "3000000": 5009,
      "30000000": 5010,
      "592": 5011,
      "59280": 5012,
      "59203": 5013,
      "ANMK": 5014,
      "ANKB": 5015,
      "Ġ}}}}": 5016,
      "Ġ}}:{": 5017,
      "256000": 5018,
      "ACDB": 5019,
      "ACDM": 5020,
      "Ġ2430": 5021,
      "Ġ1007": 5022,
      "Ġ4550": 5023,
      "62500": 5024,
      "2000000": 5025,
      "Ġ6051": 5026,
      "SHA": 5027,
      "SHB": 5028,
      "SHD": 5029,
      "SHACD": 5030,
      "BMGH": 5031,
      "MNPQABCD": 5032,
      "MNPQRS": 5033,
      "|({{": 5034,
      "692": 5035,
      "84509": 5036,
      "842940": 5037,
      "871": 5038,
      "8765": 5039,
      "879056": 5040,
      "BNK": 5041,
      "NMCD": 5042,
      "00001": 5043,
      "ĠSDB": 5044,
      "^*}}": 5045,
      "^*})": 5046,
      "ĠKB": 5047,
      "ĠKDC": 5048,
      "8325": 5049,
      "8650": 5050,
      "~(*)": 5051,
      "ĠQN": 5052,
      "ĠQR": 5053,
      "Ġlr": 5054,
      "ĠlÃł": 5055,
      "Ġ4020": 5056,
      "Ġ4036": 5057,
      "Ġ4039": 5058,
      "2258": 5059,
      "2250000": 5060,
      "HKB": 5061,
      "HKL": 5062,
      "HKCC": 5063,
      "HKCB": 5064,
      "AMNB": 5065,
      "AMNC": 5066,
      "AMNG": 5067,
      "SIB": 5068,
      "SIK": 5069,
      "SIM": 5070,
      "SIN": 5071,
      "Ġ\\,\\,\\,": 5072,
      "AGD": 5073,
      "AGBC": 5074,
      "AGMC": 5075,
      "CNP": 5076,
      "CNMA": 5077,
      "Ozy": 5078,
      "PQNMD": 5079,
      "}},{{": 5080,
      "2402": 5081,
      "2403": 5082,
      "240643": 5083,
      "112687500": 5084,
      "AEB": 5085,
      "AED": 5086,
      "AEH": 5087,
      "AEBD": 5088,
      "AEBF": 5089,
      "AEMF": 5090,
      "AKB": 5091,
      "AKC": 5092,
      "AKH": 5093,
      "mnz": 5094,
      "}}>{\\": 5095,
      "}}>{{\\": 5096,
      "1102": 5097,
      "1106": 5098,
      "110544": 5099,
      "11520": 5100,
      "115687500": 5101,
      "115586": 5102,
      "Ġ...+": 5103,
      "140608": 5104,
      "AID": 5105,
      "AIM": 5106,
      "APMQ": 5107,
      "APNMCD": 5108,
      "CPD": 5109,
      "OABH": 5110,
      "OABO": 5111,
      "|>|": 5112,
      "arccot": 5113,
      "}|=|\\": 5114,
      "Ġ307": 5115,
      "1031635": 5116,
      "1691595": 5117,
      "1691955": 5118,
      "13091": 5119,
      ")|=+\\": 5120,
      "MPIK": 5121,
      "MPNQ": 5122,
      "OIM": 5123,
      "}]|": 5124,
      "Oxzy": 5125,
      "2203": 5126,
      "2209": 5127,
      "3241": 5128,
      "3240000": 5129,
      "32420000": 5130,
      "}}^{*}": 5131,
      "}}^{*}\\": 5132,
      "208346": 5133,
      "208347": 5134,
      "12413": 5135,
      "124656": 5136,
      "136250": 5137,
      "){:}\\,": 5138,
      "SABCM": 5139,
      "Ġbiáº": 5140,
      "14720": 5141,
      "14730": 5142,
      "14780": 5143,
      "265200": 5144,
      "4000500": 5145,
      "5000400": 5146,
      "BHC": 5147,
      "BHD": 5148,
      "GGT": 5149,
      "Ġ\\,\\,(": 5150,
      "}}}}:\\": 5151,
      "12650": 5152,
      "15335": 5153,
      "2809": 5154,
      "21530": 5155,
      "215456": 5156,
      "3209": 5157,
      "320000": 5158,
      "3754": 5159,
      "3750000": 5160,
      "72576000": 5161,
      "72567000": 5162,
      "IMJ": 5163,
      "ĠMCA": 5164,
      "207360": 5165,
      "117600": 5166,
      "117187500": 5167,
      ")}}{{{": 5168,
      "44910": 5169,
      "44918": 5170,
      "44928": 5171,
      "44902": 5172,
      "44998430": 5173,
      "44999430": 5174,
      "44988430": 5175,
      "900000": 5176,
      "AEFB": 5177,
      "AEFG": 5178,
      "AEFK": 5179,
      "MIN": 5180,
      "||(\\": 5181,
      "}:\\,": 5182,
      "17094": 5183,
      "17635000": 5184,
      "1763334": 5185,
      "27045": 5186,
      "27072": 5187,
      "24580": 5188,
      "290646": 5189,
      "354292": 5190,
      "354294": 5191,
      "32574": 5192,
      "45054": 5193,
      "AOS": 5194,
      "btngthcngvi": 5195,
      "}\\,\\,\\,": 5196,
      "114244": 5197,
      "114187500": 5198,
      "27866121": 5199,
      ")}.}": 5200,
      "21235000": 5201,
      "21233000": 5202,
      "41250": 5203,
      "MHAK": 5204,
      "xen": 5205,
      "18540": 5206,
      "18564": 5207,
      ")}}\\,": 5208,
      "2179": 5209,
      "217354": 5210,
      "6481458": 5211,
      "AMNPBCD": 5212,
      "BFC": 5213,
      "CEMF": 5214,
      "IKG": 5215,
      "IKMN": 5216,
      "ODEF": 5217,
      "PAQ": 5218,
      "SEBD": 5219,
      "Ġ28160": 5220,
      "14814720": 5221,
      "18435": 5222,
      "17550": 5223,
      "177144": 5224,
      "177147": 5225,
      "120096": 5226,
      "3456": 5227,
      "34560": 5228,
      "34587": 5229,
      "44074000": 5230,
      "59040": 5231,
      "59048": 5232,
      "720000": 5233,
      "BMDA": 5234,
      "BMDN": 5235,
      "OHM": 5236,
      "ĠHN": 5237,
      "Ġ2009": 5238,
      "204848000": 5239,
      "204847000": 5240,
      "1293600": 5241,
      "34650": 5242,
      "232289": 5243,
      "6750000": 5244,
      "6671": 5245,
      "6673": 5246,
      "6674": 5247,
      "667735": 5248,
      "815000": 5249,
      "AFB": 5250,
      "AMCN": 5251,
      "BEC": 5252,
      "HEJ": 5253,
      "MBCN": 5254,
      "OBCO": 5255,
      "TTG": 5256,
      "2035144": 5257,
      "2035145": 5258,
      "2035143": 5259,
      "2035146": 5260,
      "ĠĠĠĠĠ": 5261,
      "ĠĠĠĠĠĠĠ": 5262,
      "}+...+(-": 5263,
      ",...,": 5264,
      "2239977": 5265,
      "227830": 5266,
      "227832": 5267,
      "227835": 5268,
      "227834": 5269,
      "227831": 5270,
      "311108": 5271,
      "54045": 5272,
      "680430": 5273,
      "680403": 5274,
      "9753": 5275,
      "9754": 5276,
      "9755": 5277,
      "BMNE": 5278,
      "DIG": 5279,
      "DQA": 5280,
      "IFJ": 5281,
      "IFO": 5282,
      "chohm": 5283,
      "khong": 5284,
      "khnglnhn": 5285,
      "}}}}{{{": 5286,
      "16723477": 5287,
      "18920": 5288,
      "37026": 5289,
      "77760": 5290,
      "7776300": 5291,
      "AHBS": 5292,
      "5452711": 5293,
      "}\\!\\!\\!\\!": 5294,
      "-...-": 5295,
      "-...-\\": 5296,
      "-...+\\": 5297,
      "-...+(-": 5298,
      "22425": 5299,
      "221100": 5300,
      "32768": 5301,
      "327292000": 5302,
      "39062": 5303,
      "390625": 5304,
      "448290": 5305,
      "44898430": 5306,
      "615000": 5307,
      "6972592": 5308,
      "73580": 5309,
      "8080": 5310,
      "92695100": 5311,
      "MCDA": 5312,
      "~(\\%)": 5313,
      "á»ĳ": 5314,
      "á»ĵng": 5315,
      "}}(\\%)": 5316,
      "2031000": 5317,
      "102354624": 5318,
      "ABMND": 5319,
      "ABNMFE": 5320,
      "Ġ47360": 5321,
      "131313": 5322,
      "1313131313": 5323,
      "32869": 5324,
      "19682": 5325,
      ")...(": 5326,
      "100699267": 5327,
      "262143": 5328,
      "6421000": 5329,
      "80902400": 5330,
      "5787710": 5331,
      "4121202990": 5332,
      "4121202991": 5333,
      "4121202989": 5334,
      "4121202992": 5335,
      ")!+": 5336,
      ")!}=\\": 5337,
      "21448": 5338,
      "2186": 5339,
      "22680": 5340,
      "31250": 5341,
      "31416": 5342,
      "31925": 5343,
      "312518": 5344,
      "42465000": 5345,
      "43593000": 5346,
      "46794000": 5347,
      "46712413": 5348,
      "5183": 5349,
      "56578": 5350,
      "66528": 5351,
      "70812": 5352,
      "79833600": 5353,
      "81626": 5354,
      "81648": 5355,
      "92514": 5356,
      "92576000": 5357,
      "9476": 5358,
      "GTG": 5359,
      "JKDA": 5360,
      "MJIK": 5361,
      "NQP": 5362,
      "Ġ~(*)": 5363,
      "^{+}}\\": 5364,
      ")\\!}^": 5365,
      "}}:{": 5366,
      "}}},\\,(": 5367,
      "Ġ14840": 5368,
      "Ġ14848": 5369,
      "Ġ14846": 5370,
      "20349": 5371,
      "2039187": 5372,
      "101793": 5373,
      "}+..+\\": 5374,
      "}+...\\": 5375,
      "}+....+{": 5376,
      "15775497": 5377,
      "25942": 5378,
      "2592100": 5379,
      "25921000": 5380,
      "194265": 5381,
      "194591": 5382,
      "194592": 5383,
      "4068289": 5384,
      "4068288": 5385,
      "\\!=\\!\\": 5386,
      "3991680": 5387,
      "abcde": 5388,
      "56782": 5389,
      "44316000": 5390,
      "470400": 5391,
      "APRQCD": 5392,
      "290642000": 5393,
      "290640000": 5394,
      "290644000": 5395,
      "41056": 5396,
      "4374": 5397,
      "6138": 5398,
      "717815000": 5399,
      "73728": 5400,
      "7385": 5401,
      "797161": 5402,
      "79760000": 5403,
      "8138589": 5404,
      "81848": 5405,
      "81868": 5406,
      "86400": 5407,
      "85688": 5408,
      "91410": 5409,
      "93333240": 5410,
      "9801": 5411,
      "CGD": 5412,
      "EBCFAD": 5413,
      "KHAD": 5414,
      "SMNPD": 5415,
      "hmnghch": 5416,
      "ldot": 5417,
      "ldotp": 5418,
      "áº£ng": 5419,
      "Ġsá»ĳ": 5420,
      "Ġ225280": 5421,
      "Ġ23040": 5422,
      "Ġ23038": 5423,
      "}}}.}": 5424,
      "2098960": 5425,
      "2098961": 5426,
      "1020604": 5427,
      "12750000": 5428,
      "15546": 5429,
      "1595280": 5430,
      "13258": 5431,
      "136080": 5432,
      "141713091": 5433,
      "ACGS": 5434,
      "242572": 5435,
      "242546": 5436,
      "302088933": 5437,
      "321556228": 5438,
      "MNEFPQ": 5439,
      "100861000": 5440,
      "100861016": 5441,
      "408242": 5442,
      "406221": 5443,
      "4062240": 5444,
      "Ġtclchngminh": 5445,
      "Ġtclbtngthcngvi": 5446,
      "ĠSNNN": 5447,
      "344964": 5448,
      "344963": 5449,
      "}}+...+\\": 5450,
      "147278480": 5451,
      "147278481": 5452,
      "147347190": 5453,
      "147347191": 5454,
      "155117520": 5455,
      "155117519": 5456,
      "Ġ39505475": 5457,
      "Ġ39505476": 5458,
      "bintrnkhong": 5459,
      "Ġ33935125": 5460,
      "Ġ33935120": 5461,
      "145422675": 5462,
      "145422676": 5463,
      "'~:~\\": 5464,
      "01059203": 5465,
      "2150600": 5466,
      "22653924": 5467,
      "335232000": 5468,
      "31904000": 5469,
      "316420": 5470,
      "43833000": 5471,
      "442176": 5472,
      "41600000": 5473,
      "413720": 5474,
      "46666620": 5475,
      "55786": 5476,
      "595000": 5477,
      "5151214": 5478,
      "690952": 5479,
      "71032869": 5480,
      "71960": 5481,
      "74088": 5482,
      "74813000": 5483,
      "79956782": 5484,
      "829440": 5485,
      "84510": 5486,
      "86661161": 5487,
      "94444200": 5488,
      "92690000": 5489,
      ";...;": 5490,
      "<...<": 5491,
      "COGB": 5492,
      "EIQ": 5493,
      "GABA": 5494,
      "Gistac": 5495,
      "Mec": 5496,
      "MHKE": 5497,
      "OHCK": 5498,
      "Skhc": 5499,
      "Thtvy": 5500,
      "Tacnchngminh": 5501,
      "aleph": 5502,
      "cngngvi": 5503,
      "frown": 5504,
      "iuphichngminh": 5505,
      "jun": 5506,
      "lsnguy": 5507,
      "lmthmnghch": 5508,
      "nhtkhnglnhn": 5509,
      "nlnnhtkhnglnhn": 5510,
      "psi": 5511,
      "simeq": 5512,
      "saochohm": 5513,
      "Ġtac": 5514,
      "ĠâĢĵ": 5515,
      "Ġ}}.{{": 5516,
      "ĠÄĳá»ĵng": 5517,
      "mathfrak": 5518,
      "Ġ21529": 5519,
      "}}}<{{": 5520,
      "}}}}{{.": 5521,
      "Ġ11520": 5522,
      "Ġ1966080": 5523,
      "204034000": 5524,
      "2041210": 5525,
      "204032000": 5526,
      "Ġ32768": 5527,
      "Ġ36864": 5528,
      "Ġ39424": 5529,
      "1048575": 5530,
      "10566000": 5531,
      "107791": 5532,
      "109584": 5533,
      "2014982": 5534,
      "}-...-\\": 5535,
      "Ġmá»Ļt": 5536,
      "16283241": 5537,
      "1611955": 5538,
      "161421000": 5539,
      "16267104": 5540,
      "1594322": 5541,
      "1345899": 5542,
      "138948873": 5543,
      "142492514": 5544,
      "1408722": 5545,
      "1445332": 5546,
      "142506": 5547,
      "143506": 5548,
      "1419943": 5549,
      "Ġ622080": 5550,
      "184426": 5551,
      "186792": 5552,
      "186624": 5553,
      "1710072": 5554,
      "27507768": 5555,
      "ABCIKC": 5556,
      "243238": 5557,
      "2435600": 5558,
      "309718": 5559,
      "309604": 5560,
      "323582": 5561,
      "3637960": 5562,
      "3667290": 5563,
      "36288000": 5564,
      "SBMDN": 5565,
      "Ġ94720": 5566,
      "Ġ983040": 5567,
      "}_+^*\\": 5568,
      "4080400": 5569,
      "4066272": 5570,
      "4070306": 5571,
      "265720": 5572,
      "2347600": 5573,
      "23991000": 5574,
      "509545": 5575,
      "Ġtá»©c": 5576,
      "ĠtrÃªn": 5577,
      "352623000": 5578,
      "45672181": 5579,
      "342227000": 5580,
      "34400000": 5581,
      "342187000": 5582,
      "6490123": 5583,
      "64268158": 5584,
      "33750000": 5585,
      "Ġkhoáº£ng": 5586,
      "756839": 5587,
      "65393000": 5588,
      "657720": 5589,
      "6531840": 5590,
      "398402": 5591,
      "37332960": 5592,
      "311392503": 5593,
      "80486000": 5594,
      "3888150": 5595,
      "3830475": 5596,
      "42187000": 5597,
      "Ġ1595280": 5598,
      "44163000": 5599,
      "richter": 5600,
      "479001600": 5601,
      "471688328": 5602,
      "685755000": 5603,
      "500000000": 5604,
      "BCDNMK": 5605,
      "74207281": 5606,
      "707645000": 5607,
      "78890012": 5608,
      "78685800": 5609,
      "87905673": 5610,
      "103163500": 5611,
      "Ġbiáº¿n": 5612,
      "290646000": 5613,
      "667735000": 5614,
      "223997760": 5615,
      "lsnguynlnnhtkhnglnhn": 5616,
      "lmthmnghchbintrnkhong": 5617,
      "saochohms": 5618
    },
    "merges": [
      "r a",
      "} {",
      "ra c",
      "f rac",
      "d frac",
      "Ġ \\",
      "l e",
      "i g",
      "= \\",
      "h t",
      "ig ht",
      "r ight",
      "f t",
      "i n",
      "r t",
      "s q",
      "sq rt",
      "le ft",
      "{ \\",
      "m a",
      "ma t",
      "mat h",
      "Ġ =",
      "l o",
      "r m",
      "} \\",
      "math rm",
      "^ {",
      "Ġ x",
      "lo g",
      "Ġ -",
      "Ġ +",
      "p i",
      "- \\",
      "+ \\",
      "Ġ 2",
      "_ {",
      "l a",
      "s p",
      "s t",
      "d i",
      "y le",
      "y st",
      "la yst",
      "sp layst",
      "di splayst",
      "displayst yle",
      "v e",
      "i m",
      ") \\",
      "} }",
      "l im",
      "in t",
      "} }{",
      ") ^",
      "t s",
      "} =\\",
      "; -",
      "c o",
      "i ts",
      "lim its",
      "o ve",
      "ove r",
      "Ġ 1",
      "a r",
      "{\\ ,",
      "l n",
      "r o",
      "2 0",
      "ro w",
      "ar row",
      "right arrow",
      "} =",
      "( \\",
      ") =",
      "Ġ 3",
      "over rightarrow",
      "( -",
      "ft y",
      "in fty",
      "Ġ a",
      "Ġ (",
      "1 0",
      "} +",
      "} ^{",
      "= -",
      "s e",
      "c a",
      "Ġ 0",
      "} ^",
      "a l",
      "se s",
      "ca ses",
      "Ġ f",
      "\\ \\",
      "Ġ y",
      "co s",
      "20 1",
      "}{ \\",
      "b e",
      "lo n",
      "co lon",
      "s in",
      "1 2",
      "d o",
      "n d",
      "A B",
      ") =\\",
      "+ (",
      "c do",
      "n e",
      "e nd",
      "g in",
      "be gin",
      "h a",
      "cdo t",
      "}{ -",
      "} ;",
      "} -",
      "Ġ z",
      "} +\\",
      "Ġ b",
      "^ {\\",
      "0 0",
      "Ġ 4",
      "Ġ m",
      "p ha",
      ") :",
      "t a",
      "_ {\\",
      "1 6",
      "b b",
      "Ġ {",
      "' (",
      ", \\",
      "1 5",
      "ig ne",
      "math bb",
      "al igne",
      "aligne d",
      "( -\\",
      "b ig",
      "1 3",
      "al pha",
      ") ,",
      "\\ }",
      "1 1",
      "2 5",
      "Ġ 5",
      "m in",
      "Ġ d",
      "; +\\",
      "m x",
      "a b",
      ") +",
      "201 8",
      ") ^{",
      "; \\",
      "= -\\",
      "g e",
      "] {",
      "le q",
      "Ġ <",
      "} _{",
      "1 4",
      "}= (",
      "l in",
      "over lin",
      "overlin e",
      "} }\\",
      "B C",
      "{ ,",
      "} (",
      "' =\\",
      "t frac",
      "u p",
      "| =",
      "= (",
      "Ġ 6",
      "c up",
      "t o",
      "Ġ\\ \\",
      "ra l",
      "201 7",
      "1 8",
      "} .",
      "{, }",
      "A C",
      "| \\",
      "{ -",
      "[ \\",
      "} -\\",
      "1 7",
      "2 7",
      "e l",
      "[ -",
      "AB C",
      "D el",
      "Del ta",
      ") -",
      "ma x",
      "2 4",
      "Ġ- \\",
      "Ġ c",
      "3 0",
      "Ġ C",
      "' =",
      "2 1",
      "c i",
      "r c",
      "ci rc",
      "\\ {",
      "] }",
      "S A",
      "ve c",
      "^ \\",
      "e x",
      "{ {",
      "} )",
      "}; \\",
      ") }",
      "Ġ+ \\",
      "Ġ R",
      "3 2",
      "1 9",
      "M N",
      "i d",
      "e ha",
      "w id",
      "eha t",
      "wid ehat",
      ") .",
      "Ġ >",
      "Ġ =\\",
      "se t",
      "} ,",
      "a x",
      "}^ {\\",
      "Ġ B",
      "e r",
      "ta n",
      "3 6",
      ": \\",
      "f o",
      "ral l",
      "fo rall",
      "A D",
      "} &",
      "Ġ ;",
      ". \\",
      "| +",
      "S B",
      "Ġ &",
      "Ġ |",
      "Ġ 7",
      "ve rt",
      "10 0",
      "00 0",
      "{ (",
      "| =\\",
      "Ġ 9",
      "S C",
      "} _",
      "a c",
      "6 0",
      "4 0",
      "201 9",
      ") (",
      "< \\",
      "c m",
      "Ġ )",
      "2 6",
      "ge q",
      "x y",
      "\\ {\\",
      "e m",
      "2 3",
      "n to",
      "r u",
      "pha nto",
      "ru le",
      "phanto m",
      "Ġ u",
      "Ġ {\\",
      "}{ (",
      "Ġ2 0",
      "p er",
      "per p",
      "be ta",
      "] \\",
      "ne q",
      ". .",
      ") }{",
      ")= -",
      "x q",
      "5 0",
      "0 8",
      "a ral",
      "p aral",
      "le l",
      "paral lel",
      "p m",
      ") >",
      "} ,\\",
      "2 9",
      "Ġ (\\",
      "Ġ t",
      "Ġ S",
      "_{ -",
      ",\\ ,",
      "3 5",
      "Ġ1 0",
      "Ġ [",
      "}= (-",
      "Ġ n",
      "Ġ }",
      "2 8",
      "Ġ 8",
      "4 5",
      "u s",
      "min us",
      "set minus",
      "ABC D",
      "3 4",
      "' \\",
      "\\\\ &",
      "Ġ (-",
      ")^ {\\",
      "^{ -",
      "}= -",
      "2 2",
      "4 8",
      "_{ [",
      "Ġ g",
      "Ġ }{",
      "Ġ _",
      "}} +",
      "8 1",
      "6 4",
      "M B",
      "b x",
      "3 3",
      "}}{ \\",
      "20 20",
      "b rac",
      "brac e",
      ") }^{",
      ")= -\\",
      "im e",
      "} <",
      "co t",
      ") <",
      "B ig",
      "Ġ1 2",
      "M A",
      "Ġ e",
      "201 6",
      "- (",
      "Ġ i",
      "}; +\\",
      "> \\",
      "t ex",
      "tex t",
      "Ġ A",
      "}^{ -",
      "h i",
      "Ġ r",
      "4 9",
      "C D",
      "g a",
      "b ar",
      "L e",
      "ft rightarrow",
      "Le ftrightarrow",
      "\\ ,",
      "p r",
      "pr ime",
      "Ġ k",
      ")= (",
      "= |",
      "7 5",
      "9 0",
      "p hi",
      ") +\\",
      "Ġ\\ ,",
      "; -\\",
      "| ^",
      "ca p",
      "\\ %",
      "t p",
      "}} (",
      "v ar",
      "var phi",
      "}. \\",
      "' '",
      ") }^",
      "}} =",
      "Ġ& =",
      "12 5",
      "ra y",
      "ar ray",
      "& =",
      "Ġ\\ {",
      "6 5",
      "A A",
      "\\ !",
      "3 9",
      "3 7",
      "Ġ {\\,",
      "_{ [-",
      "{ {\\",
      "O A",
      "}} }",
      "big g",
      ".. .",
      "( {",
      "3 1",
      "< -",
      "Ġ h",
      "5 4",
      "Ġ }_{",
      "M C",
      "1 20",
      "B D",
      "Ġ BC",
      "8 0",
      "d x",
      "\\ {-",
      "}; -\\",
      ")^{ -",
      "] ^",
      "o p",
      "=\\ {",
      "math op",
      "7 2",
      "}} =\\",
      "}+ (",
      "Ġ O",
      "}} -",
      "b o",
      "= (-\\",
      "e ga",
      "m ega",
      ", ~",
      "b c",
      "Ġ N",
      "Ġ1 6",
      "Ġ ^",
      "Ġ( -\\",
      "Ġ _{",
      "b ac",
      "k s",
      "s h",
      "la sh",
      "bac ks",
      "backs lash",
      "cdo ts",
      "Ġc m",
      "|+ |",
      "u nd",
      "er set",
      "und erset",
      "l brace",
      "' )",
      "a d",
      "4 1",
      "A M",
      "' ,",
      "Ġ }\\",
      "Ġ{ {",
      "3 8",
      "Ġ M",
      "] {\\",
      "9 6",
      "= (-",
      "MN P",
      "q u",
      "ab c",
      "\\! \\!",
      "' '(",
      "O M",
      "' }",
      "Ġ20 18",
      "| -",
      "Ġ D",
      "20 21",
      "4 2",
      "a p",
      "p ro",
      "ap pro",
      "appro x",
      "m bo",
      "Ġ AC",
      "math ca",
      "Ġ= -",
      "20 0",
      "mathca l",
      ") ;",
      "Ġ\\\\ &",
      "5 6",
      "mbo x",
      "E F",
      "b i",
      "c x",
      "text rm",
      "Ġ P",
      "r brace",
      "O B",
      "Ġ ;-",
      "Ġ1 5",
      "|= |",
      "4 4",
      "6 1",
      "i z",
      ") -\\",
      "qu ad",
      "5 2",
      "5 3",
      "r i",
      "}} }{",
      ", (",
      "4 3",
      "4 7",
      "6 8",
      "n g",
      "sp ac",
      ";\\ ,",
      "spac e",
      ") }\\",
      ", \\\\",
      "9 9",
      "S AB",
      "S D",
      "o mega",
      "} (\\",
      "| +\\",
      "â Ģ",
      ") }{\\",
      "Ġ AB",
      "Ġm x",
      "): \\",
      "âĢ Ļ",
      "5 1",
      ") ,\\",
      "= {",
      "+ ...",
      "do ts",
      "5 00",
      "Ġ AD",
      "100 9",
      "Ġ20 17",
      "' (-",
      "Ġa x",
      ") )",
      "Ġ .",
      "' }{",
      "6 3",
      "^{ -\\",
      "_{ (",
      "5 7",
      "Ġ [-",
      "6 7",
      "B B",
      "O C",
      "[ -\\",
      "| _",
      "8 5",
      "Ġ V",
      ") |",
      "S BC",
      "Ġ I",
      "5 5",
      "S N",
      "l dots",
      "), (",
      "' .",
      "a ng",
      "} >",
      "ang le",
      ") }=",
      "6 2",
      "^{ (",
      "10 8",
      "' +",
      "' =-\\",
      "7 3",
      "= [",
      "_ \\",
      "x f",
      "Ġ Ġ",
      "Ġ SB",
      "Ġ\\ }",
      "10 00",
      "Ġ0 00",
      "Ġ+ (",
      "}= -\\",
      "6 6",
      "7 7",
      "}+ {",
      "= {\\",
      "] .",
      "t ri",
      "} ;-",
      "tri angle",
      "] }{\\",
      "} )^",
      "Ġ\\ ;",
      "}\\ \\",
      "& =-",
      ") ]^",
      "Ġ F",
      "}} .",
      "): (",
      "BC D",
      "} |",
      "( |",
      "7 4",
      "C T",
      "} '",
      "Ġ ^{",
      "S AC",
      "Ġ ,",
      "> -",
      "O x",
      "\\ ,\\",
      "^ +",
      "s u",
      "Ġ\\ {-",
      "12 8",
      "{{ {",
      "ga m",
      "9 7",
      "C A",
      "} )\\",
      "}} +\\",
      "}} ;\\",
      ") ]",
      "9 8",
      "B AC",
      "C C",
      "I J",
      "N N",
      "S M",
      "Ġ1 3",
      "ĠC D",
      "36 0",
      "gam ma",
      ") {\\",
      "9 5",
      "M D",
      "Ġ v",
      "}{ {",
      "}}{ {",
      "14 4",
      "+... +",
      "' }=\\",
      "7 0",
      "S O",
      "a y",
      "Ġ SC",
      "Ġ\\ %",
      "Ġ= -\\",
      "! }",
      "O y",
      "O mega",
      "Ġ SA",
      "' =-",
      "5 8",
      "6 00",
      "b y",
      "b set",
      "| }",
      "Ġ2 5",
      "15 0",
      ")^{ -\\",
      "su bset",
      "' -",
      "4 6",
      "7 6",
      "8 2",
      "Ġ1 1",
      "25 0",
      "SC D",
      "2 16",
      "4 00",
      "D C",
      "b a",
      "Ġ )\\",
      "}} ^",
      "' =(",
      "0 1",
      "9 1",
      "B h",
      "\\ ;",
      "=\\ {-",
      "Ġ1 4",
      "7 8",
      "^ -",
      "{ )}^{",
      "Ġ ]",
      "}} -\\",
      "SA D",
      ") ,\\,",
      "O xy",
      "| .",
      "} (-",
      "{\\ ;",
      "}\\ }",
      ") )=",
      "A H",
      "a st",
      "Ġ :",
      "}\\ ,",
      "Ġa b",
      ") +(",
      "B A",
      "N C",
      "{ |",
      "Ġ ;+\\",
      "8 8",
      "I I",
      "n o",
      ",\\ ,\\",
      "ĠB D",
      "Ġ20 19",
      "no t",
      ". }",
      "3 00",
      "5 9",
      "A N",
      "A SB",
      "} <\\",
      "Ġ T",
      "Ġ }}",
      ")\\ ,",
      "25 6",
      "{, }\\",
      "AC D",
      "SB D",
      "= {{",
      "} >\\",
      "Ġ _{\\",
      "}{ {\\",
      "Ġ2 4",
      "Ġ1 00",
      "}^ *",
      "Ġ4 5",
      ")> \\",
      "^+ }",
      ") <\\",
      "6 25",
      "O O",
      "{ -\\",
      "Ġ |\\",
      "Ġ1 8",
      "20 00",
      "}- (",
      "Ġb x",
      "Ġ6 0",
      "' \\\\",
      ") }=\\",
      "+ {(",
      "S H",
      "c z",
      "Ġ w",
      "Ġ )^",
      "Ġ ABC",
      "}{ |",
      "10 5",
      "big l",
      "big r",
      "18 0",
      "bo t",
      "B M",
      "B AD",
      "C B",
      "Ġx f",
      "Ġ2 7",
      "AC B",
      "MNP Q",
      "! }{",
      "' }=",
      "; +",
      "< -\\",
      "O N",
      "S S",
      "m z",
      "y i",
      "| (",
      "201 5",
      "AB D",
      "el l",
      ") |\\",
      "+ {\\",
      "6 9",
      "8 4",
      "8 7",
      "B N",
      "B bb",
      "N M",
      "| {",
      "}} ^{\\",
      "00 00",
      "16 0",
      "ĠS D",
      "\\!\\! \\!\\!",
      ") )=\\",
      "D A",
      "^ *",
      "m y",
      "| -\\",
      "Ġ K",
      "Ġ= (",
      "10 1",
      ") }(",
      "+ |",
      "8 3",
      "8 6",
      "8 00",
      "9 3",
      "n x",
      "{ .}",
      "~ (",
      "~ \\",
      "Ġ Q",
      "Ġ l",
      "Ġ q",
      "Ġ }=\\",
      "mat ri",
      ")= +\\",
      "Ġ4 0",
      "). \\",
      "matri x",
      ") '=",
      "7 1",
      "I A",
      "a z",
      "t ime",
      "| <",
      "| _{\\",
      "_{ }",
      ")= |",
      "Ġd x",
      "}}+ {{",
      "}' {",
      "time s",
      "& \\!\\!\\!\\!",
      "( {\\",
      ") ]\\",
      ", -",
      "2 25",
      "9 4",
      "H K",
      ")\\ \\",
      "}} }\\",
      "}+ {\\",
      "\\\\ \\",
      "11 9",
      "ĠR h",
      "ĠA A",
      "Ġr l",
      ") (\\",
      "> -\\",
      "A MN",
      "S I",
      "S h",
      "d m",
      "{ [",
      "| }{",
      "Ġ )=",
      "Ġ\\ \\\\",
      "Ġ\\ ,\\",
      "Ġ3 2",
      "Ġ3 6",
      "40 36",
      "= (\\",
      "N D",
      "[ (",
      "d y",
      "u v",
      "over set",
      "Ġ{ -",
      ",\\ ;",
      "BC C",
      "\\% /",
      "^- }",
      ") ?",
      ". {",
      "5 12",
      "8 9",
      "9 2",
      "A G",
      "C N",
      "O z",
      "P Q",
      "}} ,",
      ")^ \\",
      ")- (",
      "24 0",
      "'' '",
      ") }+",
      "1 12",
      "A E",
      "A K",
      "C M",
      "N B",
      "N S",
      "b z",
      "m n",
      "} /",
      "} )^{",
      "}} >",
      "}} }{\\",
      "}+ ...",
      "13 5",
      "Ġ6 4",
      "100 8",
      "Ġ9 0",
      "Ġ20 20",
      "' ;",
      ") )^",
      "0 5",
      "1 10",
      "1 15",
      "7 9",
      "= [-",
      "B SC",
      "K D",
      "] ,",
      "] =",
      "Ġ ABCD",
      "Ġ ...",
      "Ġ3 5",
      "): \\,",
      "14 0",
      "}) }{",
      "bigg r",
      "ĠO B",
      "ĠO y",
      "}\\\\ &",
      ") }}",
      ") '=\\",
      ") !}",
      "A I",
      "A P",
      "C P",
      "O AB",
      "p t",
      "| >",
      "} )=",
      "} _{\\",
      "Ġ }^",
      "Ġ }{\\",
      "Ġ )^{",
      "Ġ ;\\",
      "_{ _",
      "ar c",
      "10 4",
      "24 3",
      "xy z",
      "Ġ\\, (",
      "D B",
      "R ight",
      "} |=",
      "Ġ\\ {\\",
      "Ġ2 1",
      ")= {\\",
      "Ġ3 0",
      "10 3",
      "16 9",
      "13 0",
      "]{ (",
      "Ġ} _{\\",
      "Right arrow",
      "' :\\",
      ") |=",
      "C SA",
      "M P",
      "O I",
      "] ^{",
      "a f",
      "a t",
      "c b",
      "k hi",
      "l l",
      "| ^{",
      "} ]",
      "Ġ E",
      "Ġ G",
      "Ġ J",
      "Ġ }}\\",
      "=\\ {(",
      "^{ |",
      "Ġ+ {(",
      "ve e",
      ")\\ ,\\",
      "}} <",
      "}}{ (",
      "10 2",
      "10 7",
      "10 9",
      "12 1",
      "}- {",
      ",\\ !",
      "|= |\\",
      "19 2",
      "34 3",
      "48 0",
      "bigg l",
      "Ox z",
      "IJ K",
      "}/ \\",
      "! }{(",
      ") }^{\\",
      ", +\\",
      ", (\\",
      "- {",
      ". (",
      "0 7",
      "2 20",
      "3 24",
      "= {{\\",
      "I C",
      "b d",
      "e qu",
      "i v",
      "k m",
      "Ġ MN",
      "Ġ :\\",
      "^{ ^{\\",
      "}} ^{",
      "Ġ1 7",
      "20 8",
      "10 10",
      "10 24",
      "12 4",
      "): -",
      "Ġ{ -\\",
      "13 6",
      "\\} .",
      "Ġ5 4",
      "Ġd m",
      "Ġ< -",
      "14 5",
      "\\{ -\\",
      "Ġ> \\",
      "Oy z",
      "equ iv",
      "' >",
      "' }\\",
      "' '=",
      ") {",
      "0 6",
      "D D",
      "S ABC",
      "\\ ;\\",
      "` `",
      "b f",
      "l g",
      "| }{\\",
      "} [",
      "_{ -\\",
      "20 22",
      "10 6",
      "}^ \\",
      "12 3",
      "Ġb i",
      "14 7",
      "24 00",
      "30 4",
      "}& (",
      "40 34",
      "26 5",
      "28 9",
      "}}+ {{\\",
      "Big g",
      "'' '(",
      "âĢĻ (",
      "Ġ\\; {\\",
      "Oxy z",
      "^* }",
      "' <",
      "' }}{",
      "' (\\",
      "0 2",
      "4 000",
      "5 000",
      "A SC",
      "B H",
      "G G",
      "I B",
      "d ge",
      "e dge",
      "m p",
      "m t",
      "w edge",
      "| }^",
      "| <\\",
      "Ġ o",
      "Ġ\\ ,\\,",
      "}} }}",
      "Ġ1 20",
      "}^{ {",
      "12 6",
      "12 7",
      "16 2",
      "15 3",
      "13 3",
      "), ~",
      "AC C",
      "ĠR l",
      "19 0",
      "SC A",
      "},\\ ,",
      "ĠS AB",
      "28 0",
      "28 8",
      "Ġr h",
      "\\, (",
      "|- |",
      ")] =",
      "}+... +\\",
      "' '\\",
      ") ;\\,",
      "- |",
      "2 15",
      "3 20",
      "3 50",
      "3 75",
      "7 25",
      "= &",
      "= &\\!\\!\\!\\!",
      "A OB",
      "H B",
      "I M",
      "M K",
      "O MN",
      "S P",
      "{ [-",
      "| )",
      "Ġ ~",
      "Ġ MC",
      "20 7",
      "Ġa d",
      "201 4",
      "16 4",
      "16 5",
      "16 8",
      "15 6",
      "11 7",
      "Ġ5 0",
      "Ġc x",
      "\\{ {",
      "SB A",
      "Ġ20 16",
      "ĠO C",
      "ĠO x",
      "+... +\\",
      "&\\!\\!\\!\\! =&\\!\\!\\!\\!",
      "' }+\\",
      ") }}{",
      ") }-",
      "+ }",
      "2 10",
      "2 11",
      "3 15",
      "4 49",
      "5 45",
      "9 00",
      "A MB",
      "A EF",
      "D N",
      "H A",
      "I H",
      "M I",
      "a a",
      "{ (\\",
      "| |",
      "| _{",
      "} )=\\",
      "} :\\",
      "} |=\\",
      "Ġ }^{",
      "Ġ ):",
      "Ġ ^\\",
      "=\\ {\\",
      "Ġ2 6",
      "_{ _{",
      "AB B",
      ";\\ ;",
      "17 0",
      "17 6",
      "27 0",
      "27 2",
      "24 2",
      "24 5",
      "Ġ=\\ {",
      "40 35",
      "23 8",
      "29 0",
      "35 4",
      "Ġk f",
      "'' +",
      "') )",
      "+... +(",
      "& =\\",
      ") }+\\",
      ") }{(",
      "- {\\",
      "3 25",
      "4 50",
      "6 24",
      "8 40",
      "A O",
      "C EF",
      "H D",
      "I V",
      "M G",
      "M Q",
      "N P",
      "P N",
      "\\ }\\",
      "b t",
      "c d",
      "} '=\\",
      "Ã ł",
      "Ġ j",
      "Ġ )=\\",
      "Ġ MB",
      "}{ {{",
      "}\\ ,\\",
      "_{ (-",
      "}= {",
      ")= {",
      "=- {",
      "16 00",
      "Ġ{ {\\",
      "13 7",
      "11 4",
      "25 2",
      "25 3",
      "27 8",
      "}) .",
      "};\\ ,",
      "19 9",
      "MN C",
      "AD C",
      "Ġ| ^",
      "40 38",
      "\\\\& (",
      "({ -\\",
      "ĠO N",
      "ĠO z",
      "),\\ ;",
      "57 6",
      "II I",
      "\" (",
      "( {-",
      ") }.",
      "+ {",
      "0 3",
      "0 4",
      "2 12",
      "4 12",
      "7 29",
      "7 0000",
      "9 60",
      "= +\\",
      "= |\\",
      "G H",
      "G M",
      "H C",
      "M H",
      "M ax",
      "Y Z",
      "x e",
      "{ }^\\",
      "| )=",
      "Ġ Z",
      "Ġ p",
      "Ġ )}",
      "Ġ .\\",
      "}{ (\\",
      "}\\ !",
      "}\\ ,(",
      "Ġx y",
      ")\\ ;",
      "}} ;",
      "}} >\\",
      "Ġ1 9",
      "20 5",
      "20 10",
      "12 2",
      "AB M",
      "16 1",
      "), (\\",
      "11 8",
      "Ġ< \\",
      "14 3",
      "18 5",
      "ĠC A",
      "SB N",
      "Ġ& -",
      "Ġ& \\",
      "23 4",
      "ĠS BC",
      "48 6",
      "}< |",
      ")< {",
      "CD D",
      "200 9",
      "); (",
      ";\\, -",
      ")}\\ ,",
      "})\\ \\",
      "not in",
      ")\\\\ &",
      "arc sin",
      "Ġ}}\\ ,",
      "! \\",
      "' ^",
      "' )^",
      ") '",
      ") }}\\",
      "* )",
      ", }\\",
      "1 13",
      "2 17",
      "5 21",
      "6 20",
      "6 45",
      "6 48",
      "6 72",
      "7 50",
      "; (",
      "= {(",
      "A MNP",
      "B F",
      "B EF",
      "C E",
      "D E",
      "F E",
      "F G",
      "I K",
      "K L",
      "M M",
      "N A",
      "O D",
      "O P",
      "P A",
      "S E",
      "S K",
      "a h",
      "m i",
      "y set",
      "| }+",
      "} ?",
      "} )-",
      "Ġ ~\\",
      "Ġ= {\\",
      "Ġ2 8",
      "}} }+",
      "}} =-",
      "}}{ -",
      "20 25",
      "}= (-\\",
      ")= (-",
      "Ġ( (",
      "AB N",
      "00 5",
      "00 000",
      "Ġ4 00",
      "Ġ{ (",
      "Ġ5 00",
      "]{ {",
      "14 1",
      "14 8",
      "BC NM",
      "18 4",
      "18 7",
      "18 8",
      "17 1",
      "17 5",
      "17 7",
      "27 5",
      "ĠB h",
      "40 5",
      "em pt",
      "50 3",
      "50 4",
      "ĠS S",
      ",\\, (",
      "Ġi z",
      "text bf",
      "Ġk m",
      "'' (\\",
      "\\! ,",
      "120 0",
      "âĢĻ =",
      "01 15",
      "AH K",
      "empt yset",
      "! .",
      "' :",
      "' +\\",
      ") )\\",
      ") !}{",
      "0 32",
      "2 30",
      "2 60",
      "3 36",
      "3 45",
      "4 30",
      "4 40",
      "5 90",
      "7 20",
      "= ~",
      "B K",
      "B MD",
      "C AB",
      "E D",
      "I m",
      "I AB",
      "O F",
      "O H",
      "P D",
      "[ {",
      "\\ }}",
      "] }=",
      "a i",
      "d B",
      "m id",
      "t in",
      "x a",
      "x Oy",
      "| ,",
      "| .\\",
      "} '(",
      "} )+",
      "Ġ H",
      "Ġ }}{",
      "Ġ )+",
      "Ġ |=",
      "Ġ ]\\",
      "}\\ ;\\",
      "Ġ- (",
      "Ġ2 2",
      "Ġ2 3",
      "Ġ2 00",
      "Ġ2 81",
      "_{ (-\\",
      ")\\ }",
      "}} )",
      "}} }=",
      "}} <\\",
      "20 48",
      "Ġ3 4",
      "}^{ -\\",
      "12 9",
      "00 4",
      "Ġ4 8",
      "16 3",
      "15 2",
      "15 4",
      "15 5",
      "13 2",
      "11 1",
      ";\\ ,\\",
      "}_{ (",
      "}_{ (\\",
      "BC A",
      "}. {",
      "AC M",
      "24 6",
      "Ġc z",
      "{{ {\\",
      "19 6",
      "MN Q",
      "ĠB B",
      "ĠB N",
      "AD F",
      "Ġ| _",
      "Ġ7 2",
      "Ġ20 21",
      "28 5",
      "34 6",
      "64 6",
      "'' -",
      "54 2",
      ",~ \\",
      "ĠAC D",
      "ĠP Q",
      "^+ _",
      "NN NN",
      "^- _",
      "tin y",
      "! (",
      "& >",
      "' |",
      "' }(",
      ") }=(",
      ") }-\\",
      ") |=\\",
      ") |-",
      ") ~\\",
      "+ {{\\",
      "1 16",
      "2 32",
      "3 13",
      "3 30",
      "3 32",
      "4 20",
      "4 32",
      "5 29",
      "6 75",
      "6 67",
      "7 00",
      "7 26",
      "7 68",
      "8 15",
      "9 28",
      "< |",
      "A F",
      "A MC",
      "B E",
      "B G",
      "B I",
      "B P",
      "B MC",
      "C SB",
      "D BC",
      "H E",
      "K B",
      "M AB",
      "M BC",
      "O S",
      "O BC",
      "O ABC",
      "P C",
      "P M",
      "Q C",
      "T T",
      "] =\\",
      "] }\\",
      "] =(",
      "d t",
      "h B",
      "k x",
      "y z",
      "| {\\",
      "| }\\",
      "| =-",
      "| >\\",
      "} ~(",
      "~ =~",
      "Ġ '",
      "Ġ [\\",
      "Ġ ).",
      "Ġ )=-",
      "Ġ MA",
      "lo r",
      "^{ '}(",
      "}} }=\\",
      "}} ,\\",
      "}} :\\",
      "}} .\\",
      "}}{ {\\",
      "}}{ {(",
      ")^ -",
      "20 4",
      "20 24",
      "20 35",
      "}= +\\",
      "10 000",
      "}^{ {{",
      "=- {{",
      "Ġb c",
      "Ġb y",
      "Ġb z",
      "00 65",
      "15 00",
      "13 4",
      "13 9",
      "13 50",
      "\\} ,",
      "25 00",
      "14 6",
      "14 9",
      "BC E",
      "BC MN",
      "Ġ6 1",
      "|\\ ,",
      "17 25",
      "24 8",
      "24 50",
      "30 9",
      "19 5",
      "Ġ> -",
      "}, ...",
      "36 9",
      "AD D",
      "Ġ| =\\",
      "Ġ9 6",
      "SC B",
      "SC MN",
      "40 40",
      "26 9",
      "23 9",
      "29 3",
      "ĠS SN",
      "Ġn x",
      "Ġ8 1",
      "45 5",
      "ABCD EF",
      "ĠA N",
      "CD M",
      "Ġh r",
      "ĠN SS",
      "ĠD N",
      "}}}{ {",
      ";\\, +\\",
      "ĠI AB",
      "ĠĠ ĠĠ",
      "su m",
      "NN S",
      "Ġv Ãł",
      "^- }\\",
      ")\\, |\\,",
      "Ġ100 9",
      "SS S",
      "^* }\\",
      "}+... +",
      "' +(",
      "( *",
      "* }",
      "+ (\\",
      ", }",
      ", -\\",
      ", ...",
      "- {{",
      ". {\\",
      ". .\\",
      "0 9",
      "0 17",
      "0 68",
      "2 23",
      "2 278",
      "3 11",
      "3 000",
      "3 40",
      "3 80",
      "5 20",
      "5 13",
      "5 40",
      "5 75",
      "6 000",
      "6 80",
      "7 000",
      "8 44",
      "9 75",
      "9 37",
      "; {",
      "B MN",
      "D I",
      "D P",
      "D Q",
      "D AB",
      "E C",
      "F C",
      "F H",
      "G E",
      "I F",
      "I O",
      "I BC",
      "K I",
      "M S",
      "M ON",
      "N r",
      "N SN",
      "O G",
      "P B",
      "Q B",
      "S a",
      "[ {\\",
      "[ ]{",
      "[ {-",
      "] }{",
      "] }^",
      "] =(-",
      "c h",
      "e n",
      "k h",
      "m c",
      "n y",
      "x F",
      "x b",
      "y x",
      "y y",
      "z x",
      "{ (-",
      "| )\\",
      "} :",
      "Ġ )^{\\",
      "}{ {{\\",
      "}} }}{",
      "}} }^",
      "}} =(",
      ")^ +}",
      "Ġ1 44",
      "Ġ1 250",
      "20 23",
      "}= [-",
      "Ġ3 80",
      "Ġa c",
      "201 2",
      "201 3",
      "AB I",
      "}; +",
      "Ġ4 9",
      "): {(",
      "16 7",
      "16 35",
      "15 12",
      "big triangle",
      "13 1",
      "]{ -",
      "14 40",
      "}}\\ \\",
      "Ġ6 00",
      "Ġ6 840",
      "18 9",
      "ĠC C",
      "{{ (",
      "}) }^{",
      "32 3",
      "19 1",
      "). ..\\",
      ":\\ ;",
      "40 3",
      "40 39",
      "23 3",
      "23 5",
      "}{( {",
      ")}{ {(",
      "},\\ ,\\",
      "ĠS N",
      "ĠS h",
      "ĠS SS",
      "28 3",
      "ABCD MNP",
      "33 3",
      "75 00",
      "90 725",
      "'' '\\",
      "}}= {{",
      "37 0",
      "BD A",
      "BD C",
      "ĠBC D",
      "ĠO P",
      "ĠO MM",
      "ĠN P",
      "') )=",
      "') )=\\",
      "38 4",
      "ĠM P",
      "ĠD C",
      "ĠD M",
      "200 1",
      "200 7",
      ")}\\ :\\",
      "âĢĻ )",
      "57 0",
      "67 6",
      "SN N",
      "77 7",
      "^+ }{\\",
      "Ġ\\% /",
      "76 9",
      "\\; (",
      "Ġ] .\\",
      "AH B",
      ",\\,\\ ,\\",
      "}^* \\",
      "ĠK C",
      "arc cos",
      "106 40",
      "545 27",
      "}\\! \\!\\!",
      "SCMN KL",
      "(* )\\",
      "en space",
      "bigtriangle up",
      "90725 500",
      "! }{\\",
      "& <",
      "& \\",
      "' )\\",
      "' }^",
      "' )=\\",
      "' '=\\",
      "' |=",
      "' }}=",
      ") )=-\\",
      ") '''",
      ") !\\",
      "- {{\\",
      "- ...",
      ". \\\\",
      ". ;\\",
      "0 23",
      "1 100",
      "2 13",
      "2 24",
      "2 21",
      "2 36",
      "2 29",
      "2 28",
      "2 200",
      "3 27",
      "3 34",
      "3 90",
      "4 16",
      "4 25",
      "4 23",
      "4 48",
      "4 62",
      "4 272",
      "5 60",
      "5 50",
      "5 54",
      "5 97",
      "6 15",
      "6 18",
      "6 30",
      "6 40",
      "6 50",
      "6 97",
      "7 35",
      "7 93",
      "8 10",
      "8 08",
      "8 75",
      "8 41",
      "9 000",
      "9 26",
      ": +\\",
      ": (\\",
      "< (",
      "= {-",
      "A x",
      "C F",
      "C H",
      "C MN",
      "D M",
      "D MN",
      "E G",
      "E OF",
      "G A",
      "H M",
      "H BC",
      "I D",
      "J C",
      "K A",
      "M E",
      "M AC",
      "M CD",
      "S Q",
      "S MN",
      "S MC",
      "X YZ",
      "\\ ,\\,(",
      "] .\\",
      "a e",
      "a ab",
      "i st",
      "n N",
      "n i",
      "n m",
      "q x",
      "r in",
      "s ma",
      "| }=",
      "} ),",
      "} '\\",
      "} )^{\\",
      "} |+|",
      "} |=|",
      "~ (\\",
      "á »",
      "Ġ /",
      "Ġ ^{\\",
      "Ġ ]}",
      "Ġ ^{-\\",
      "}{ {(",
      "{\\ {",
      "math rin",
      "}\\ :(\\",
      "Ġx dx",
      "Ġ+ |",
      "}} \"",
      "}} (\\",
      "}} +(",
      "{\\, \\",
      "20 3",
      "20 30",
      "20 08",
      "}= {\\",
      "}= {{",
      "Ġ3 1",
      "Ġ3 3",
      "Ġ3 51",
      "Ġa l",
      "Ġ( *)",
      "10 21",
      "10 23",
      "10 34",
      "10 37",
      "12 45",
      "12 304",
      "AB O",
      "AB S",
      "AB MN",
      "AB NM",
      "AB KD",
      "00 6",
      "Ġ4 7",
      "16 000",
      ",\\ :",
      "13 13",
      "13 72",
      "13 44",
      "25 1",
      "Ġ5 5",
      "Ġ5 20",
      ")+ (\\",
      ";\\ ;\\",
      "14 58",
      "}}\\ ,",
      "BC M",
      "}( (",
      "18 1",
      "17 2",
      "17 9",
      "17 12304",
      "27 3",
      "ABC M",
      "ABC MNC",
      "24 4",
      "\\{ (",
      "]} [",
      "SA I",
      "SA M",
      "}) }",
      "ĠR a",
      "32 2",
      "32 6",
      "32 8",
      "19 68",
      "MN E",
      "). ..",
      "}, -",
      "}, ~",
      "36 1",
      "36 3",
      "36 5",
      "36 8",
      "36 00",
      "Ġ; -\\",
      "|+ |\\",
      "Ġ7 5",
      "100 1",
      "100 6",
      "Ġ9 00",
      "60 54",
      "40 33",
      "40 37",
      "40 96",
      "Ġ) }}",
      "26 1",
      "26 2",
      "Ġu v",
      "50 5",
      ")> -",
      "ĠS O",
      "Ġ} :\\",
      "28 1",
      "45 00",
      "\\\\& \\",
      "\\\\& -\\",
      "48 1",
      "64 2",
      "MB KD",
      ")}^{ {",
      "\\, ,",
      "\\% .",
      "'' )^",
      "'' '=\\",
      "'' '=",
      "'' '=-\\",
      "125 8",
      "65 61",
      "39 7",
      "Ġh R",
      "54 36",
      "Ġ}_{ {{",
      "120 29",
      "BD D",
      "80 90",
      "=\\{ -\\",
      "bc h",
      "ĠM D",
      "ĠD D",
      "ĠD O",
      "); ~",
      "EF GH",
      "|=| (",
      "43 00",
      "99 9",
      "SD A",
      "SD C",
      "ĠAB D",
      "),\\ ,\\",
      "dots c",
      "57 8",
      "}> {",
      "ĠĠ Ġ",
      "66 6",
      "Ġ\\; (",
      "91 125",
      "\\; (\\",
      "}\\, {\\",
      "\\!\\!\\!\\! \\!,",
      "}}+{{ (",
      "119 51",
      "AMN D",
      "Ġ... ,",
      "AI B",
      "':\\ ;",
      "ll l",
      "&\\!\\!\\!\\!=&\\!\\!\\!\\! -",
      "412 12029",
      "}\\! \\!\\!\\!\\!\\!,",
      "590 49",
      ")^- }",
      "},... ,\\",
      "}\\!\\!\\! \\!,",
      "sma ll",
      "mathrin g",
      "% )",
      "' -\\",
      "' }}",
      "' },",
      "( (",
      "( (\\",
      "( {{",
      ") !",
      ") [",
      ") }=(-",
      "* }}",
      "+ [",
      ", {",
      ". {{",
      "0 16",
      "0 25",
      "1 201",
      "2 14",
      "2 18",
      "2 27",
      "2 26",
      "2 250",
      "2 304",
      "2 187",
      "3 12",
      "3 14",
      "3 18",
      "3 21",
      "3 19",
      "3 125",
      "3 200",
      "4 15",
      "4 13",
      "4 24",
      "4 21",
      "4 60",
      "4 35",
      "4 45",
      "4 64",
      "4 63",
      "4 67",
      "5 25",
      "5 18",
      "5 27",
      "5 24",
      "5 30",
      "5 26",
      "5 28",
      "5 33",
      "5 65",
      "5 80",
      "5 53",
      "5 99",
      "5 180",
      "6 21",
      "6 36",
      "6 65",
      "7 18",
      "7 30",
      "7 08",
      "7 98",
      "8 20",
      "8 16",
      "8 17",
      "8 000",
      "8 68",
      "8 62",
      "8 1000",
      "8 78",
      "9 25",
      "9 90",
      "9 47",
      "9 85",
      "; (\\",
      "; {{",
      "B O",
      "B Q",
      "B x",
      "B y",
      "B AA",
      "B MNP",
      "B OC",
      "C I",
      "C AD",
      "C OA",
      "C MNP",
      "D F",
      "D EF",
      "E B",
      "E M",
      "E N",
      "E HK",
      "G T",
      "H N",
      "I N",
      "I S",
      "I OM",
      "J A",
      "J K",
      "K M",
      "K N",
      "M F",
      "M J",
      "N F",
      "N Q",
      "S F",
      "S G",
      "X A",
      "X B",
      "] +",
      "] >",
      "] ^{\\",
      "a n",
      "a v",
      "b g",
      "b xy",
      "h z",
      "i y",
      "m f",
      "m u",
      "n r",
      "p x",
      "r h",
      "v i",
      "v dt",
      "x i",
      "x z",
      "z y",
      "z z",
      "| )-",
      "| -(",
      "| }{|",
      "} |\\",
      "Â °",
      "Ä ĳ",
      "Ġ ?",
      "Ġ L",
      "Ġ }=",
      "Ġ '(",
      "Ġ ,\\",
      "Ġ },",
      "Ġ |+",
      "Ġ ^{-",
      "Ġ _{[",
      "Ġ ~(",
      "Ġ }}={{",
      "{\\ {-",
      "Ġ= (-",
      "}\\ ;",
      "^{ +",
      "^{ ^{-\\",
      "^{ *}}",
      "Ġ- {",
      "Ġ- |",
      "Ġ2 9",
      "Ġ2 56",
      "_{ _{\\",
      ")\\ !",
      "}} :",
      "}} }-",
      "}} ;+\\",
      "}} }}\\",
      "}} },",
      "}} },\\",
      "}} -(",
      "Ġ1 48",
      "Ġ1 56",
      "20 2",
      "20 32",
      "20 000",
      "20 40",
      "20 29",
      "20 28",
      "20 34",
      "20 39",
      "20 42",
      "}= |",
      ")= {{",
      "Ġ3 9",
      "Ġa R",
      "Ġa z",
      "10 11",
      "10 18",
      "10 17",
      "10 80",
      "}+ |",
      "}+ ..",
      "}+ ({",
      "}^{ +}",
      "=- |",
      "12 80",
      "12 72",
      "AB F",
      "AB H",
      "AB EF",
      "AB ND",
      "}; {",
      "Ġb d",
      "Ġ4 3",
      "Ġ4 000",
      "Ġm y",
      "): {\\",
      "16 6",
      "16 40",
      "16 80",
      "16 10640",
      "'( -\\",
      ",\\ ;\\",
      ",\\ ,\\,",
      "15 1",
      "15 7",
      "15 625",
      "13 26",
      "), ~(",
      "25 9",
      "25 20",
      "25 65",
      "25 93",
      "25 92",
      "Ġ5 3",
      "Ġ5 6",
      "min h",
      "14 2",
      "BC B",
      "BC N",
      "Ġ6 3",
      "Ġ6 5",
      "Ġ6 6",
      "18 2",
      "18 00",
      "17 3",
      "17 90",
      "27 6",
      "27 61",
      "27 07",
      "ABC A",
      ")- (\\",
      "24 1",
      "24 7",
      "24 000",
      "Ġc d",
      "30 2",
      "30 6",
      "30 69",
      "ĠC H",
      "ĠC I",
      "ĠC P",
      "'= {",
      "21 9",
      "ex ist",
      "}) }^",
      "}) }{\\",
      ")} '=",
      "32 80",
      "19 3",
      "19 4",
      "19 7",
      "19 8",
      "19 45",
      "19 98",
      "19 87",
      "MN D",
      "MN CD",
      "Ġ> -\\",
      "}, (",
      "}, -\\",
      "ax y",
      "AD M",
      "}& \\",
      "SB I",
      "Ġ& =\\",
      "Ġ7 7",
      "Ġ7 9",
      "100 7",
      "Ġ9 9",
      "SC I",
      "60 2",
      "60 4",
      "60 8",
      "60 53",
      "60 51",
      "40 32",
      "40 42",
      "40 68",
      "26 4",
      "26 6",
      "26 7",
      "23 1",
      "23 7",
      "Ġ20 22",
      "50 40",
      "50 45",
      "29 2",
      "29 6",
      "ĠS a",
      "ĠS AC",
      "35 3",
      "35 5",
      "35 6",
      "35 7",
      "35 9",
      "28 7",
      "28 00",
      "45 3",
      "45 6",
      "45 9",
      "ABCD E",
      "34 7",
      "48 00",
      "64 3",
      "MB ND",
      "33 1",
      ")}^{ -",
      ")}^{ -\\",
      "ĠA E",
      "49 6",
      "49 99",
      "CD A",
      "CD E",
      "CD EF",
      "\\, (\\",
      "}}= {{\\",
      "Ġ\\{ -\\",
      "65 6",
      "\\! =\\",
      "39 1",
      "39 5",
      "39 9",
      "39 99",
      "... +",
      "54 7",
      "MC A",
      "ĠO AB",
      "ĠO BC",
      "}}- {{",
      "ĠN NN",
      "AM D",
      "', (",
      "38 2",
      "ĠM Q",
      "96 6",
      "abc d",
      "|- |\\",
      "ĠD B",
      "Ġ=- {",
      "200 5",
      "); (-",
      "56 7",
      "EF G",
      "44 3",
      "44 6",
      "}}}{ {{",
      "43 24",
      "47 0",
      "47 7",
      "47 2761",
      "68 5",
      "68 9",
      "ng vi",
      "ng minh",
      "âĢĻ \\",
      "={ (\\",
      "500 00",
      "57 1",
      "57 4",
      "57 50",
      "67 3",
      "67 4",
      "67 20",
      "66 66",
      "77 6",
      "\\,\\ %",
      "\\,\\ ,\\,\\",
      ")] +\\",
      "98 3",
      "98 4",
      "NN NS",
      "58 4",
      "),\\, (",
      "300 3",
      "SI F",
      "Oz x",
      "112 7",
      "115 2",
      "ĠOy z",
      "AP R",
      "arc tan",
      "ĠG I",
      "`` \\",
      "=& -",
      "290 64",
      "|, |",
      "ch ngminh",
      "2707 25",
      "exist s",
      "! =",
      "! }}",
      "! }+\\",
      "\" =\\",
      "\" -\\",
      "\" +\\",
      "\" =-\\",
      "& <-",
      "' {",
      "' ):",
      "' ,\\",
      "' },\\",
      "' }.\\",
      "' ,~",
      "' |=|",
      "' ,\\;",
      "( *)",
      ") (-",
      ") ;\\",
      ") ]}",
      ") )}",
      ") |+",
      ") )=-",
      ") }.\\",
      ") }}{(",
      ") !}{(",
      "+ (-",
      ", +",
      "- ~",
      "- {|",
      ". ,",
      "0 28",
      "0 48",
      "0 73",
      "1 125",
      "2 256",
      "3 360",
      "3 2000",
      "3 240",
      "3 141",
      "4 10",
      "4 18",
      "4 29",
      "4 22",
      "4 75",
      "4 65",
      "4 37",
      "4 120",
      "4 72",
      "5 10",
      "5 11",
      "5 14",
      "5 35",
      "5 72",
      "5 52",
      "5 275",
      "6 13",
      "6 17",
      "6 28",
      "6 64",
      "6 39",
      "6 63",
      "6 10000",
      "7 15",
      "7 11",
      "7 17",
      "7 36",
      "7 60",
      "7 90",
      "7 65",
      "7 37",
      "7 80",
      "7 38",
      "7 61",
      "7 97",
      "8 13",
      "8 18",
      "8 32",
      "8 60",
      "8 64",
      "8 72",
      "8 56",
      "8 61",
      "8 99",
      "8 95",
      "8 82",
      "8 666",
      "9 10",
      "9 11",
      "9 14",
      "9 18",
      "9 36",
      "9 35",
      "9 22",
      "9 33",
      "9 80",
      "9 72",
      "9 96",
      "9 52",
      "; |",
      "= ~\\",
      "> {\\",
      "> (\\",
      "A Q",
      "A S",
      "A X",
      "A ABC",
      "A OC",
      "A IJ",
      "A OO",
      "B Y",
      "B SA",
      "B PQ",
      "C G",
      "C J",
      "C K",
      "C S",
      "C y",
      "C MA",
      "C SD",
      "D G",
      "D H",
      "D z",
      "D AC",
      "D ABC",
      "D SA",
      "D AA",
      "D CA",
      "E A",
      "E H",
      "E K",
      "E BC",
      "F A",
      "F D",
      "F KM",
      "G I",
      "G K",
      "G BC",
      "H I",
      "H AB",
      "I G",
      "I P",
      "I BD",
      "I FE",
      "K H",
      "K Q",
      "K MN",
      "M O",
      "M m",
      "M z",
      "M EF",
      "M BCD",
      "M OO",
      "M BCC",
      "N E",
      "N H",
      "N AB",
      "O K",
      "O EF",
      "O IA",
      "Q A",
      "Q P",
      "R P",
      "R S",
      "S x",
      "S ABCD",
      "S MA",
      "S MNP",
      "S EF",
      "S SN",
      "S IA",
      "\\ ,\\,",
      "] ?",
      "] }^{",
      "] '\\",
      "a S",
      "a m",
      "a q",
      "a u",
      "b n",
      "b int",
      "c f",
      "c l",
      "c t",
      "c y",
      "c Äĳ",
      "d a",
      "g t",
      "h m",
      "i b",
      "k F",
      "k g",
      "k t",
      "l do",
      "n S",
      "n V",
      "n b",
      "n z",
      "r l",
      "r n",
      "s y",
      "s up",
      "s ai",
      "w i",
      "x x",
      "x ln",
      "x Oz",
      "| }=\\",
      "| }^{",
      "| }+\\",
      "| )+",
      "| {{",
      "| }-(",
      "} ]}",
      "} )=-\\",
      "} ')",
      "~ -~",
      "´ ng",
      "Ã ´ng",
      "Ä Ĳ",
      "á º",
      "Ġ Y",
      "Ġ s",
      "Ġ }+",
      "Ġ cos",
      "Ġ sin",
      "Ġ )-",
      "Ġ }=-",
      "Ġ OA",
      "Ġ }}=\\",
      "Ġ ')",
      "Ġ MNP",
      "Ġ }}+\\",
      "Ġ }={",
      "}{ [",
      "}{ -\\",
      "}{ |\\",
      "Ġ\\ :",
      "Ġ= |",
      "Ġ= ~",
      "^{ ^",
      "^{ {",
      "^{ ^{",
      "Ġx e",
      "Ġ2 16",
      "Ġ2 25",
      "Ġ2 30",
      "Ġ2 34",
      "Ġ2 33",
      "Ġ2 88",
      "}} [",
      "}} =-\\",
      "}} }.",
      "}} }{(",
      "}} ,\\,",
      "}} }.\\",
      "}}{ [",
      "}}{ |",
      "}}{ (\\",
      "}}{ {{",
      "Ġ1 08",
      "Ġ1 35",
      "Ġ1 125",
      "Ġ1 80",
      "Ġ1 74",
      "{\\, (",
      "20 6",
      "20 9",
      "20 36",
      "20 26",
      "20 31",
      "20 41",
      "20 47",
      "20 99",
      "20 97",
      "20 98",
      "20 46",
      ")= [",
      "Ġ3 20",
      "Ġ3 00",
      "Ġ3 39",
      "Ġ3 38",
      "Ġa y",
      "Ġa bc",
      "Ġ( {{",
      "10 20",
      "10 16",
      "10 25",
      "}+ {{",
      "}^{ *}",
      "=- (",
      "Ġ0 48",
      "}^ +",
      "\\\\ (",
      "\\\\ -",
      "Ġy y",
      "cos x",
      "12 36",
      "12 60",
      "12 50",
      "12 48",
      "12 33",
      "12 75",
      "12 96",
      "12 85",
      "12 71",
      "AB E",
      "AB J",
      "AB FE",
      "}; }\\",
      "Ġ4 1",
      "Ġ4 6",
      "Ġ4 400",
      "Ġm i",
      "): {",
      "Ġ{ [",
      "15 9",
      "15 16",
      "15 13",
      "15 000",
      "15 60",
      "15 54",
      "15 95",
      "13 25",
      "13 60",
      "13 23",
      "13 01",
      "), (-",
      "\\} )",
      "11 75",
      "11 80",
      "11 74",
      "25 5",
      "Ġ5 2",
      "Ġ5 90",
      "Ġ5 400",
      ")+ [",
      ")+ {\\",
      ")+ {{\\",
      ")+ ...+",
      ")^{ ^{\\",
      ")^{ ^{-\\",
      ";\\ ,\\,",
      "]{ {\\",
      "]{ {{",
      "Ġ< -\\",
      "}_{ {",
      "14 00",
      "14 16",
      "14 17",
      "14 33",
      "14 542",
      "BC O",
      "{, }{",
      "}( {",
      "}( (\\",
      "Ġ6 75",
      "Ġ6 72",
      "Ġ6 56",
      "Ġ6 87",
      "18 3",
      "18 6",
      "18 7500",
      "}. {{",
      "AC A",
      "AC E",
      "AC G",
      "AC H",
      "AC CA",
      "17 8",
      "17 10",
      "17 00",
      "17 52",
      "17 53",
      "27 4",
      "27 9",
      "ABC C",
      "ABC E",
      ")- {",
      ")- (-",
      "24 25",
      "30 1",
      "30 8",
      "30 20",
      "ĠC B",
      "ĠC E",
      "21 97",
      "\\{ {\\",
      "\\{ {-",
      "]} |",
      "SA O",
      "}) (",
      "}) ;",
      "}) ]",
      "}) +(",
      "};\\ ;\\",
      ")} ,",
      "32 15",
      "19 20",
      "19 59",
      "MN A",
      "MN B",
      "MN EF",
      "). }",
      "}, +\\",
      "ĠB AC",
      "ĠB AD",
      "ĠB HC",
      ":\\ !",
      ":\\ ,\\",
      "AD B",
      "AD E",
      "SB E",
      "Ġ& =-",
      "Ġ| -",
      "Ġ| .",
      "Ġ7 0",
      "Ġ7 00",
      "Ġ7 28",
      "100 3",
      "100 5",
      "100 86",
      "000 1",
      "Ġ9 5",
      "60 5",
      "60 9",
      "60 5000",
      "40 1",
      "40 7",
      "40 8",
      "40 16",
      "40 15",
      "40 26",
      "40 62",
      "Ġ) <",
      "Ġ) }{",
      "26 3",
      "26 14",
      "23 80",
      "}{( {{",
      "Ġ20 15",
      "Ġ20 48",
      "]\\ ,",
      ".. .\\",
      "50 1",
      "50 6",
      "50 9",
      "50 50",
      "50 54",
      "},\\ :",
      "29 1",
      "29 4",
      "29 9",
      "Ġt e",
      "Ġt cl",
      "ĠS F",
      "ĠS I",
      "ĠS K",
      "ĠS NN",
      "ĠS NS",
      ",\\, {{\\",
      "35 2",
      "35 8",
      "35 000",
      "Ġ10 10",
      "Ġn y",
      "28 2",
      "28 80",
      "Ġ8 6",
      "Ġ8 00",
      "Ġ8 50",
      "45 1",
      "45 000",
      "34 1",
      "34 9",
      "34 50",
      "34 49",
      "\\\\& -",
      "^{- }}",
      "^{- })=",
      "22 24",
      "22 100",
      "48 3",
      "48 7",
      "_{[ -\\",
      "Ġ}{ {",
      "}}+ {",
      "}}+ ...",
      "MB P",
      "33 7",
      "33 000",
      ")}^{ ^{\\",
      "MA NC",
      "ĠA I",
      "ĠA K",
      "ĠA M",
      "ĠA HK",
      "49 0",
      "49 1",
      "49 2",
      "49 5",
      "\\, }",
      "Ġk a",
      "75 6",
      "75 8",
      "90 7",
      "90 67",
      "'' -\\",
      "'' +\\",
      "125 6",
      "65 000",
      "\\! \\",
      "\\! :\\!",
      "39 4",
      "39 6",
      "39 8",
      "39 360",
      "37 1",
      "37 3",
      "Ġ}_{ _{",
      "BD F",
      "80 7",
      "80 72",
      "80 68",
      "80 76",
      "\\{- {\\",
      ",~ (",
      "bc d",
      "ĠN D",
      "ĠN S",
      "Ġ16 10640",
      "38 3",
      "ĠM E",
      "ĠM AB",
      "ĠM hz",
      "96 1",
      "96 9",
      "96 000",
      "ĠD A",
      "ĠD E",
      "mbo l",
      "ĠAC C",
      "200 6",
      "56 2",
      "56 6",
      "56 7000",
      "EF B",
      "ĠP C",
      "44 7",
      "44 00",
      "47 1",
      "68 6",
      "68 7",
      "68 8",
      "68 7500",
      "99 45",
      "99 99",
      "âĢĻ =\\",
      "âĢĻ )\\",
      "={ |",
      "500 000",
      ")) }=",
      "Ġ. {{",
      "'}{ {",
      "63 20",
      "57 9",
      "OC A",
      "85 8",
      "85 9",
      "55 25",
      "SN S",
      "}> (",
      "}> -\\",
      ")}= +\\",
      "108 8",
      "73 50",
      "1000 00",
      "66 9",
      "BCD A",
      "}| ^{",
      "^+ }\\",
      "97 0",
      "97 9",
      ")] ^{",
      "98 8",
      "98 430",
      "IJ C",
      "ĠSC D",
      "ĠSA D",
      "600 00",
      "600 000",
      "76 000",
      "250 3",
      "216 0",
      "^- }{\\",
      "AH C",
      "AH M",
      "88 6",
      "300 6",
      "Ġ100 5",
      "Ġ100 8",
      "Ġ18 7",
      "Ġ18 9",
      "2000 00",
      "SH C",
      "BM PN",
      "69 4",
      "84 40",
      "87 9",
      "93 000",
      "Ġ40 35",
      "Ġ40 34",
      "Ġ40 96",
      "94 000",
      "SI C",
      "SI D",
      "AG C",
      "AE C",
      "115 6",
      "}\\\\& (",
      "AP MN",
      "}}< (",
      "07 96",
      "07 97",
      "Ġ:\\ ,",
      "147 278",
      "147 347",
      "168 75",
      "ĠOx z",
      "315 7",
      "545 6",
      "Ãł m",
      ")\\; {\\",
      "336 00",
      "155 1175",
      "AF D",
      "BI D",
      "HE Q",
      ")^- }\\",
      "149 50",
      "FH N",
      "kh Ã´ng",
      "54527 33",
      "54527 71",
      "416 25",
      "697 2593",
      "808 2",
      "XYZ T",
      "1968 3",
      "5436 521",
      "5436 566",
      "413 8",
      "878 8",
      "^{+ }}",
      ")\\! \\!:\\!",
      "Ġ39 5054",
      "1326 00",
      "\\!=\\ !",
      "4120 8",
      "bint rn",
      "sy mbol",
      "sup set",
      "Ġ339 35",
      "1180 96",
      "14542 26",
      "! )^",
      "! +(",
      "! }}\\",
      "! -(",
      "\" =",
      "\" \\",
      "% }",
      "' ~",
      "' }{\\",
      "' ),",
      "' })",
      "' ).",
      "' .\\",
      "' |=\\",
      "' ,\\,",
      "' \\\\&",
      "' }=-",
      "' -(",
      "' ),(",
      "' ~=~",
      "( +\\",
      "( (-",
      "( |\\",
      "( [-",
      "( {{\\",
      ") ~",
      ") }{-",
      ") ),",
      ") ;+\\",
      ") )+",
      ") )^{",
      ") [\\",
      ") )>",
      ") )}^",
      ") {{\\",
      ") }}}",
      ") );",
      ") |=|",
      ") ].",
      ") }}{{",
      ") ~(",
      ") }}}\\",
      ") âĢĻ=",
      ") !}{\\",
      "* }\\",
      "+ ^",
      "+ ~",
      "+ }\\",
      "+ |\\",
      "+ {{",
      "+ ^*",
      ", =",
      ", |",
      ", }-\\",
      "- +",
      "- [",
      "- (\\",
      "- {(",
      ". -\\",
      ". {{\\",
      "/ (",
      "/ {{",
      "0 10",
      "0 60",
      "0 50",
      "0 29",
      "0 22",
      "0 75",
      "0 65",
      "0 39",
      "0 72",
      "0 41",
      "0 38",
      "0 44",
      "0 47",
      "0 51",
      "0 67",
      "0 77",
      "0 74",
      "0 95",
      "0 58",
      "0 46",
      "0 91",
      "0 59",
      "0 625",
      "0 105",
      "0 188",
      "1 1000",
      "1 128",
      "1 150",
      "1 105",
      "1 135",
      "1 165",
      "1 168",
      "2 108",
      "2 150",
      "2 2000",
      "2 180",
      "2 106",
      "2 265",
      "2 280",
      "2 293",
      "3 10",
      "3 35",
      "3 81",
      "3 150",
      "3 160",
      "3 135",
      "3 130",
      "3 136",
      "3 190",
      "3 164",
      "4 14",
      "4 17",
      "4 27",
      "4 36",
      "4 28",
      "4 33",
      "4 41",
      "4 38",
      "4 42",
      "4 200",
      "4 61",
      "4 66",
      "4 2000",
      "4 1600",
      "4 137",
      "4 369",
      "4 293",
      "4 368",
      "4 6666",
      "5 15",
      "5 17",
      "5 32",
      "5 34",
      "5 22",
      "5 39",
      "5 120",
      "5 96",
      "5 51",
      "5 57",
      "5 95",
      "5 240",
      "5 184",
      "5 1512",
      "5 481",
      "6 10",
      "6 12",
      "6 32",
      "6 26",
      "6 22",
      "6 33",
      "6 90",
      "6 37",
      "6 99",
      "6 98",
      "6 150",
      "6 250",
      "6 91",
      "6 160",
      "6 642",
      "6 96000",
      "7 10",
      "7 16",
      "7 24",
      "7 19",
      "7 40",
      "7 23",
      "7 28",
      "7 34",
      "7 22",
      "7 48",
      "7 81",
      "7 64",
      "7 49",
      "7 200",
      "7 99",
      "7 67",
      "7 82",
      "7 2000",
      "7 94",
      "7 92",
      "7 446",
      "8 12",
      "8 11",
      "8 25",
      "8 2018",
      "8 27",
      "8 24",
      "8 30",
      "8 21",
      "8 100",
      "8 26",
      "8 50",
      "8 29",
      "8 35",
      "8 45",
      "8 34",
      "8 48",
      "8 81",
      "8 33",
      "8 90",
      "8 54",
      "8 96",
      "8 51",
      "8 85",
      "8 73",
      "8 66",
      "8 97",
      "8 600",
      "8 46",
      "8 400",
      "8 91",
      "8 0000",
      "9 20",
      "9 15",
      "9 24",
      "9 32",
      "9 100",
      "9 40",
      "9 23",
      "9 45",
      "9 48",
      "9 64",
      "9 49",
      "9 39",
      "9 54",
      "9 56",
      "9 44",
      "9 53",
      "9 0000",
      "9 135",
      "9 269",
      ": -",
      ": {",
      ": }",
      ": }\\,",
      ": ~\\",
      "; ;",
      "; ~",
      "; {\\",
      "; \\\\",
      "; ...",
      "< (\\",
      "< ...",
      "= =-",
      "> (",
      "A J",
      "A T",
      "A a",
      "A e",
      "A y",
      "A OM",
      "A SD",
      "A SO",
      "A MNPQ",
      "A PQ",
      "A ACC",
      "A YZ",
      "B J",
      "B S",
      "B t",
      "B SD",
      "B SO",
      "B NC",
      "B HK",
      "B IH",
      "B MNC",
      "B YZ",
      "C L",
      "C O",
      "C Q",
      "C Z",
      "C m",
      "C z",
      "C MB",
      "C BA",
      "C IJK",
      "C HA",
      "C FG",
      "C OG",
      "C ÄĲ",
      "D O",
      "D s",
      "D SB",
      "D MNP",
      "D CC",
      "D IJ",
      "D BA",
      "D IC",
      "D HA",
      "D GH",
      "D JK",
      "E I",
      "E Q",
      "E S",
      "E ABC",
      "E AD",
      "E CD",
      "E BD",
      "E BCD",
      "E IJ",
      "F B",
      "F M",
      "F O",
      "F AB",
      "F AD",
      "F CD",
      "F HK",
      "F IO",
      "G B",
      "G C",
      "G J",
      "G N",
      "G AB",
      "G AC",
      "G ABC",
      "G MB",
      "G CD",
      "G SAC",
      "G HK",
      "G ist",
      "H O",
      "H P",
      "H Q",
      "H z",
      "H MN",
      "H CA",
      "H CEF",
      "I R",
      "I AC",
      "I MN",
      "I CD",
      "I BCD",
      "I BA",
      "I CB",
      "K C",
      "K F",
      "K G",
      "K J",
      "K CD",
      "L C",
      "M e",
      "M n",
      "M x",
      "M y",
      "M ABC",
      "M OA",
      "M OB",
      "M ACD",
      "M ABD",
      "M HK",
      "M PQ",
      "M IJK",
      "M OP",
      "M ABN",
      "M ED",
      "M OF",
      "M hz",
      "N J",
      "N K",
      "N MD",
      "N ACB",
      "N PQ",
      "N OD",
      "N ADM",
      "O E",
      "O V",
      "O AC",
      "O ABCD",
      "O MNP",
      "O BCD",
      "O ACD",
      "O HC",
      "P E",
      "P I",
      "P S",
      "P u",
      "P AB",
      "P BCD",
      "P MNC",
      "Q D",
      "Q N",
      "Q R",
      "Q MN",
      "Q CD",
      "Q MNP",
      "R B",
      "R D",
      "R h",
      "S J",
      "S y",
      "S OA",
      "S FC",
      "S FH",
      "S kh",
      "S JC",
      "S JA",
      "T G",
      "T a",
      "T ht",
      "T ac",
      "T GG",
      "T GT",
      "V h",
      "V OV",
      "X T",
      "X Y",
      "X Z",
      "Y T",
      "[ |",
      "\\ :",
      "\\ |",
      "\\ -\\",
      "\\ }=",
      "\\ }^",
      "\\ :\\",
      "] }}",
      "] '=\\",
      "] |=",
      "] '=",
      "] ,\\,",
      "] }=-",
      "] ,~",
      "] ^{-\\",
      "] +{\\",
      "^ (",
      "^ +\\",
      "^ /(",
      "_ =\\",
      "a F",
      "a R",
      "a o",
      "a le",
      "a SA",
      "b m",
      "b SB",
      "c ht",
      "c SC",
      "c ng",
      "c ngvi",
      "d v",
      "e f",
      "f ra",
      "f row",
      "h R",
      "h n",
      "h o",
      "h r",
      "h ch",
      "h Ãłm",
      "h cngvi",
      "i i",
      "i w",
      "i up",
      "j u",
      "k a",
      "k f",
      "k y",
      "k CD",
      "l d",
      "l s",
      "l z",
      "l mt",
      "l Ãł",
      "m M",
      "m b",
      "n B",
      "n C",
      "n D",
      "n h",
      "n n",
      "n s",
      "n t",
      "n u",
      "n v",
      "n ht",
      "n ln",
      "n ac",
      "n chngminh",
      "o ng",
      "o hm",
      "p c",
      "p h",
      "p q",
      "p s",
      "q s",
      "r x",
      "r Ã",
      "s f",
      "s ime",
      "s ao",
      "t e",
      "t x",
      "t dt",
      "t hcngvi",
      "u x",
      "u y",
      "v y",
      "x BC",
      "x dx",
      "x Ox",
      "x Ay",
      "y dy",
      "y Oz",
      "z i",
      "{ }{{",
      "{ !}",
      "{ :}",
      "| ;",
      "| (\\",
      "| )=\\",
      "| +(",
      "| [\\",
      "| ^{-",
      "| }<",
      "| }}=",
      "| |(",
      "| )?",
      "| )-(",
      "| )|=",
      "} ~",
      "} ):",
      "} ]{",
      "} '=",
      "} |+",
      "} ]\\",
      "} )=-",
      "} ''(",
      "} |-",
      "} '.",
      "} !}",
      "} ~\\",
      "} ):\\,",
      "} ~=~",
      "} |+|\\",
      "~ =\\",
      "~ =~\\",
      "~ +~",
      "£ ng",
      "© c",
      "© t",
      "ª n",
      "¬ nh",
      "¿ n",
      "Ã ³",
      "Ã ©t",
      "Ã ¬nh",
      "Ġ U",
      "Ġ X",
      "Ġ `",
      "Ġ ma",
      "Ġ log",
      "Ġ }-",
      "Ġ ta",
      "Ġ }.",
      "Ġ }_",
      "Ġ )(",
      "Ġ ,\\,",
      "Ġ }}=",
      "Ġ }}}",
      "Ġ ]^",
      "Ġ |+|",
      "Ġ ''(",
      "Ġ EF",
      "Ġ |=|",
      "Ġ ,(",
      "Ġ âĢ",
      "Ġ ):\\",
      "Ġ }}.",
      "Ġ }}{{",
      "Ġ MNPQ",
      "Ġ }}+{{",
      "Ġ HK",
      "Ġ HD",
      "Ġ *}",
      "Ġ XB",
      "Ġ Äĳ",
      "Ġ }}-{{",
      "Ġ }}}{{{",
      "ĵ ng",
      "Ļ t",
      "ra d",
      "}{ (-",
      "Ġ\\ {(",
      "sq cup",
      "{\\ !",
      "math fra",
      "math sf",
      "Ġ= +\\",
      "Ġ= (\\",
      "Ġ= (-\\",
      "Ġ= {(",
      "}\\ %",
      "}\\ ,\\,",
      "}\\ ;(",
      "^{ (\\",
      "^{ +}",
      "^{ *}",
      "Ġx Oz",
      "Ġ- }}",
      "Ġ+ {\\",
      "Ġ+ }}",
      "Ġ+ ...+",
      "Ġ2 15",
      "Ġ2 32",
      "Ġ2 40",
      "Ġ2 29",
      "Ġ2 45",
      "Ġ2 44",
      "Ġ2 43",
      "Ġ2 51",
      "Ġ2 82",
      "Ġ2 400",
      "Ġ2 304",
      "Ġ2 50000",
      "_{ +}",
      ")\\ ;\\",
      ")\\ }.",
      "}} _",
      "}} |",
      "}} ~",
      "}} )^",
      "}} ;-",
      "}} ):",
      "}} |=",
      "}} [\\",
      "}} ^{-",
      "}} }<",
      "}} }}}",
      "}} ,~",
      "}} }}+\\",
      "}} }}{{",
      "}} }\\,",
      "}}{ -\\",
      ")^ +}\\",
      "Ġ1 15",
      "Ġ1 18",
      "Ġ1 17",
      "Ġ1 21",
      "Ġ1 000",
      "Ġ1 60",
      "Ġ1 28",
      "Ġ1 33",
      "Ġ1 96",
      "Ġ1 200",
      "Ġ1 88",
      "ln hn",
      "ro ng",
      "20 27",
      "20 50",
      "20 33",
      "20 54",
      "20 38",
      "20 44",
      "20 85",
      "20 58",
      "20 600",
      "20 84",
      "20 87",
      "20 86",
      "20 4034",
      "20 412",
      "20 403",
      "}= [",
      "}= (\\",
      "}= |\\",
      "}= [\\",
      "}= {(",
      "}= {{\\",
      "}= {(\\",
      "(\\ ,",
      ")= (\\",
      ")= |\\",
      ")= {{\\",
      "Ġ3 7",
      "Ġ3 10",
      "Ġ3 25",
      "Ġ3 27",
      "Ġ3 24",
      "Ġ3 21",
      "Ġ3 36",
      "Ġ3 000",
      "Ġ3 23",
      "Ġ3 65",
      "Ġ3 31",
      "Ġ3 68",
      "Ġ3 67",
      "Ġ3 600",
      "Ġ3 94",
      "Ġ3 3280",
      "(- |",
      "Ġ( {",
      "Ġ( |",
      "Ġ( {\\",
      "Ġ( <\\",
      "10 12",
      "10 15",
      "10 13",
      "10 14",
      "10 27",
      "10 100",
      "10 40",
      "10 26",
      "10 45",
      "10 22",
      "10 48",
      "10 81",
      "10 33",
      "10 90",
      "10 39",
      "10 56",
      "10 77",
      "10 95",
      "10 70",
      "10 93",
      "10 94",
      "10 92",
      "10 304",
      "10 239",
      "10 302",
      "10 395",
      "10 584",
      "}^{ (",
      "}^{ |",
      "}^{ }}{",
      "}^{ {{\\",
      "=- (\\",
      "Ġ0 10",
      "Ġ0 22",
      "Ġ0 81",
      "Ġ0 49",
      "Ġ0 07",
      "}^ +}",
      "Ġy i",
      "Ġy z",
      "cos in",
      "201 1",
      "201 49",
      "201 56",
      "12 20",
      "12 10",
      "12 16",
      "12 15",
      "12 13",
      "12 25",
      "12 30",
      "12 21",
      "12 32",
      "12 22",
      "12 90",
      "12 63",
      "12 95",
      "12 69",
      "12 101",
      "12 110",
      "12 104",
      "12 107",
      "12 234",
      "12 504",
      "12 285",
      "12 357",
      "12 6720",
      "do t",
      "AB G",
      "AB Q",
      "AB MD",
      "AB DC",
      "AB BA",
      "AB PN",
      "AB MNC",
      "AB YZ",
      ")=\\ {",
      "}- {{",
      "}- ...",
      "00 1",
      "00 2",
      "00 8",
      "00 12",
      "00 71",
      "Ġ4 4",
      "Ġ4 27",
      "Ġ4 32",
      "Ġ4 50",
      "Ġ4 65",
      "Ġ4 120",
      "Ġ4 42",
      "Ġ4 86",
      "Ġ4 220",
      "Ġm m",
      "Ġm p",
      "Ġm t",
      "Ġm z",
      "Ġm á»",
      "Ġm Ã©t",
      "): -\\",
      "16 12",
      "16 16",
      "16 18",
      "16 23",
      "16 28",
      "16 98",
      "16 82",
      "16 88",
      "16 119",
      "16 89",
      "16 137",
      "16 384",
      "16 142",
      "16 267",
      "16 1700",
      "16 758",
      "16 6320",
      "Ġ{ {{",
      "Ġ{ .}",
      "15 8",
      "15 17",
      "15 33",
      "15 120",
      "15 0000",
      "15 94",
      "15 840",
      "15 00000",
      "15 1200",
      "15 131",
      "15 81000",
      "15 872",
      "big cup",
      "big cap",
      "13 20",
      "13 00",
      "13 16",
      "13 17",
      "13 000",
      "13 45",
      "13 48",
      "13 49",
      "13 65",
      "13 31",
      "13 52",
      "13 47",
      "13 66",
      "13 70",
      "13 46",
      "13 76",
      "13 88",
      "13 69",
      "13 89",
      "13 117",
      "13 122",
      "13 234",
      "13 440",
      "13 116",
      "), ~\\",
      "\\} }\\",
      "\\} <\\",
      "\\} ,\\,\\",
      "11 20",
      "11 11",
      "11 100",
      "11 40",
      "11 45",
      "11 81",
      "11 400",
      "11 88",
      "11 86",
      "25 7",
      "25 13",
      "25 18",
      "25 30",
      "25 000",
      "25 60",
      "25 50",
      "25 48",
      "25 75",
      "25 90",
      "25 200",
      "25 76",
      "25 2000",
      "25 84",
      "25 87",
      "25 00000",
      "Ġ5 1",
      "Ġ5 8",
      "Ġ5 000",
      "Ġ5 50",
      "Ġ5 38",
      "Ġ5 73",
      "Ġ5 74",
      "Ġ5 76",
      "Ġ5 02",
      "Ġ5 6320",
      "Ġd t",
      "Ġd v",
      "ab i",
      "ab x",
      ")+ {",
      ")+ (-",
      ")^{ |",
      "]{ {{\\",
      "14 20",
      "14 18",
      "14 24",
      "14 19",
      "14 60",
      "14 08",
      "14 45",
      "14 81",
      "14 80",
      "14 250",
      "14 59",
      "14 84",
      "14 350",
      "14 199",
      "14 299",
      "}}\\ %",
      "}}\\ }",
      "}}\\ ,\\",
      "}}\\ ,\\,",
      "}}\\ ,\\,\\,\\",
      "BC I",
      "BC S",
      "BC CB",
      "BC HK",
      "}( |",
      "|= {{\\",
      "Ġ6 2",
      "Ġ6 7",
      "Ġ6 8",
      "Ġ6 16",
      "Ġ6 14",
      "Ġ6 18",
      "Ġ6 17",
      "Ġ6 000",
      "Ġ6 63",
      "Ġ6 85",
      "Ġ6 73",
      "Ġ6 79",
      "Ġ6 220",
      "2017 2018",
      "18 20",
      "18 44",
      "18 67",
      "18 66",
      "18 76",
      "18 01",
      "18 1440",
      "18 252000",
      "}. \\\\",
      "}. ..",
      "AC I",
      "AC MN",
      "AC BD",
      "AC NM",
      "17 4",
      "17 100",
      "17 50",
      "17 01",
      "17 2800",
      "27 1",
      "27 00",
      "27 000",
      "27 50",
      "27 35",
      "27 55",
      "27 216",
      "27 440",
      "27 50000",
      "27 1317",
      "ABC B",
      "ABC H",
      "ABC I",
      "ABC N",
      "ABC O",
      "ABC MN",
      "ABC MNP",
      "ABC NM",
      "ABC HK",
      "ABC IK",
      "ABC ED",
      "ABC IJC",
      "24 9",
      "24 16",
      "24 32",
      "24 35",
      "24 56",
      "24 99",
      "24 97",
      "24 360",
      "24 01",
      "24 2000",
      "24 69",
      "24 0000",
      "24 20000",
      "24 689",
      "24 1920",
      "Ġ-\\ ,",
      "Ġc v",
      "Ġc Ã³",
      "30 3",
      "30 7",
      "30 10",
      "30 16",
      "30 17",
      "30 24",
      "30 60",
      "30 29",
      "30 49",
      "30 80",
      "30 72",
      "30 42",
      "30 97",
      "30 240",
      "30 960",
      "30 3600",
      "ĠC F",
      "ĠC N",
      "'= {\\",
      "21 10",
      "21 99",
      "21 92",
      "21 130",
      "21 200000",
      "21 20600",
      "SA G",
      "SA H",
      "SA K",
      "SA N",
      "SA MNP",
      "SA IJ",
      "SA IC",
      "{{ {{\\",
      "{{ ({\\",
      "}) |",
      "}) }\\",
      "}) -\\",
      "}) +\\",
      "}) )=",
      "}) '=\\",
      "}) }^{\\",
      "}) ,\\,",
      "};\\ ,\\",
      ")} <",
      ")} >",
      ")} )=",
      ")} ,\\",
      "32 9",
      "32 13",
      "32 11",
      "32 60",
      "32 35",
      "32 33",
      "32 180",
      "32 162",
      "32 960",
      "32 118",
      "32 2560",
      "19 00",
      "19 11",
      "19 17",
      "19 32",
      "19 36",
      "19 75",
      "19 99",
      "19 85",
      "19 55",
      "19 97",
      "19 82",
      "19 69",
      "19 86",
      "19 71",
      "19 92",
      "19 79",
      "19 368",
      "19 602",
      "19 674",
      "19 2456",
      "MN G",
      "MN I",
      "MN K",
      "MN N",
      "MN AB",
      "MN ABC",
      "MN ABCD",
      "MN KQ",
      "). {",
      "). \\\\",
      "ax e",
      "ĠB A",
      "ĠB E",
      "ĠB y",
      "36 4",
      "36 6",
      "36 000",
      "36 75",
      "36 37",
      "36 54",
      "36 67",
      "36 288",
      "36 900",
      "36 2880",
      "AD H",
      "AD I",
      "AD S",
      "AD MN",
      "AD CB",
      "AD DA",
      "Ġ; +",
      "SB M",
      "SB O",
      "SB AC",
      "SB MN",
      "SB MD",
      "Ġ& <",
      "Ġ& >",
      "Ġ& =-\\",
      "Ġ& <-",
      "Ġ| (",
      "Ġ| }",
      "Ġ| -\\",
      "Ġ| }=\\",
      "Ġ7 1",
      "Ġ7 3",
      "Ġ7 6",
      "Ġ7 12",
      "Ġ7 21",
      "Ġ7 50",
      "Ġ7 49",
      "Ġ7 94",
      "Ġ7 726",
      "Ġ7 423",
      "Ġ7 424",
      "Ġ7 776",
      "100 2",
      "100 4",
      "100 84",
      "100 89",
      "{( |",
      "Ġ9 2",
      "Ġ9 000",
      "Ġ9 47",
      "Ġ9 726",
      "Ġ9 2160",
      "Ġ9 830",
      "SC M",
      "SC O",
      "}_ +^*",
      "60 3",
      "60 6",
      "60 7",
      "60 21",
      "60 60",
      "60 48",
      "60 49",
      "60 80",
      "60 56",
      "60 61",
      "60 52",
      "60 47",
      "60 55",
      "60 59",
      "60 480",
      "60 4800",
      "40 2",
      "40 4",
      "40 6",
      "40 9",
      "40 20",
      "40 24",
      "40 30",
      "40 50",
      "40 29",
      "40 28",
      "40 31",
      "40 80",
      "40 41",
      "40 44",
      "40 500",
      "40 66",
      "40 95",
      "40 70",
      "40 58",
      "40 46",
      "40 94",
      "40 320",
      ")( {",
      ")( {{",
      "<\\ !",
      "Ġ) }{\\",
      "Ġ) ,\\",
      "Ġ) }.",
      "Ġ) >\\",
      "26 8",
      "26 12",
      "26 00",
      "26 16",
      "26 15",
      "26 13",
      "26 18",
      "26 17",
      "26 19",
      "26 23",
      "26 90",
      "26 57",
      "26 88",
      "26 800",
      "26 815",
      "23 10",
      "23 15",
      "23 52",
      "23 47",
      "23 99",
      "23 58",
      "23 2000",
      "23 180",
      "23 477",
      "23 2518",
      "Ġ{\\ {-",
      "Ġ{\\ %}",
      "Ġ20 10",
      "Ġ20 50",
      "]\\ ,\\",
      ".. +{",
      ")}{ {",
      ")=- (",
      ")=- {{",
      "50 7",
      "50 44",
      "50 95",
      "50 400",
      "08 0",
      "08 5",
      "08 6",
      "08 06",
      ")> {\\",
      ")> {{\\",
      "},\\ ,(",
      "29 5",
      "29 7",
      "29 8",
      "29 16",
      "29 40",
      "29 68",
      "29 2000",
      "29 525",
      "29 524",
      "29 8440",
      "Ġ(\\ %)",
      "Ġt á»",
      "Ġt rÃ",
      "Ġt rong",
      "ĠS E",
      "ĠS J",
      "ĠS y",
      "ĠS MC",
      "ĠS DC",
      "35 00",
      "35 17",
      "35 47",
      "35 74",
      "35 0000",
      "35 2623",
      "Ġ10 13",
      "Ġ10 24",
      "Ġ10 726",
      "Ġ10 749",
      "Ġ[ -\\",
      "Ġn b",
      "Ġn i",
      "Ġn t",
      "Ġn z",
      "28 4",
      "28 6",
      "28 67",
      "28 73",
      "28 70",
      "28 800",
      "28 89",
      "Ġ8 0",
      "Ġ8 9",
      "Ġ8 20",
      "Ġ8 10",
      "Ġ8 16",
      "Ġ8 25",
      "Ġ8 24",
      "Ġ8 29",
      "Ġ8 75",
      "Ġ8 80",
      "Ġ8 96",
      "Ġ8 63",
      "Ġ8 62",
      "Ġ8 76",
      "Ġ8 06",
      "Ġ8 726",
      "Ġ8 27440",
      "45 7",
      "45 8",
      "45 36",
      "45 81",
      "45 125",
      "45 63",
      "45 672",
      "ABCD A",
      "ABCD D",
      "ABCD SA",
      "ABCD MN",
      "ABCD SH",
      "ABCD SEF",
      "34 2",
      "34 00",
      "34 22",
      "34 75",
      "34 65",
      "34 73",
      "34 400",
      "34 236",
      "34 2187",
      "34 240000",
      "^{- (",
      "}=- (",
      "}=- |",
      "22 168",
      "22 177",
      "22 167",
      "22 2800",
      "22 178",
      "48 2",
      "48 4",
      "48 5",
      "48 000",
      "48 39",
      "48 873",
      "Ġ}{ |",
      "81 10",
      "64 7",
      "64 000",
      "64 35",
      "64 90",
      "64 152",
      "64 26815",
      "MB D",
      "MB N",
      "MB NP",
      "MB PA",
      "33 8",
      "33 20",
      "33 34",
      "33 75",
      "33 240",
      ")}^{ {{",
      "}< -",
      "}< {\\",
      ")< -",
      "Big l",
      "Big r",
      "MA E",
      "MA I",
      "2016 2017",
      "2016 00000",
      "text backslash",
      "ĠA MN",
      "hi chngminh",
      "49 4",
      "49 7",
      "49 50",
      "49 39",
      "49 42",
      "49 44",
      "49 47",
      "49 95",
      "49 2513",
      "CD B",
      "CD G",
      "CD P",
      "CD NM",
      "\\, ;",
      "\\, {{",
      "Ġk x",
      "Ġk ho",
      "=| (",
      "=| -",
      "=| |",
      "75 1",
      "75 4",
      "75 5",
      "75 9",
      "75 68",
      "75 00000",
      "75 328",
      "75 528",
      "75 497",
      "90 1",
      "90 2",
      "90 5",
      "90 6",
      "90 56",
      "90 47",
      "90 57",
      "90 720",
      "90 93000",
      "\\% \\,",
      "}}( {\\",
      "}}( {{",
      ")}^ \\",
      "125 5",
      "65 2",
      "65 4",
      "65 5",
      "65 50",
      "65 39",
      "65 77",
      "65 00000",
      "65 6000",
      "65 318",
      "65 983",
      "65 94000",
      "\\! <\\!",
      "39 2",
      "39 3",
      "39 24",
      "39 840",
      "39 361",
      "39 356",
      "39 366",
      "37 6",
      "37 9",
      "37 17",
      "37 23",
      "37 22",
      "37 0000",
      "37 332",
      "37 39360",
      "37 32960",
      "37 36900",
      "OA O",
      "OA MN",
      "OA HK",
      "}}} (-",
      "}}} >\\",
      "31 139",
      "Ġh Ãłm",
      "Ġh Ã¬nh",
      "54 1",
      "54 4",
      "54 34",
      "54 76",
      "54 624",
      "Ġ}_{ _{\\",
      "MC E",
      "MC N",
      "120 9",
      "120 00",
      "120 98",
      "120 960",
      "BD E",
      "BD M",
      "BD N",
      "BD MN",
      "BD NM",
      "BD HCEF",
      "ĠBC C",
      "ĠBC E",
      "80 3",
      "80 60",
      "80 47",
      "80 73",
      "80 77",
      "80 46",
      "80 486",
      "80 640",
      "ĠO E",
      "ĠO I",
      "ĠO M",
      "ĠO MN",
      "ĠO CD",
      "ĠO IA",
      "ĠO IB",
      "bo ld",
      "ĠN B",
      "ĠN N",
      "ĠN MP",
      "ĠN NNS",
      "ĠN NSN",
      "ĠN SNN",
      "Ġ16 2",
      "Ġ16 3",
      "Ġ16 8",
      "Ġ16 640",
      "Ġ16 382",
      "Ġ_{ (",
      "') }}{",
      "AM H",
      "AM P",
      "AM PN",
      "AM EN",
      "AM IN",
      "AM KN",
      "Ġ}\\ ,",
      "38 5",
      "38 6",
      "38 7",
      "38 8",
      "38 40",
      "38 34",
      "38 48",
      "38 33",
      "38 41",
      "38 43",
      "38 74",
      "38 88",
      "38 304",
      "38 4000",
      "ĠM F",
      "ĠM BC",
      "ĠM Hz",
      "96 2",
      "96 3",
      "96 00",
      "MNP B",
      "MNP D",
      "MNP R",
      "MNP ABC",
      "OM H",
      "OM I",
      "OM M",
      "OM HN",
      "ĠD AB",
      "ĠD CA",
      "ĠD CC",
      "42 16",
      "42 187",
      "200 2",
      "200 3",
      "200 4",
      "Ġ\\\\& \\",
      "Ġ\\\\& -\\",
      "56 3",
      "56 8",
      "56 228",
      "56 875",
      "EF H",
      "EF M",
      "EF HK",
      "EF NJ",
      "OB A",
      "OB E",
      "OB M",
      "Ġ15 95",
      "44 30",
      "44 200",
      "44 163",
      "44 3000",
      "61 161",
      "53 1440",
      "ri cht",
      "}}}{ {\\",
      "}}}{ {{{\\",
      "43 20",
      "43 000",
      "47 3",
      "47 6",
      "47 8",
      "47 9",
      "47 25",
      "47 000",
      "47 304",
      "47 900",
      "47 09",
      "47 0071",
      "47 1688",
      "68 2",
      "68 4",
      "68 40",
      "68 58",
      "68 88",
      "68 575",
      "ng bintrn",
      "ng hch",
      "ng thcngvi",
      "ng uy",
      "ng lnhn",
      ";\\, |",
      "99 2",
      "99 3",
      "99 7",
      "99 8",
      "99 90",
      "99 96",
      "99 77",
      "99 97",
      "99 98",
      "99 430",
      "99 267",
      "SAB D",
      "SD I",
      "SD J",
      "ĠAB M",
      "):\\ ;",
      "):\\ ,\\",
      "âĢĻ .",
      "âĢĻ (\\",
      "âĢĻ }(",
      "âĢĻ =(",
      "),\\ ,\\,",
      "+... }",
      "+... }{",
      "500 4",
      "500 0000",
      "500 4000",
      "500 00000",
      "ĠAD C",
      "ĠAD O",
      "Ġ2017 2018",
      ")) }}",
      ")) )=",
      "63 00",
      "63 24000",
      "63 271317",
      "57 3",
      "57 7",
      "57 60",
      "57 793",
      "57 9067",
      "67 0",
      "67 1",
      "67 8",
      "67 000",
      "67 02",
      "67 248",
      "67 9067",
      "67 9057",
      "OC B",
      "OC MN",
      "85 5",
      "85 89",
      "ĠV h",
      ")| .",
      ")| <",
      ")| |(\\",
      "SBC D",
      "ĠI C",
      "ĠI D",
      "ĠI F",
      "ĠI O",
      "55 5",
      "55 8",
      "55 32",
      "55 52",
      "55 346",
      "55 3500",
      "SN C",
      "SN Q",
      "SN NN",
      "}> -",
      "}> {\\",
      "62 13",
      "108 9",
      "108 160",
      "73 81",
      "ĠSB D",
      "1000 00000",
      "66 65",
      "66 72",
      "66 68",
      "66 67",
      "66 69",
      "66 121",
      "77 0",
      "77 9",
      "77 10",
      "77 25",
      "77 28",
      "77 68",
      "77 77",
      "77 82",
      "ĠF G",
      "}}. {",
      "BCD E",
      "BCD M",
      "BCD N",
      "BCD O",
      "BCD NM",
      "74 000",
      "74 40",
      "74 45",
      "74 48",
      "74 207",
      "}' <",
      "SAC D",
      "\\,\\ ,\\,(",
      "^+ )",
      "128 2",
      "128 3",
      "128 4",
      "128 432",
      "128 8110",
      "97 1",
      "97 63",
      ")] >",
      ")] }\\",
      ")] -\\",
      ")] =|",
      ")] =[",
      "98 2",
      "98 6",
      "98 9",
      "98 80",
      "98 280",
      "IJ B",
      "IJ G",
      "IJ CD",
      "SM P",
      "SM BC",
      "SM GB",
      "ĠCD B",
      "ĠCD O",
      "95 100",
      "MD C",
      "144 00",
      "144 000",
      "144 492513",
      "70 1",
      "70 7",
      "70 63",
      "70 95",
      "70 76",
      "70 947",
      "70 308",
      "70 698",
      "70 656000",
      "SO MN",
      "ĠSC B",
      "Ġ\\% .",
      "Ġ\\% \\;(",
      "ĠSA M",
      "ĠSA O",
      "'=- (",
      "58 3",
      "58 6",
      "58 8",
      "58 9",
      "58 675",
      "600 5",
      "Ġ25 20",
      "Ġ25 000",
      "46 9",
      "76 80",
      "82 304",
      "250 1",
      "250 2",
      "216 65983",
      "400 4",
      "400 9",
      "400 00",
      "400 5000",
      "400 80000",
      "DC E",
      "DC EF",
      "\\; {\\",
      "78 4",
      "78 6",
      "78 89",
      "78 79",
      "78 6858",
      "^- }=+\\",
      "Ġ] }\\",
      "SAD E",
      "|. (",
      "AH D",
      "AH MK",
      "BA S",
      "{| |",
      "88 8",
      "88 00",
      "88 56",
      "88 400",
      "88 430",
      "88 933",
      "300 4",
      "300 5",
      "300 00",
      "300 000",
      "300 0000",
      "300 00000",
      "59 2",
      "59 280",
      "59 203",
      "AN MK",
      "AN KB",
      "Ġ}} }}",
      "Ġ}} :{",
      "256 000",
      "ACD B",
      "ACD M",
      "Ġ24 30",
      "Ġ100 7",
      "Ġ45 50",
      "625 00",
      "2000 000",
      "Ġ60 51",
      "SH A",
      "SH B",
      "SH D",
      "SH ACD",
      "BM GH",
      "MNPQ ABCD",
      "MNPQ RS",
      "|( {{",
      "69 2",
      "84 509",
      "84 2940",
      "87 1",
      "87 65",
      "87 9056",
      "BN K",
      "NM CD",
      "0000 1",
      "ĠSD B",
      "^* }}",
      "^* })",
      "ĠK B",
      "ĠK DC",
      "83 25",
      "86 50",
      "~( *)",
      "ĠQ N",
      "ĠQ R",
      "Ġl r",
      "Ġl Ãł",
      "Ġ40 20",
      "Ġ40 36",
      "Ġ40 39",
      "225 8",
      "225 0000",
      "HK B",
      "HK L",
      "HK CC",
      "HK CB",
      "AMN B",
      "AMN C",
      "AMN G",
      "SI B",
      "SI K",
      "SI M",
      "SI N",
      "Ġ\\,\\ ,\\,",
      "AG D",
      "AG BC",
      "AG MC",
      "CN P",
      "CN MA",
      "Oz y",
      "PQ NMD",
      "}}, {{",
      "240 2",
      "240 3",
      "240 643",
      "112 687500",
      "AE B",
      "AE D",
      "AE H",
      "AE BD",
      "AE BF",
      "AE MF",
      "AK B",
      "AK C",
      "AK H",
      "mn z",
      "}}> {\\",
      "}}> {{\\",
      "110 2",
      "110 6",
      "110 544",
      "115 20",
      "115 687500",
      "115 586",
      "Ġ... +",
      "140 608",
      "AI D",
      "AI M",
      "AP MQ",
      "AP NMCD",
      "CP D",
      "OAB H",
      "OAB O",
      "|> |",
      "arc cot",
      "}|= |\\",
      "Ġ30 7",
      "103 1635",
      "169 1595",
      "169 1955",
      "130 91",
      ")|= +\\",
      "MP IK",
      "MP NQ",
      "OI M",
      "}] |",
      "Oxz y",
      "220 3",
      "220 9",
      "324 1",
      "324 0000",
      "324 20000",
      "}}^{ *}",
      "}}^{ *}\\",
      "208 346",
      "208 347",
      "124 13",
      "124 656",
      "136 250",
      "){ :}\\,",
      "SABC M",
      "Ġbi áº",
      "147 20",
      "147 30",
      "147 80",
      "265 200",
      "4000 500",
      "5000 400",
      "BH C",
      "BH D",
      "GG T",
      "Ġ\\,\\, (",
      "}}}} :\\",
      "126 50",
      "153 35",
      "280 9",
      "215 30",
      "215 456",
      "320 9",
      "320 000",
      "375 4",
      "375 0000",
      "725 76000",
      "725 67000",
      "IM J",
      "ĠMC A",
      "207 360",
      "117 600",
      "117 187500",
      ")}}{ {{",
      "449 10",
      "449 18",
      "449 28",
      "449 02",
      "449 98430",
      "449 99430",
      "449 88430",
      "900 000",
      "AEF B",
      "AEF G",
      "AEF K",
      "MI N",
      "|| (\\",
      "}:\\ ,",
      "170 94",
      "176 35000",
      "176 3334",
      "270 45",
      "270 72",
      "245 80",
      "290 646",
      "354 292",
      "354 294",
      "325 74",
      "450 54",
      "AO S",
      "bt ngthcngvi",
      "}\\,\\ ,\\,",
      "114 244",
      "114 187500",
      "278 66121",
      ")}. }",
      "212 35000",
      "212 33000",
      "412 50",
      "MH AK",
      "xe n",
      "185 40",
      "185 64",
      ")}}\\ ,",
      "217 9",
      "217 354",
      "648 1458",
      "AMNP BCD",
      "BF C",
      "CE MF",
      "IK G",
      "IK MN",
      "OD EF",
      "PA Q",
      "SE BD",
      "Ġ28 160",
      "148 14720",
      "184 35",
      "175 50",
      "177 144",
      "177 147",
      "1200 96",
      "345 6",
      "345 60",
      "345 87",
      "440 74000",
      "590 40",
      "590 48",
      "720 000",
      "BMD A",
      "BMD N",
      "OH M",
      "ĠH N",
      "Ġ200 9",
      "2048 48000",
      "2048 47000",
      "129 3600",
      "346 50",
      "232 289",
      "675 0000",
      "667 1",
      "667 3",
      "667 4",
      "667 735",
      "815 000",
      "AF B",
      "AMC N",
      "BE C",
      "HE J",
      "MBC N",
      "OBC O",
      "TT G",
      "2035 144",
      "2035 145",
      "2035 143",
      "2035 146",
      "ĠĠĠĠ Ġ",
      "ĠĠĠĠ ĠĠĠ",
      "}+...+ (-",
      ",... ,",
      "223 9977",
      "2278 30",
      "2278 32",
      "2278 35",
      "2278 34",
      "2278 31",
      "311 108",
      "540 45",
      "680 430",
      "680 403",
      "975 3",
      "975 4",
      "975 5",
      "BMN E",
      "DI G",
      "DQ A",
      "IF J",
      "IF O",
      "ch ohm",
      "kh ong",
      "kh nglnhn",
      "}}}}{ {{",
      "167 23477",
      "189 20",
      "370 26",
      "777 60",
      "777 6300",
      "AHB S",
      "54527 11",
      "}\\!\\!\\! \\!",
      "-... -",
      "-... -\\",
      "-... +\\",
      "-... +(-",
      "224 25",
      "221 100",
      "327 68",
      "327 292000",
      "390 62",
      "390 625",
      "448 290",
      "448 98430",
      "615 000",
      "697 2592",
      "735 80",
      "808 0",
      "926 95100",
      "MCD A",
      "~(\\ %)",
      "á» ĳ",
      "á» ĵng",
      "}}(\\ %)",
      "203 1000",
      "1023 54624",
      "ABMN D",
      "ABNM FE",
      "Ġ47 360",
      "1313 13",
      "1313 131313",
      "328 69",
      "1968 2",
      ")... (",
      "1006 99267",
      "262 143",
      "642 1000",
      "8090 2400",
      "578 7710",
      "41212029 90",
      "41212029 91",
      "41212029 89",
      "41212029 92",
      ")! +",
      ")! }=\\",
      "214 48",
      "218 6",
      "226 80",
      "312 50",
      "314 16",
      "319 25",
      "3125 18",
      "424 65000",
      "435 93000",
      "467 94000",
      "467 12413",
      "518 3",
      "565 78",
      "665 28",
      "708 12",
      "798 33600",
      "816 26",
      "816 48",
      "925 14",
      "925 76000",
      "947 6",
      "GT G",
      "JK DA",
      "MJ IK",
      "NQ P",
      "Ġ~( *)",
      "^{+ }}\\",
      ")\\! }^",
      "}}: {",
      "}}},\\ ,(",
      "Ġ148 40",
      "Ġ148 48",
      "Ġ148 46",
      "2034 9",
      "2039 187",
      "1017 93",
      "}+.. +\\",
      "}+.. .\\",
      "}+.. ..+{",
      "157 75497",
      "259 42",
      "2592 100",
      "2592 1000",
      "194 265",
      "1945 91",
      "1945 92",
      "4068 289",
      "4068 288",
      "\\!=\\ !\\",
      "399 1680",
      "abcd e",
      "567 82",
      "443 16000",
      "470 400",
      "APR QCD",
      "29064 2000",
      "29064 0000",
      "29064 4000",
      "410 56",
      "437 4",
      "613 8",
      "717 815000",
      "737 28",
      "738 5",
      "797 161",
      "797 60000",
      "813 8589",
      "818 48",
      "818 68",
      "864 00",
      "856 88",
      "914 10",
      "933 33240",
      "980 1",
      "CG D",
      "EBC FAD",
      "KH AD",
      "SMNP D",
      "hm nghch",
      "ldo t",
      "ldo tp",
      "áº £ng",
      "Ġs á»ĳ",
      "Ġ225 280",
      "Ġ230 40",
      "Ġ230 38",
      "}}}. }",
      "2098 960",
      "2098 961",
      "1020 604",
      "1275 0000",
      "1554 6",
      "1595 280",
      "1325 8",
      "1360 80",
      "1417 13091",
      "ACG S",
      "2425 72",
      "2425 46",
      "3020 88933",
      "3215 56228",
      "MNEF PQ",
      "10086 1000",
      "10086 1016",
      "408 242",
      "4062 21",
      "4062 240",
      "Ġtcl chngminh",
      "Ġtcl btngthcngvi",
      "ĠSNN N",
      "3449 64",
      "3449 63",
      "}}+... +\\",
      "147278 480",
      "147278 481",
      "147347 190",
      "147347 191",
      "1551175 20",
      "1551175 19",
      "Ġ395054 75",
      "Ġ395054 76",
      "bintrn khong",
      "Ġ33935 125",
      "Ġ33935 120",
      "1454226 75",
      "1454226 76",
      "'~ :~\\",
      "010 59203",
      "2150 600",
      "2265 3924",
      "335 232000",
      "3190 4000",
      "3164 20",
      "438 33000",
      "442 176",
      "41600 000",
      "4137 20",
      "46666 620",
      "557 86",
      "595 000",
      "51512 14",
      "690 952",
      "710 32869",
      "719 60",
      "740 88",
      "748 13000",
      "799 56782",
      "829 440",
      "845 10",
      "866 61161",
      "944 44200",
      "9269 0000",
      ";... ;",
      "<... <",
      "COG B",
      "EI Q",
      "GAB A",
      "Gist ac",
      "Me c",
      "MHK E",
      "OHC K",
      "Skh c",
      "Tht vy",
      "Tac nchngminh",
      "ale ph",
      "cng ngvi",
      "frow n",
      "iup hichngminh",
      "ju n",
      "ls nguy",
      "lmt hmnghch",
      "nht khnglnhn",
      "nln nhtkhnglnhn",
      "ps i",
      "sime q",
      "sao chohm",
      "Ġta c",
      "ĠâĢ ĵ",
      "Ġ}}. {{",
      "ĠÄĳ á»ĵng",
      "mathfra k",
      "Ġ215 29",
      "}}}< {{",
      "}}}}{{ .",
      "Ġ115 20",
      "Ġ196 6080",
      "204034 000",
      "20412 10",
      "20403 2000",
      "Ġ327 68",
      "Ġ368 64",
      "Ġ394 24",
      "1048 575",
      "1056 6000",
      "1077 91",
      "1095 84",
      "20149 82",
      "}-... -\\",
      "Ġmá» Ļt",
      "1628 3241",
      "16119 55",
      "16142 1000",
      "16267 104",
      "1594 322",
      "1345 899",
      "1389 48873",
      "1424 92514",
      "1408 722",
      "1445 332",
      "14250 6",
      "14350 6",
      "14199 43",
      "Ġ6220 80",
      "1844 26",
      "1867 92",
      "1866 24",
      "17100 72",
      "2750 7768",
      "ABCIK C",
      "2432 38",
      "2435 600",
      "3097 18",
      "30960 4",
      "3235 82",
      "3637 960",
      "3667 290",
      "36288 000",
      "SBMD N",
      "Ġ947 20",
      "Ġ9830 40",
      "}_+^* \\",
      "4080 400",
      "4066 272",
      "4070 306",
      "2657 20",
      "2347 600",
      "2399 1000",
      "5095 45",
      "Ġtá» ©c",
      "ĠtrÃ ªn",
      "352623 000",
      "45672 181",
      "3422 27000",
      "34400 000",
      "342187 000",
      "6490 123",
      "6426815 8",
      "3375 0000",
      "Ġkho áº£ng",
      "7568 39",
      "6539 3000",
      "6577 20",
      "65318 40",
      "39840 2",
      "37332 960",
      "31139 2503",
      "80486 000",
      "3888 150",
      "38304 75",
      "42187 000",
      "Ġ1595 280",
      "44163 000",
      "richt er",
      "47900 1600",
      "471688 328",
      "68575 5000",
      "5000000 00",
      "BCDNM K",
      "74207 281",
      "7076 45000",
      "7889 0012",
      "786858 00",
      "879056 73",
      "1031635 00",
      "Ġbiáº ¿n",
      "290646 000",
      "667735 000",
      "2239977 60",
      "lsnguy nlnnhtkhnglnhn",
      "lmthmnghch bintrnkhong",
      "saochohm s"
    ]
  }
}